<pad>	0
<s>	0
</s>	0
<unk>	0
,	-3.11825
▁di	-3.4191
.	-3.46994
▁e	-3.83852
'	-3.85262
▁che	-3.91828
▁la	-4.11702
▁in	-4.24435
▁il	-4.32131
▁per	-4.42599
▁a	-4.47656
▁un	-4.62469
▁l	-4.68821
▁del	-4.74071
▁è	-4.74871
▁della	-4.82882
▁non	-4.92063
▁i	-4.93914
▁le	-4.97667
▁una	-5.0503
▁dell	-5.18412
▁dei	-5.20937
▁si	-5.32336
’	-5.35488
▁con	-5.37407
▁delle	-5.49174
▁al	-5.50719
▁sono	-5.60178
▁alla	-5.66067
▁da	-5.71334
▁ha	-5.71489
▁questo	-5.74569
▁più	-5.77133
▁europea	-5.78182
▁gli	-5.7977
▁nel	-5.8089
▁Commissione	-5.83674
▁anche	-5.9355
▁Presidente	-5.9479
Unione	-5.96953
▁come	-6.02698
▁La	-6.03093
▁all	-6.04039
▁ma	-6.07303
▁	-6.09558
▁essere	-6.11994
▁-	-6.15867
▁Parlamento	-6.15954
▁Stati	-6.21469
▁cui	-6.21833
▁sia	-6.28578
▁relazione	-6.29449
re	-6.30676
▁degli	-6.31315
▁ad	-6.33242
▁questa	-6.33288
▁Consiglio	-6.34817
:	-6.36647
▁se	-6.36651
▁membri	-6.38411
▁europeo	-6.38494
▁nella	-6.39297
▁o	-6.4039
▁Il	-6.41746
▁ai	-6.41857
no	-6.42627
▁(	-6.43337
▁alle	-6.44491
)	-6.4513
▁Signor	-6.45315
▁paesi	-6.46204
▁politica	-6.46994
▁quanto	-6.47694
▁In	-6.50518
▁sulla	-6.52767
▁dal	-6.54529
▁hanno	-6.5592
▁tutti	-6.5651
▁ci	-6.58823
▁su	-6.60071
;	-6.60186
▁tra	-6.61119
▁loro	-6.61627
▁lo	-6.61778
▁modo	-6.66635
▁sul	-6.68084
▁nell	-6.68359
▁parte	-6.69268
▁E	-6.71216
▁L	-6.71438
to	-6.72711
▁molto	-6.75537
▁fatto	-6.76839
o	-6.76992
▁lavoro	-6.7705
▁stato	-6.78228
▁dalla	-6.78321
▁d	-6.79235
ti	-6.80848
▁tale	-6.81428
?	-6.81954
te	-6.83765
▁diritti	-6.84025
▁ed	-6.84345
ta	-6.84884
▁perché	-6.86727
▁abbiamo	-6.86844
▁deve	-6.87125
▁nei	-6.87315
▁mi	-6.91756
▁proposta	-6.92531
onorevole	-6.92609
▁Non	-6.95918
▁sviluppo	-6.9681
▁solo	-6.96941
Europa	-6.98971
▁Per	-6.99068
▁cittadini	-7.00706
▁Commissario	-7.01843
▁dall	-7.02696
▁importante	-7.02952
▁ancora	-7.03274
▁può	-7.05874
a	-7.08177
▁–	-7.08294
▁sua	-7.08337
▁questione	-7.08377
▁commissione	-7.10817
▁già	-7.11513
▁mio	-7.12215
ndo	-7.12249
▁sicurezza	-7.12436
e	-7.12885
▁altri	-7.15042
▁tutto	-7.15141
▁A	-7.15152
i	-7.16889
▁situazione	-7.16981
▁mercato	-7.17845
▁prima	-7.18114
▁dobbiamo	-7.18295
▁livello	-7.19964
▁particolare	-7.20436
▁paese	-7.22016
▁nostro	-7.22094
▁settore	-7.22827
▁uno	-7.23977
▁questi	-7.24065
▁noi	-7.24222
▁due	-7.24405
▁gruppo	-7.24685
▁ho	-7.25014
▁sull	-7.25536
▁contro	-7.25873
▁suo	-7.26358
▁anni	-7.26865
▁ciò	-7.26936
▁punto	-7.27318
▁favore	-7.27379
▁quindi	-7.28101
▁nostra	-7.28694
▁colleghi	-7.28979
▁fare	-7.29252
▁senza	-7.31445
-	-7.33026
▁fine	-7.33385
▁stata	-7.34617
▁quale	-7.34778
▁oggi	-7.36346
▁diritto	-7.37475
▁vi	-7.38064
▁direttiva	-7.38174
▁materia	-7.38729
▁così	-7.39015
▁problema	-7.39177
▁agli	-7.39283
▁caso	-7.39409
▁riguarda	-7.3956
▁tratta	-7.40017
▁quali	-7.40148
▁nelle	-7.40668
▁vorrei	-7.41652
▁europei	-7.41807
▁rispetto	-7.41937
▁sarà	-7.42467
▁discussione	-7.43375
▁sui	-7.43526
▁possibile	-7.44033
▁misure	-7.44353
▁bilancio	-7.44363
▁alcuni	-7.44921
▁I	-7.45153
▁comune	-7.45597
▁base	-7.46007
▁processo	-7.4603
▁devono	-7.46708
▁onorevoli	-7.47292
▁siano	-7.47331
▁sulle	-7.47636
▁quando	-7.48714
▁sistema	-7.49461
si	-7.49651
▁tempo	-7.50899
▁tali	-7.51372
▁sempre	-7.51424
▁sociale	-7.51425
▁secondo	-7.51767
▁Le	-7.52538
▁esempio	-7.52702
▁problemi	-7.52861
▁Europa	-7.54399
▁proprio	-7.54472
▁ogni	-7.5449
▁nostri	-7.54835
▁"	-7.55795
▁siamo	-7.5605
▁momento	-7.56584
▁signor	-7.57117
▁Se	-7.57167
▁ora	-7.57712
▁stati	-7.58191
▁cooperazione	-7.58712
▁programma	-7.59717
▁futuro	-7.5973
▁fa	-7.61298
▁volta	-7.61445
▁quello	-7.61654
▁queste	-7.61785
▁garantire	-7.61819
▁luogo	-7.61904
▁Si	-7.6213
▁necessario	-7.62174
▁tutte	-7.62913
▁inoltre	-7.63081
▁persone	-7.64517
▁Mi	-7.65404
▁sta	-7.65734
▁soprattutto	-7.65736
▁proposte	-7.65918
▁ne	-7.66306
▁quadro	-7.66639
▁Stato	-7.66657
va	-7.66913
▁Sono	-7.6716
▁governo	-7.67347
▁dire	-7.68126
▁internazionale	-7.68554
▁risoluzione	-7.68606
▁onorevole	-7.6929
▁politiche	-7.69987
▁dovrebbe	-7.70194
▁umani	-7.70284
mente	-7.70289
ri	-7.70706
▁posizione	-7.71265
accordo	-7.72338
▁sostegno	-7.7246
▁emendamenti	-7.72681
▁quest	-7.72753
▁servizi	-7.73124
▁grande	-7.73739
▁nome	-7.74745
▁mondo	-7.7538
▁Vorrei	-7.75765
▁stesso	-7.76203
s	-7.76291
▁Signora	-7.76657
▁economica	-7.77105
▁merito	-7.77249
▁altre	-7.77768
▁molti	-7.77864
▁primo	-7.77887
▁ruolo	-7.78145
▁dai	-7.78536
▁maggiore	-7.78985
▁possibilità	-7.79656
▁obiettivi	-7.79919
li	-7.80175
▁tuttavia	-7.8074
▁crisi	-7.81144
▁lei	-7.81199
▁necessità	-7.81458
▁nazionali	-7.81831
▁possono	-7.8189
le	-7.82108
▁possiamo	-7.82397
▁accordo	-7.82438
▁imprese	-7.82641
▁pertanto	-7.82777
▁Questo	-7.82909
la	-7.83253
▁cosa	-7.83268
▁quella	-7.83887
rsi	-7.85045
▁Tuttavia	-7.85106
▁conto	-7.85494
▁condizioni	-7.85914
▁dello	-7.86236
▁meno	-7.86281
▁però	-7.86351
▁nuovo	-7.86561
▁donne	-7.86592
▁sarebbe	-7.87724
UE	-7.88554
▁questioni	-7.88639
▁responsabilità	-7.88735
▁avere	-7.88841
▁dopo	-7.89136
▁società	-7.89248
▁far	-7.89386
ci	-7.89521
▁libertà	-7.89804
r	-7.89885
▁prodotti	-7.90372
▁fra	-7.90774
▁cento	-7.90942
▁Nel	-7.90973
▁relatore	-7.91035
ne	-7.91128
▁detto	-7.91654
▁controllo	-7.91849
▁regolamento	-7.92052
▁negli	-7.92115
azione	-7.92313
▁dalle	-7.92338
▁possa	-7.92357
▁ricerca	-7.92701
▁mia	-7.93016
▁soltanto	-7.93399
▁norme	-7.93507
▁Presidenza	-7.93945
▁Come	-7.94245
▁nostre	-7.94268
▁strategia	-7.94396
▁decisione	-7.94699
▁Dobbiamo	-7.95617
vi	-7.96402
▁nonché	-7.96971
▁relazioni	-7.97074
▁generale	-7.97262
ro	-7.97275
▁vista	-7.97873
▁risorse	-7.9798
▁tre	-7.98377
▁dibattito	-7.98493
nte	-7.9857
▁qualità	-7.98836
▁vita	-7.9921
▁nuovi	-7.99407
▁deputati	-8.0038
▁c	-8.00578
▁era	-8.00737
▁allo	-8.00746
è	-8.00751
▁Unione	-8.01511
▁aiuti	-8.01715
▁principio	-8.01757
▁Ma	-8.02339
▁lotta	-8.02354
rà	-8.02439
▁protezione	-8.02647
▁corso	-8.03337
▁milioni	-8.03553
▁grado	-8.04762
▁altro	-8.04766
zione	-8.04773
▁giorno	-8.04978
▁autorità	-8.05106
▁ri	-8.05314
▁consumatori	-8.05609
▁euro	-8.05876
▁state	-8.0597
mo	-8.06155
l	-8.06255
▁pesca	-8.07731
▁riguardo	-8.08222
▁desidero	-8.08495
▁parere	-8.08617
altro	-8.09402
▁nuova	-8.09411
▁invece	-8.09522
▁abbia	-8.09597
nti	-8.09601
▁poiché	-8.0977
▁né	-8.10174
▁attività	-8.10273
▁senso	-8.10348
▁progetto	-8.10499
▁europee	-8.1054
▁Ho	-8.10866
▁motivo	-8.11615
▁risposta	-8.11643
▁politico	-8.11693
▁bisogno	-8.12282
▁affinché	-8.12327
▁affrontare	-8.12422
▁verso	-8.12527
▁va	-8.12752
▁fondamentale	-8.13219
▁potrebbe	-8.13246
▁viene	-8.13335
ambito	-8.13395
▁alcune	-8.13525
ni	-8.13792
▁via	-8.13981
▁Trattato	-8.14254
▁credo	-8.14575
▁regioni	-8.14665
anno	-8.15047
▁fondi	-8.15088
▁nuove	-8.15231
▁soluzione	-8.15231
sse	-8.15269
▁fondamentali	-8.15675
▁dare	-8.16454
▁Uniti	-8.16617
▁suoi	-8.16717
▁negoziati	-8.17432
▁presente	-8.17642
▁votato	-8.17989
▁lavoratori	-8.18084
▁informazioni	-8.18099
▁Abbiamo	-8.18318
▁crescita	-8.18904
▁numero	-8.19015
▁sotto	-8.19134
▁È	-8.19227
▁termine	-8.19433
▁Ciò	-8.19754
▁procedura	-8.19786
▁confronti	-8.20057
▁politici	-8.20069
▁sociali	-8.20178
▁oltre	-8.20208
▁democrazia	-8.20267
▁n	-8.21183
amo	-8.21238
▁saranno	-8.2131
▁dato	-8.21558
▁causa	-8.2203
lo	-8.22271
▁dati	-8.22305
n	-8.22478
ambiente	-8.22601
▁realtà	-8.22843
▁termini	-8.22881
▁anno	-8.23302
▁risultati	-8.23422
▁certo	-8.23832
▁campo	-8.24018
▁poter	-8.24128
▁aspetti	-8.24278
▁periodo	-8.24619
▁parti	-8.24829
▁regione	-8.2485
▁importanti	-8.24866
▁qui	-8.25249
▁poi	-8.25572
▁Un	-8.25795
▁priorità	-8.25827
▁testo	-8.26234
▁nazionale	-8.26755
▁s	-8.27052
▁mentre	-8.27465
▁accordi	-8.27912
▁votazione	-8.282
▁piano	-8.28247
▁settori	-8.28351
▁tutela	-8.28409
▁pubblica	-8.28469
▁lungo	-8.28621
▁stessa	-8.28648
▁fronte	-8.28667
▁stiamo	-8.28831
na	-8.28837
ca	-8.28855
”	-8.2886
▁Questa	-8.28955
▁Inoltre	-8.29527
▁diversi	-8.29605
▁interno	-8.29635
▁tema	-8.29859
▁propria	-8.29989
▁occorre	-8.3015
▁programmi	-8.30224
▁sue	-8.30363
articolo	-8.3045
▁economico	-8.30922
▁seguito	-8.31327
rci	-8.3152
▁ritengo	-8.31542
▁aver	-8.31677
vo	-8.31925
▁mondiale	-8.31951
▁membro	-8.32811
▁rappresenta	-8.32915
▁grandi	-8.3305
▁pace	-8.33325
▁punti	-8.33461
▁ben	-8.33768
▁concorrenza	-8.33777
▁gestione	-8.34099
di	-8.34179
▁creare	-8.34184
▁Gli	-8.34199
▁tal	-8.34223
▁effetti	-8.34321
▁domanda	-8.34753
ranno	-8.34764
▁attenzione	-8.35082
▁infatti	-8.35188
!	-8.35416
▁migliorare	-8.36031
ra	-8.36305
▁produzione	-8.36358
co	-8.3647
▁signora	-8.36538
▁insieme	-8.36816
▁attraverso	-8.36974
▁forse	-8.37128
▁vengono	-8.37331
▁me	-8.37399
▁mai	-8.37499
▁ringraziare	-8.37569
▁importanza	-8.38204
▁quelli	-8.38261
▁salute	-8.38562
▁comunitario	-8.3876
▁vogliamo	-8.39129
zioni	-8.39331
EN	-8.39388
▁dialogo	-8.39393
▁quelle	-8.39429
▁azioni	-8.39491
▁sostenere	-8.39505
▁dagli	-8.396
▁riforma	-8.39655
▁trattato	-8.39713
▁spesso	-8.39774
▁voto	-8.39878
▁proposito	-8.39952
▁Lisbona	-8.40139
▁obiettivo	-8.40203
▁contesto	-8.4023
▁sembra	-8.40463
▁tutta	-8.40535
▁tanto	-8.40803
sa	-8.41051
▁gruppi	-8.41091
▁maniera	-8.41151
▁passo	-8.41166
▁interessi	-8.41203
▁chiaro	-8.41224
A	-8.41397
▁tipo	-8.41545
▁chi	-8.41736
▁decisioni	-8.42262
▁migliore	-8.42422
▁progressi	-8.42647
▁creazione	-8.42759
▁bene	-8.42854
▁giustizia	-8.42905
▁sottolineare	-8.42995
/	-8.43056
▁strumento	-8.43626
▁commercio	-8.43681
▁ultimi	-8.43852
▁presentato	-8.44033
▁strumenti	-8.44062
de	-8.44448
se	-8.44526
▁dove	-8.44572
ordine	-8.44631
▁casi	-8.44864
occupazione	-8.44865
interno	-8.4503
▁Ci	-8.45313
▁trasporto	-8.45634
economia	-8.45736
▁C	-8.46265
▁legislazione	-8.4627
ve	-8.46309
▁seno	-8.46346
▁popolazione	-8.4643
▁valutazione	-8.46763
rlo	-8.46899
▁de	-8.47076
▁dovrebbero	-8.47241
▁avanti	-8.47402
▁coloro	-8.4749
▁costi	-8.47553
▁Credo	-8.47562
▁troppo	-8.47708
▁avuto	-8.47789
▁misura	-8.47855
obiettivo	-8.47938
▁qualche	-8.47962
▁volte	-8.48355
▁collega	-8.48413
▁debba	-8.48441
▁promuovere	-8.48689
▁maggioranza	-8.48707
emendamento	-8.48754
▁Vi	-8.49046
▁sede	-8.49149
▁richiesta	-8.49289
▁progetti	-8.49347
▁alcun	-8.49426
▁Ritengo	-8.49602
▁prendere	-8.49688
▁possano	-8.50152
▁riferimento	-8.50217
▁successo	-8.50239
▁meglio	-8.50338
▁Turchia	-8.5084
▁durante	-8.50851
▁vero	-8.50934
▁posti	-8.50972
▁ragione	-8.51292
▁comunicazione	-8.513
▁Al	-8.51401
▁significa	-8.51694
▁efficace	-8.5194
▁stabilità	-8.51966
▁difficile	-8.52089
x	-8.52156
▁parole	-8.52165
▁rischio	-8.52225
▁io	-8.52279
▁linea	-8.52382
▁iscritto	-8.52445
▁diverse	-8.52598
▁Pertanto	-8.52801
▁forma	-8.53036
industria	-8.53148
▁estremamente	-8.53324
▁principi	-8.53387
▁Con	-8.53586
sta	-8.53596
▁dunque	-8.53635
sti	-8.53808
▁svolto	-8.5385
▁serie	-8.53927
▁seconda	-8.54144
▁istituzioni	-8.54207
▁pubblico	-8.54544
▁sforzi	-8.54579
▁adottare	-8.54663
▁raggiungere	-8.54832
▁Anche	-8.55212
▁risultato	-8.55798
▁presentata	-8.56017
▁difficoltà	-8.56424
▁entro	-8.56504
▁trovare	-8.56596
importanza	-8.56607
▁ottenere	-8.56691
▁Russia	-8.56822
mento	-8.57011
▁evitare	-8.57141
▁qualsiasi	-8.57364
▁riduzione	-8.57417
▁Di	-8.57472
▁maggior	-8.5766
▁comunque	-8.58061
▁visto	-8.581
▁impegno	-8.58154
in	-8.58183
▁internazionali	-8.5852
▁assolutamente	-8.58644
▁molte	-8.58844
▁sistemi	-8.58872
▁considerazione	-8.58916
▁esprimere	-8.58962
▁capacità	-8.59118
▁aspetto	-8.59218
▁globale	-8.59261
▁davvero	-8.59279
▁Da	-8.59317
▁Infine	-8.59343
▁chiaramente	-8.59825
▁mesi	-8.60087
▁Corte	-8.6011
▁essenziale	-8.6017
▁conseguenze	-8.60229
▁forte	-8.60303
mi	-8.60459
t	-8.60519
▁stanno	-8.60543
▁positivo	-8.60586
▁trasparenza	-8.60688
▁.	-8.60781
so	-8.61024
▁solidarietà	-8.61095
▁posso	-8.61227
energia	-8.61269
▁Desidero	-8.61511
▁sugli	-8.61669
▁compromesso	-8.61771
▁dovremmo	-8.62228
▁altresì	-8.62494
▁attualmente	-8.62782
▁giuridica	-8.63009
▁finanziaria	-8.63058
▁essa	-8.63417
▁scorso	-8.6368
c	-8.63943
ma	-8.63986
▁investimenti	-8.64127
▁iniziative	-8.64222
▁“	-8.64262
▁governi	-8.64585
▁ridurre	-8.64739
▁pari	-8.64822
altra	-8.64838
ce	-8.65065
▁Comunità	-8.65171
▁opportunità	-8.65371
▁mercati	-8.65672
▁venga	-8.66016
▁dichiarazione	-8.66164
▁presidente	-8.66375
▁centrale	-8.6646
▁fino	-8.66484
▁disposizioni	-8.66694
tà	-8.6685
▁legge	-8.66879
▁dovrà	-8.66909
▁comunità	-8.66936
▁grazie	-8.66939
▁commerciali	-8.67038
▁contributo	-8.67076
▁occasione	-8.67096
▁conseguenza	-8.67372
▁bambini	-8.67608
▁economici	-8.67847
▁unico	-8.68193
▁Lo	-8.68559
▁circa	-8.68711
▁mettere	-8.68797
02	-8.6888
▁coesione	-8.68929
▁continuare	-8.68952
▁trasporti	-8.69129
▁vigore	-8.6929
▁scopo	-8.69292
▁forza	-8.6936
▁terzi	-8.6937
▁carica	-8.69445
▁fornire	-8.69714
▁finanziario	-8.70188
▁formazione	-8.70264
▁valori	-8.70421
▁intervento	-8.70817
▁proprie	-8.70819
▁vari	-8.70834
▁interesse	-8.70854
Assemblea	-8.71012
▁giovani	-8.71248
▁fase	-8.7132
▁propri	-8.71725
▁particolarmente	-8.71775
▁terrorismo	-8.71794
▁elezioni	-8.71853
▁approccio	-8.71862
▁fiducia	-8.72254
▁compito	-8.72379
▁alcuna	-8.72402
▁criteri	-8.72522
▁affermato	-8.72709
▁finanziari	-8.7277
▁ringrazio	-8.72814
attuale	-8.72984
▁fosse	-8.73139
▁genere	-8.73304
▁Siamo	-8.7331
▁rendere	-8.73374
d	-8.73678
▁esiste	-8.73768
▁prossimo	-8.73824
che	-8.73866
attuazione	-8.74151
▁attuale	-8.74194
▁procedure	-8.74301
▁Convenzione	-8.74333
▁cambiamento	-8.74441
▁ambito	-8.74522
▁poco	-8.74553
▁volontà	-8.74586
me	-8.75041
▁documento	-8.75042
▁organizzazioni	-8.75087
rla	-8.75159
▁ambientale	-8.75191
▁principali	-8.75362
▁sostenibile	-8.75501
▁ricordare	-8.75631
▁strada	-8.75665
▁regole	-8.75864
u	-8.75873
▁affari	-8.7621
applicazione	-8.76221
▁avviso	-8.76277
▁piccole	-8.76412
▁Nazioni	-8.76567
▁breve	-8.76882
▁intende	-8.76979
▁terzo	-8.77029
▁chiedere	-8.77235
▁relatrice	-8.77268
▁comuni	-8.77287
▁mezzi	-8.77711
▁regime	-8.77813
▁domani	-8.77878
rne	-8.77934
&	-8.78053
▁parlare	-8.78065
▁Unite	-8.78254
▁posto	-8.78381
iniziativa	-8.7839
▁cose	-8.78499
▁potere	-8.78786
▁guerra	-8.78884
▁presentare	-8.78979
DE	-8.79009
▁personale	-8.79054
uomo	-8.79301
▁ovviamente	-8.79312
▁piuttosto	-8.7941
▁appena	-8.79655
▁Una	-8.79682
▁parola	-8.79688
▁quel	-8.79786
▁prezzi	-8.79814
BC	-8.80263
▁po	-8.80441
▁contrario	-8.80524
▁paragrafo	-8.81049
▁rafforzare	-8.8106
▁costituisce	-8.8109
▁atto	-8.81189
▁disposizione	-8.81373
▁finanziarie	-8.81495
▁vale	-8.81501
▁finanziamento	-8.81505
▁emendamento	-8.81536
▁assicurare	-8.8163
▁so	-8.81669
▁Tale	-8.81687
▁settimana	-8.81854
"	-8.82238
▁necessaria	-8.82332
▁avrebbe	-8.82386
▁pubblici	-8.82403
▁buona	-8.82612
▁stessi	-8.82799
▁buon	-8.82891
▁relative	-8.82959
▁collaborazione	-8.82964
▁partecipazione	-8.83056
▁proposto	-8.83121
tta	-8.83394
▁luce	-8.83664
#	-8.83698
▁vittime	-8.8371
▁necessarie	-8.83977
▁parlamentari	-8.84257
▁revisione	-8.84268
agricoltura	-8.84454
▁parlamentare	-8.84455
▁naturalmente	-8.84575
bili	-8.84748
▁povertà	-8.84818
▁mantenere	-8.8501
▁relativa	-8.85066
▁pratica	-8.85122
2	-8.85403
▁difesa	-8.85492
▁sufficiente	-8.85535
▁porre	-8.85726
▁civile	-8.85926
▁Istituzioni	-8.86104
▁regionale	-8.86145
▁quasi	-8.86513
▁rispondere	-8.86669
▁sa	-8.86768
”.	-8.86852
▁strutturali	-8.87154
Aula	-8.87161
▁emissioni	-8.87202
remo	-8.87287
▁valore	-8.87346
▁violenza	-8.87611
rle	-8.87669
▁comunitaria	-8.87707
▁auguro	-8.87768
▁dovuto	-8.87973
▁risolvere	-8.88152
▁allora	-8.88407
▁passato	-8.88421
rli	-8.88457
▁prevede	-8.88635
▁animali	-8.88718
▁10	-8.88732
▁elementi	-8.88861
▁direzione	-8.88907
bile	-8.88944
do	-8.89154
euro	-8.89187
▁favorevole	-8.89277
▁conclusione	-8.89461
▁deciso	-8.89546
ga	-8.89765
▁Occorre	-8.89953
tti	-8.90046
▁ossia	-8.90349
idea	-8.90477
▁servizio	-8.90546
▁Fondo	-8.90579
▁potrà	-8.90771
▁reca	-8.90805
▁svolgere	-8.9099
▁motivi	-8.91107
▁vengano	-8.91126
▁normativa	-8.91209
zzazione	-8.91289
▁economiche	-8.91448
▁libera	-8.91618
▁tenere	-8.9167
▁essi	-8.91861
y	-8.91928
▁almeno	-8.92049
▁popolo	-8.92313
adesione	-8.9233
vano	-8.92336
rò	-8.92483
ste	-8.92574
▁coordinamento	-8.92682
gi	-8.92772
▁Cina	-8.92796
▁nulla	-8.92899
inizio	-8.93361
▁raggiunto	-8.93456
▁pro	-8.93552
▁agire	-8.93601
▁competenze	-8.9361
▁contribuire	-8.93644
uso	-8.93899
▁potrebbero	-8.94045
▁contempo	-8.94123
▁chiede	-8.94151
▁1	-8.94186
▁riforme	-8.94201
▁scambio	-8.94249
io	-8.94257
▁20	-8.94427
▁pienamente	-8.94512
»	-8.94589
▁Nell	-8.94917
▁applicazione	-8.95073
▁Conferenza	-8.95496
▁grave	-8.95556
▁gravi	-8.95618
▁chiesto	-8.95797
▁alimentare	-8.96073
▁miei	-8.96154
▁spazio	-8.96352
▁mancanza	-8.96378
▁opportuno	-8.9644
▁vuole	-8.96584
▁adottato	-8.96593
tto	-8.96904
▁pre	-8.97067
informazione	-8.97103
▁dubbio	-8.97127
istruzione	-8.97309
▁re	-8.97388
▁maggiori	-8.97504
▁cultura	-8.97653
▁zone	-8.97912
accesso	-8.97931
▁accesso	-8.97962
▁erano	-8.97998
▁migliori	-8.98207
▁Regno	-8.98235
▁oggetto	-8.98695
da	-8.987
▁aumento	-8.98891
▁farlo	-8.99611
▁definizione	-8.99651
▁vedere	-8.99691
▁preoccupazione	-8.99726
▁principale	-8.99992
▁necessari	-8.99992
▁pacchetto	-9.00077
▁UE	-9.0013
▁discutere	-9.00559
▁chiedo	-9.00667
▁presenti	-9.00693
▁miglioramento	-9.00706
▁espresso	-9.00731
▁recente	-9.00743
▁semplicemente	-9.00756
▁Vertice	-9.00828
▁purtroppo	-9.0091
▁bensì	-9.00913
▁mandato	-9.0093
▁impegni	-9.01008
attenzione	-9.01114
▁li	-9.01293
▁energetica	-9.01393
▁giusto	-9.0156
adozione	-9.016
▁prova	-9.01611
zza	-9.01785
▁lettura	-9.01879
▁natura	-9.01903
▁Oggi	-9.0198
▁quattro	-9.02032
▁accettare	-9.02104
▁ovvero	-9.02394
▁concludere	-9.02427
rebbe	-9.02525
▁competitività	-9.02592
▁potuto	-9.02627
rvi	-9.02711
▁Unito	-9.02751
▁2	-9.02812
▁nonostante	-9.02871
are	-9.02967
▁votare	-9.03435
▁tempi	-9.03458
▁produttori	-9.03519
▁iniziativa	-9.0358
ge	-9.03603
opinione	-9.03635
▁dimostrato	-9.03661
▁lavorare	-9.03737
▁rappresentanti	-9.03764
▁«	-9.03901
▁consenso	-9.04
▁rischi	-9.04127
▁gran	-9.042
▁sfide	-9.04271
▁intervenire	-9.04556
▁miliardi	-9.04599
▁Noi	-9.0478
▁portare	-9.04797
integrazione	-9.04835
▁cioè	-9.04842
▁infine	-9.04957
▁concerne	-9.05093
▁modifica	-9.05105
▁aveva	-9.05143
▁sappiamo	-9.0519
lla	-9.05201
▁modello	-9.05215
▁veramente	-9.05419
▁spese	-9.05449
▁data	-9.05601
▁cambiamenti	-9.05649
▁sì	-9.05723
tte	-9.0573
lu	-9.05811
▁rispettare	-9.05907
▁seduta	-9.06023
▁abbiano	-9.06082
▁3	-9.06154
▁agricola	-9.06284
▁locali	-9.06354
▁bilanci	-9.06426
▁disoccupazione	-9.06476
▁Repubblica	-9.06607
▁ambientali	-9.06608
▁aree	-9.06706
▁energia	-9.06985
▁cinque	-9.07185
▁partenariato	-9.07351
fi	-9.07448
▁fondo	-9.07724
ssi	-9.08184
▁ulteriori	-9.0828
▁adesso	-9.08389
▁que	-9.08501
▁relativi	-9.08577
▁dimostra	-9.08596
▁innanzi	-9.08645
▁B	-9.08719
▁nello	-9.08727
▁sapere	-9.08735
▁aumentare	-9.08777
C	-9.08818
▁occupazione	-9.08819
▁15	-9.0882
▁promozione	-9.08905
▁G	-9.09022
▁procedere	-9.09128
▁livelli	-9.09203
▁candidati	-9.09443
▁voi	-9.09458
▁fatti	-9.09618
▁realizzare	-9.09865
▁pur	-9.09911
▁effettivamente	-9.09917
▁controlli	-9.09994
▁discussioni	-9.1003
▁soluzioni	-9.1018
▁dicembre	-9.10226
opportunità	-9.10229
▁osservazioni	-9.10231
gli	-9.10411
▁evidente	-9.10481
▁Ministro	-9.10498
▁forze	-9.10772
▁assistenza	-9.10838
▁ormai	-9.10939
regolamentazione	-9.11148
▁qualcosa	-9.11261
▁temi	-9.11318
▁aziende	-9.11366
▁agricoltori	-9.11534
▁presenza	-9.11602
▁denaro	-9.11749
▁preoccupazioni	-9.11956
introduzione	-9.12079
▁conti	-9.12652
interesse	-9.12652
▁anch	-9.12748
▁circolazione	-9.12768
m	-9.12777
▁competenza	-9.12783
▁definire	-9.12882
▁massima	-9.12963
▁5	-9.12971
impegno	-9.13249
▁Spero	-9.13266
▁ragioni	-9.13315
▁esso	-9.13345
▁elemento	-9.1338
▁propone	-9.13905
▁interventi	-9.13922
▁resto	-9.1418
▁chiara	-9.14268
▁estera	-9.14332
rmi	-9.14462
▁frontiere	-9.14487
▁continua	-9.14504
▁territorio	-9.14701
▁Francia	-9.14756
▁esame	-9.14778
▁nucleare	-9.14993
▁esistenti	-9.15007
▁ca	-9.15033
ultima	-9.1532
▁uomini	-9.15374
▁finanziamenti	-9.15407
▁fuori	-9.15529
▁democratica	-9.15549
▁azione	-9.15605
▁democratico	-9.15895
▁armi	-9.15902
▁richieste	-9.15932
▁attuali	-9.16163
▁pare	-9.1619
▁vanno	-9.16233
▁conclusioni	-9.16254
S	-9.16535
▁lavori	-9.1684
▁varie	-9.16857
▁zona	-9.16913
▁facendo	-9.16962
▁numerosi	-9.17012
▁semplice	-9.17013
▁partner	-9.17043
▁parlato	-9.17061
▁riunione	-9.17087
▁comunitarie	-9.17102
▁presidenza	-9.17107
▁certamente	-9.17144
8	-9.1722
▁previsto	-9.17221
▁esigenze	-9.17254
▁Ora	-9.17265
▁com	-9.17383
▁responsabili	-9.17453
▁D	-9.17666
▁nessuno	-9.17715
▁informazione	-9.18006
▁approvato	-9.18311
▁S	-9.18319
▁Secondo	-9.18329
▁dichiarazioni	-9.18335
▁trattamento	-9.18376
menti	-9.18628
▁dovranno	-9.18641
▁introdurre	-9.18647
▁prodotto	-9.18757
▁totale	-9.18789
go	-9.18804
▁lieto	-9.18954
▁compiere	-9.1899
▁giorni	-9.19036
▁tramite	-9.19245
▁standard	-9.19367
▁storia	-9.19403
nza	-9.19473
▁ritiene	-9.19533
▁attuazione	-9.19542
▁reale	-9.19806
5	-9.20002
▁responsabile	-9.20015
▁conflitto	-9.20132
ria	-9.20134
▁000	-9.20232
▁singoli	-9.20249
▁avrà	-9.20399
pi	-9.20443
▁provvedimenti	-9.20516
▁spero	-9.20541
▁reti	-9.20564
▁sviluppare	-9.20737
▁verrà	-9.20818
▁parità	-9.20899
▁adesione	-9.20964
attività	-9.20997
▁consentire	-9.21055
▁prevenzione	-9.21172
▁giuridico	-9.21526
▁12	-9.21721
▁scelta	-9.2178
▁passi	-9.21866
on	-9.22065
▁funzionamento	-9.22076
iberalizzazione	-9.22086
▁vantaggio	-9.22088
▁trova	-9.22118
▁medie	-9.22143
▁applicare	-9.22175
▁sanzioni	-9.22291
▁comunitari	-9.22617
▁cercare	-9.22715
▁fiscale	-9.22787
▁afferma	-9.22879
▁ministro	-9.23027
▁co	-9.2313
▁mezzo	-9.23194
tori	-9.23288
ba	-9.23352
▁libero	-9.23492
▁gas	-9.23541
intera	-9.23557
▁giugno	-9.23855
ultimo	-9.23903
▁preso	-9.23947
▁penso	-9.24152
▁Banca	-9.24586
▁bisogna	-9.24724
▁sanità	-9.24831
▁offrire	-9.24887
▁ampio	-9.25002
▁Costituzione	-9.25201
P	-9.25356
▁giusta	-9.25569
▁presto	-9.25663
▁decidere	-9.25708
▁prossimi	-9.25783
▁traffico	-9.25831
▁verbale	-9.25937
▁morte	-9.26018
▁prospettive	-9.26115
▁sicuramente	-9.26339
▁fini	-9.26563
immigrazione	-9.26584
▁tecnologie	-9.26612
▁direttamente	-9.26637
▁richiede	-9.26753
▁aiuto	-9.26962
▁fanno	-9.27013
▁stabilire	-9.27107
▁commerciale	-9.27114
▁simile	-9.27219
▁titolo	-9.27326
▁Primo	-9.274
▁congratularmi	-9.27471
▁sottolineato	-9.27583
▁Penso	-9.27705
▁attuare	-9.27726
cu	-9.27732
▁debbano	-9.2777
▁Bruxelles	-9.27778
▁rete	-9.27783
▁precedente	-9.27786
▁prospettiva	-9.27795
▁culturale	-9.27974
▁sei	-9.2798
▁Germania	-9.28155
▁contenuto	-9.28227
▁esistono	-9.28227
bi	-9.28292
▁sostanze	-9.28445
▁rapporti	-9.28553
assistenza	-9.28566
▁conoscenza	-9.28684
▁seguire	-9.28689
ali	-9.28694
▁considerare	-9.28697
▁riconoscimento	-9.28699
▁dimensione	-9.28753
fe	-9.28772
▁chiusa	-9.2881
▁requisiti	-9.28953
▁rifiuti	-9.28972
▁documenti	-9.29008
▁combattere	-9.29373
impatto	-9.29554
▁25	-9.29618
▁chiarezza	-9.29895
▁discriminazione	-9.29937
▁utile	-9.30165
▁valutare	-9.30257
▁carattere	-9.30274
▁Ha	-9.30532
▁regionali	-9.30542
occasione	-9.30588
▁prossima	-9.30779
▁argomento	-9.30942
1	-9.31053
▁compiuti	-9.31053
▁messaggio	-9.31078
▁ministri	-9.31202
▁specifiche	-9.31258
allargamento	-9.31315
▁col	-9.31327
▁pieno	-9.31389
▁guida	-9.31404
▁dieci	-9.31587
▁riteniamo	-9.31594
area	-9.3161
▁fin	-9.31614
▁finora	-9.31646
ssimo	-9.31852
▁alimentari	-9.31923
▁concetto	-9.32007
▁condizione	-9.32064
▁svolgerà	-9.3221
▁rappresentano	-9.32251
▁aggiungere	-9.32315
▁spirito	-9.32402
▁relativo	-9.3261
g	-9.32695
▁Quando	-9.32799
▁limiti	-9.32913
▁specifico	-9.32989
▁devo	-9.33031
▁domande	-9.33103
▁climatico	-9.33241
essere	-9.33574
▁andare	-9.33796
▁rende	-9.33836
▁minaccia	-9.33887
▁polizia	-9.34231
▁Purtroppo	-9.34269
▁ieri	-9.34269
▁Kosovo	-9.34345
▁affermare	-9.346
▁4	-9.34608
▁Israele	-9.34685
▁gennaio	-9.3477
▁indispensabile	-9.34798
▁aiutare	-9.34941
f	-9.34953
llo	-9.35032
p	-9.3528
▁media	-9.35284
ver	-9.35301
▁dovere	-9.35307
▁sfida	-9.35331
▁30	-9.35342
▁complesso	-9.35429
▁costruzione	-9.35467
▁orientamenti	-9.35703
▁pubbliche	-9.36131
▁ricevuto	-9.36151
▁mediante	-9.36185
▁O	-9.36263
▁19	-9.36363
▁modalità	-9.36465
du	-9.36484
▁riconoscere	-9.36753
B	-9.36886
▁Grazie	-9.36898
▁giustamente	-9.37185
▁poteri	-9.37303
▁parla	-9.3735
smo	-9.37367
▁voglio	-9.3737
▁certa	-9.37487
chi	-9.37585
▁prezzo	-9.37793
▁partito	-9.37818
▁esse	-9.37824
al	-9.37866
▁costo	-9.3791
▁appoggio	-9.38144
rie	-9.38324
▁finale	-9.38356
▁avviare	-9.38368
▁vogliono	-9.38391
▁Perché	-9.38401
▁tener	-9.38453
▁utilizzare	-9.38486
▁popoli	-9.38512
▁militare	-9.38529
”,	-9.38579
▁ordine	-9.38719
▁lato	-9.38911
▁modifiche	-9.39013
▁rapporto	-9.39072
▁porta	-9.39112
▁turismo	-9.39314
▁disponibili	-9.39338
▁risulta	-9.39354
▁So	-9.39522
▁francese	-9.39537
▁atti	-9.39609
▁nuovamente	-9.39784
▁flessibilità	-9.39808
▁clima	-9.39844
▁transfrontalier	-9.39943
▁civili	-9.40045
▁rafforzamento	-9.40091
▁probabilmente	-9.40106
▁addirittura	-9.40126
▁rappresentante	-9.40164
▁pensare	-9.40347
▁subito	-9.40352
▁comporta	-9.40625
▁adottata	-9.40626
▁direttive	-9.40627
▁diventare	-9.40688
▁monetaria	-9.4069
▁presso	-9.40793
▁realizzazione	-9.40817
▁partecipare	-9.40928
▁Ri	-9.40939
sso	-9.40994
▁rapidamente	-9.40998
▁mese	-9.41047
▁Io	-9.41062
▁altrettanto	-9.41266
▁infrastrutture	-9.41295
v	-9.41315
sci	-9.41363
ora	-9.41382
tra	-9.41553
▁pena	-9.41617
▁meccanismo	-9.41687
▁potranno	-9.41729
▁portata	-9.41754
▁Onorevoli	-9.4177
▁vera	-9.41785
▁sviluppi	-9.41812
▁piena	-9.41849
▁posizioni	-9.41954
▁ulteriormente	-9.42123
▁percento	-9.42165
▁struttura	-9.42226
▁delegazione	-9.42336
▁equilibrio	-9.42533
▁Ecco	-9.42578
unica	-9.42589
▁no	-9.42667
▁gioco	-9.42728
▁settimane	-9.42897
▁ce	-9.42959
▁massimo	-9.43069
▁maggio	-9.43229
▁Aula	-9.43237
▁stesse	-9.43507
sce	-9.43685
▁9	-9.43694
▁Grecia	-9.43758
▁marzo	-9.43801
▁sé	-9.44027
▁acque	-9.44145
▁generali	-9.44165
nta	-9.44181
▁ambiente	-9.44276
▁danni	-9.4429
▁studio	-9.44375
▁città	-9.44522
▁inaccettabile	-9.44552
mp	-9.44698
▁Fondi	-9.44736
▁globalizzazione	-9.44827
▁fonti	-9.44832
▁permettere	-9.44885
▁specie	-9.44885
▁pratiche	-9.44928
▁relatori	-9.44949
▁orientale	-9.44975
▁partiti	-9.4518
▁progresso	-9.45313
▁Su	-9.45331
▁sforzo	-9.45356
▁situazioni	-9.45446
▁Dopo	-9.45594
▁13	-9.45638
▁anti	-9.4564
tu	-9.45642
▁sensi	-9.45667
▁adottate	-9.45818
▁completamente	-9.45973
6	-9.45984
▁interni	-9.46026
▁finalmente	-9.46027
▁ricordato	-9.46056
▁metodo	-9.46456
▁capitale	-9.4655
▁vantaggi	-9.46597
▁rurale	-9.46609
▁Onorevole	-9.46696
▁chiave	-9.46697
▁imp	-9.46715
z	-9.47054
FR	-9.47056
▁comitato	-9.47218
▁notevole	-9.47221
▁strutture	-9.47308
▁giungere	-9.47396
▁forme	-9.47445
▁operatori	-9.47583
▁sarebbero	-9.47637
▁divieto	-9.47703
▁tenuto	-9.47823
▁presenta	-9.47861
▁settembre	-9.47879
▁capire	-9.47909
▁persona	-9.4797
▁partire	-9.48105
I	-9.48168
▁proteggere	-9.48289
▁legislativo	-9.48298
▁voce	-9.48387
▁precedenti	-9.4841
▁riusciti	-9.4842
7	-9.48473
innovazione	-9.48507
▁uso	-9.48603
▁specifica	-9.4861
fa	-9.48627
▁positivi	-9.4863
▁positiva	-9.48941
▁troviamo	-9.49326
▁meccanismi	-9.49522
▁unica	-9.49523
▁centro	-9.49589
▁7	-9.49912
▁asilo	-9.49974
▁persino	-9.50075
erà	-9.50082
▁Carta	-9.50197
istituzione	-9.50243
k	-9.50348
▁Questi	-9.50357
▁ultimo	-9.50396
▁analisi	-9.50517
h	-9.5052
▁interessati	-9.50606
▁raccomandazioni	-9.507
▁PPE	-9.50717
▁presentati	-9.50726
interrogazione	-9.50833
iamo	-9.509
aumento	-9.50929
▁passeggeri	-9.50965
▁adeguato	-9.50981
▁esercitare	-9.51027
▁simili	-9.51034
er	-9.51172
▁oppure	-9.51204
▁lunga	-9.51334
▁costituiscono	-9.51398
ssa	-9.51443
era	-9.51544
▁consumo	-9.51695
▁capi	-9.51707
▁integrazione	-9.51785
ato	-9.51844
bbe	-9.51954
▁50	-9.52008
▁spetta	-9.52129
▁Sarebbe	-9.52158
▁Tutti	-9.52179
po	-9.52222
▁tentativo	-9.5227
▁potremo	-9.52291
▁garanzia	-9.5243
▁pressione	-9.52524
cca	-9.52552
▁concrete	-9.52592
▁potenziale	-9.52689
▁impatto	-9.52691
▁Romania	-9.52823
▁possibili	-9.5299
▁sola	-9.53003
20	-9.53076
▁favorire	-9.53094
▁metodi	-9.53217
▁Spagna	-9.53309
▁umana	-9.53309
▁effetto	-9.53329
▁Libro	-9.5338
▁pressioni	-9.53427
M	-9.53464
▁ulteriore	-9.5347
▁conflitti	-9.53589
▁minimo	-9.53589
▁criminalità	-9.53598
▁De	-9.53627
▁merci	-9.53667
▁spesa	-9.53735
▁dice	-9.53878
▁sostenuto	-9.53916
▁dichiarato	-9.53962
▁efficaci	-9.53971
▁esperti	-9.54009
3	-9.54083
▁riferisco	-9.54109
▁obblighi	-9.54361
▁funzione	-9.5454
▁chiari	-9.54547
▁compiuto	-9.54549
▁numerose	-9.54656
▁migliaia	-9.54809
▁violazioni	-9.54815
▁pochi	-9.54824
▁novembre	-9.54832
▁portato	-9.54848
▁militari	-9.54889
▁messo	-9.54906
▁dimostrare	-9.55068
▁ricorso	-9.55092
▁poveri	-9.55337
▁convinto	-9.55353
▁Ad	-9.5538
▁segnale	-9.55437
▁assai	-9.5552
▁6	-9.55676
▁sostiene	-9.55686
▁leggi	-9.55704
▁coerente	-9.55805
D	-9.55956
▁popolare	-9.55972
▁appello	-9.56165
▁2000	-9.56168
▁esteri	-9.56241
▁maggiormente	-9.5626
▁minoranze	-9.56307
organizzazione	-9.56322
▁Tali	-9.56351
▁scambi	-9.56421
pe	-9.5648
▁Alla	-9.56508
00	-9.56512
OMC	-9.56516
▁mette	-9.56602
us	-9.56661
▁rimane	-9.56665
▁affatto	-9.56763
▁consiste	-9.56868
▁deputato	-9.56932
▁11	-9.5715
▁locale	-9.57294
▁vertice	-9.57318
▁18	-9.57435
▁moneta	-9.57565
▁eliminare	-9.5757
▁Tra	-9.57598
▁Ne	-9.57625
▁origine	-9.57636
▁linee	-9.57804
▁Internet	-9.57832
▁tasso	-9.57881
▁sebbene	-9.58023
per	-9.58089
▁elaborare	-9.58119
▁discusso	-9.58267
▁resta	-9.58485
▁incoraggiare	-9.58515
▁tecnologia	-9.58536
▁Regolamento	-9.58561
▁riserve	-9.58737
▁parlamenti	-9.58745
intero	-9.58877
▁dovremo	-9.58904
▁Partito	-9.58904
▁ultima	-9.59151
▁imporre	-9.59176
▁contiene	-9.59204
nto	-9.59246
▁dev	-9.59261
▁specifici	-9.59306
▁piani	-9.59313
▁alto	-9.59365
▁mira	-9.59394
▁facile	-9.59546
▁anzi	-9.59585
ata	-9.59624
▁mie	-9.59653
▁aereo	-9.59955
▁Che	-9.60001
▁energetico	-9.60017
▁agenzie	-9.60141
▁riguardano	-9.60152
efficienza	-9.60292
▁organi	-9.60329
▁idee	-9.60467
▁ostacoli	-9.60666
▁conferenza	-9.60716
▁offre	-9.60819
obbligo	-9.6102
▁14	-9.61161
▁consultazione	-9.61199
▁debito	-9.61294
▁prese	-9.61338
▁interrogazioni	-9.61353
▁esaminare	-9.61409
▁limite	-9.61559
▁speciale	-9.61601
▁destinati	-9.61609
▁industriale	-9.61644
▁fenomeno	-9.61672
▁consumatore	-9.61699
ssero	-9.61798
▁funzionari	-9.61825
▁Mar	-9.61986
▁constatare	-9.61987
▁ottenuto	-9.62052
Agenzia	-9.62082
▁stampa	-9.62204
▁circostanze	-9.6228
▁penale	-9.62281
▁sicuro	-9.62306
▁quote	-9.62421
▁atteggiamento	-9.62604
▁16	-9.62605
▁abbastanza	-9.62714
▁vostra	-9.62739
lle	-9.62817
▁17	-9.62979
tro	-9.6301
▁istituire	-9.63046
▁opinioni	-9.63046
▁conseguire	-9.63123
▁donna	-9.63125
▁raccomandazione	-9.63162
PL	-9.63244
▁perciò	-9.63355
▁ra	-9.63375
▁sussidiarietà	-9.63432
▁confini	-9.63446
sco	-9.63456
unico	-9.63491
gra	-9.63511
▁tratti	-9.63532
▁verde	-9.63638
▁centrali	-9.63658
▁fu	-9.63716
▁stanziamenti	-9.63716
▁%	-9.63745
▁modificare	-9.63778
▁nessun	-9.63825
▁critica	-9.63831
▁Assemblea	-9.63995
▁gente	-9.64013
▁Paesi	-9.64077
▁violazione	-9.64112
su	-9.64187
▁Lei	-9.64224
▁Amsterdam	-9.64362
▁esterne	-9.64389
▁studi	-9.64497
▁ratifica	-9.64497
▁impedire	-9.64527
ati	-9.64627
ano	-9.64654
▁piacere	-9.64697
▁democratici	-9.64856
▁crescente	-9.64862
▁prevista	-9.64883
▁malattie	-9.64935
▁naturali	-9.6499
▁verranno	-9.65066
▁Oriente	-9.65144
nde	-9.65218
9	-9.65338
▁innanzitutto	-9.65355
▁trovano	-9.65391
E	-9.65448
▁Nord	-9.6549
▁contenuti	-9.65669
▁istituzionale	-9.65669
▁Schengen	-9.65775
▁professionale	-9.65801
▁nemmeno	-9.65803
Irlanda	-9.65868
ate	-9.65918
▁eccellente	-9.65932
4	-9.66005
ven	-9.66026
▁famiglia	-9.6617
▁condotta	-9.66197
sto	-9.66205
utilizzo	-9.66207
▁Dal	-9.66224
▁2004	-9.66228
▁efficiente	-9.66298
▁irlandese	-9.66335
▁Medio	-9.66383
▁annuale	-9.66386
▁neppure	-9.66413
zzare	-9.66477
approvazione	-9.66496
▁PMI	-9.66606
Il	-9.66649
▁opinione	-9.66695
lli	-9.66737
▁ribadire	-9.66783
▁assumere	-9.6689
▁accogliere	-9.67044
▁là	-9.6708
▁elevato	-9.67124
▁significativo	-9.67195
▁concreti	-9.67203
▁famiglie	-9.67207
▁nucleari	-9.67234
▁piccoli	-9.67314
▁lettera	-9.6734
▁27	-9.67403
▁nn	-9.67482
O	-9.67619
▁approvare	-9.6778
▁mobilità	-9.6778
▁nota	-9.67811
pa	-9.67931
▁passare	-9.67956
▁peraltro	-9.67986
nd	-9.68188
▁consente	-9.68211
T	-9.68221
ter	-9.68332
▁essenziali	-9.68363
an	-9.68396
▁entrare	-9.68489
▁garanzie	-9.68498
▁aperto	-9.68554
▁dimenticare	-9.68572
ru	-9.68628
▁opera	-9.68663
ampliamento	-9.68709
▁differenze	-9.68715
▁futura	-9.688
▁interna	-9.68875
▁proporre	-9.69017
▁benessere	-9.69184
▁cittadino	-9.69231
▁dover	-9.69234
▁entrambe	-9.69259
▁risposte	-9.69341
▁speranza	-9.69345
▁pericolo	-9.69388
▁diversità	-9.69437
▁prassi	-9.69477
▁Quanto	-9.69702
▁fonte	-9.69822
▁completa	-9.69829
▁tutelare	-9.6983
▁continente	-9.7008
▁scorsa	-9.70223
▁critiche	-9.70245
▁adeguata	-9.70377
▁Mediterraneo	-9.70411
▁chiarire	-9.70437
▁cause	-9.70439
▁chiediamo	-9.70494
▁difendere	-9.70611
▁cruciale	-9.70632
▁primi	-9.7077
▁forti	-9.70778
▁banche	-9.70826
▁operazioni	-9.70849
▁canto	-9.7092
▁permanente	-9.70995
▁carne	-9.71029
▁cuore	-9.71047
▁fiscali	-9.71141
▁Prima	-9.7116
▁basi	-9.71178
▁sottolinea	-9.71227
▁reddito	-9.7127
▁faccia	-9.71356
▁metà	-9.71392
argomento	-9.71409
▁immediatamente	-9.71452
▁giudizio	-9.71464
▁legislativa	-9.71716
▁disponibilità	-9.71768
intervento	-9.71772
▁Queste	-9.71793
▁ve	-9.71956
▁vicini	-9.71996
▁diversa	-9.72008
▁recenti	-9.72025
ggio	-9.72061
▁comprendere	-9.72144
▁economia	-9.72252
R	-9.72293
▁esattamente	-9.72305
▁economie	-9.72417
▁ripresa	-9.72474
▁osservazione	-9.72506
▁Portogallo	-9.72615
▁rapida	-9.72654
▁eventi	-9.72846
▁costituzionale	-9.72954
nu	-9.73039
▁diverso	-9.73047
▁Naturalmente	-9.73067
▁sentito	-9.73068
▁Sappiamo	-9.73095
ale	-9.73163
▁luglio	-9.73237
▁dipende	-9.73245
▁pone	-9.73336
▁presentate	-9.73402
▁previsti	-9.73407
▁esseri	-9.73485
▁ottobre	-9.73732
▁discarico	-9.73892
▁invito	-9.73961
▁rinnovabili	-9.74009
tiva	-9.74083
▁Forse	-9.74096
▁costruire	-9.74096
▁8	-9.74291
▁fossero	-9.7439
▁regolamenti	-9.74416
▁coraggio	-9.74489
▁minori	-9.74564
▁inter	-9.74614
▁ambiti	-9.74724
con	-9.74837
▁certi	-9.74895
ng	-9.74955
▁lingue	-9.75043
tergovernativa	-9.75061
▁voluto	-9.75071
▁benefici	-9.75161
▁mare	-9.75165
▁carico	-9.75251
▁relativamente	-9.75268
▁2008	-9.75271
▁porti	-9.75273
▁comprende	-9.7529
▁provenienti	-9.75389
▁congratulo	-9.75418
▁ampia	-9.75422
▁Polonia	-9.75447
▁chiare	-9.75482
▁conciliazione	-9.75654
▁venire	-9.75667
▁commissario	-9.75672
▁preparazione	-9.75686
▁iniziare	-9.75694
▁presa	-9.75727
▁campagna	-9.75737
en	-9.75753
▁pure	-9.75823
▁trattati	-9.75922
▁lingua	-9.75935
▁messa	-9.76088
▁ancor	-9.76112
▁aggiunto	-9.76204
▁plenaria	-9.76204
ha	-9.76263
▁superare	-9.76274
▁lui	-9.76435
▁Infatti	-9.76497
▁interessate	-9.76558
▁anziché	-9.76561
▁favorevoli	-9.76585
▁condurre	-9.76614
▁visione	-9.7671
▁fattori	-9.76746
Africa	-9.76802
▁considerato	-9.76946
▁ricevere	-9.77025
▁quanti	-9.77047
▁enorme	-9.77061
Applausi	-9.77127
▁veicoli	-9.77232
▁entrambi	-9.77233
▁organismi	-9.77264
▁pagamenti	-9.77326
▁Tutto	-9.77333
▁basata	-9.77459
▁cambiare	-9.77482
▁vicino	-9.77558
▁Poiché	-9.77707
▁Barroso	-9.77736
▁avremo	-9.77766
▁Va	-9.77788
▁prevedere	-9.77837
▁egli	-9.77903
▁proprietà	-9.77914
▁corretto	-9.7798
ONU	-9.77996
▁tecniche	-9.78093
ggi	-9.78188
▁qualora	-9.78367
▁quantità	-9.78438
▁sfruttamento	-9.78454
▁Alcuni	-9.7869
▁soddisfazione	-9.78791
▁ragionevole	-9.78819
▁2005	-9.78859
▁credibilità	-9.78903
▁finanziare	-9.78921
apertura	-9.78947
▁missione	-9.78966
▁costituire	-9.79015
▁ACP	-9.7912
▁40	-9.79169
tico	-9.79186
▁indipendente	-9.79202
▁soggetti	-9.79284
▁dubbi	-9.79292
▁Cipro	-9.79305
▁agricolo	-9.79533
▁vivono	-9.79692
▁realmente	-9.79751
▁popolazioni	-9.79987
▁rimanere	-9.80032
▁articolo	-9.80072
▁esclusivamente	-9.80302
▁approvata	-9.804
▁serio	-9.80529
▁intenzione	-9.80565
▁incidenti	-9.80603
▁Svezia	-9.80719
▁t	-9.80721
▁urgente	-9.80731
▁basso	-9.80849
▁consenta	-9.80926
▁Re	-9.80938
▁qualunque	-9.81087
▁previste	-9.81117
▁superiore	-9.81148
▁future	-9.81305
▁differenza	-9.81363
▁compiti	-9.81427
cce	-9.81434
▁pensa	-9.81531
approccio	-9.81541
▁capitali	-9.81566
▁navi	-9.81585
nda	-9.81636
▁leader	-9.81641
rio	-9.81645
▁Posso	-9.8171
▁ba	-9.81716
▁istruzione	-9.81727
▁senz	-9.81745
▁danno	-9.81752
analisi	-9.81757
▁trarre	-9.81864
sca	-9.81931
aiuto	-9.81975
▁reali	-9.82025
▁noto	-9.82044
▁verificare	-9.8215
▁impossibile	-9.82173
esperienza	-9.82223
▁ritardo	-9.82291
▁sco	-9.82344
▁coerenza	-9.82384
eri	-9.82407
▁Bulgaria	-9.82446
▁elettorale	-9.82486
▁riconosciuto	-9.82509
▁Balcani	-9.8254
▁attiva	-9.82609
▁sufficienti	-9.82696
▁esperienza	-9.82702
▁contribuito	-9.82769
▁individuare	-9.8277
▁merita	-9.82817
▁secolo	-9.8289
▁sera	-9.82905
▁commissioni	-9.82946
▁visti	-9.82984
▁congiunta	-9.82994
es	-9.83088
▁concreto	-9.83102
▁sentire	-9.83153
▁assunto	-9.83196
origine	-9.83224
▁buone	-9.83289
▁1999	-9.83378
▁consentito	-9.83384
un	-9.83483
ere	-9.83554
▁condanna	-9.83597
▁proposti	-9.83604
▁cercando	-9.83674
▁parlamento	-9.83729
▁unicamente	-9.83732
▁perfettamente	-9.84085
▁permesso	-9.84268
▁2001	-9.84273
nze	-9.84336
▁Commissari	-9.84468
▁desidera	-9.84509
▁riconosce	-9.84594
▁veda	-9.84614
▁richiesto	-9.84649
▁associazione	-9.84704
▁fattore	-9.84746
▁Ringrazio	-9.84776
▁definitiva	-9.84789
▁immigrati	-9.84808
▁espressione	-9.85032
▁essendo	-9.85109
▁sud	-9.85307
▁adeguate	-9.85323
▁naturale	-9.85379
oni	-9.85601
eremo	-9.85733
▁oratori	-9.85768
▁dimensioni	-9.85833
▁proseguire	-9.85929
▁soddisfare	-9.8603
▁vigilanza	-9.86188
▁limitare	-9.8627
▁controllare	-9.86275
esercizio	-9.86353
▁1998	-9.86353
▁comportamento	-9.86379
▁riguardanti	-9.86382
▁NATO	-9.86453
▁altrimenti	-9.86503
▁talvolta	-9.86544
▁avrebbero	-9.86575
▁sapete	-9.86608
▁Quindi	-9.86768
▁socialista	-9.86777
▁T	-9.86803
▁volto	-9.86863
▁avete	-9.86873
▁2002	-9.86883
▁ovvio	-9.86907
▁coinvolgimento	-9.87031
▁prevenire	-9.87031
ch	-9.87112
▁prescindere	-9.87172
b	-9.87175
▁mantenimento	-9.87194
▁altra	-9.87251
▁riflettere	-9.87312
Organizzazione	-9.87396
▁presentazione	-9.87403
▁idea	-9.87411
▁produrre	-9.87554
tore	-9.87564
▁distribuzione	-9.87586
▁dinanzi	-9.87614
▁operare	-9.87704
▁verifica	-9.87739
▁enormi	-9.87757
▁processi	-9.87765
▁illegale	-9.87849
armonizzazione	-9.87856
▁Ovviamente	-9.87882
▁parlando	-9.87911
▁prime	-9.88013
▁avranno	-9.88014
▁agricoli	-9.88112
▁consapevoli	-9.88178
▁alimenti	-9.88389
▁conformità	-9.88414
▁Devo	-9.88414
▁disporre	-9.88478
▁concernente	-9.8852
CE	-9.88554
▁condivido	-9.88579
America	-9.88649
▁considerando	-9.88701
▁formulare	-9.88703
▁compagnie	-9.88778
▁scala	-9.88784
▁considerazioni	-9.88827
▁palestinese	-9.88887
▁votazioni	-9.88947
▁Bielorussia	-9.88972
▁Nonostante	-9.88972
▁determinazione	-9.88979
▁2003	-9.88988
▁accettabile	-9.89146
▁Comitato	-9.89205
▁costituzione	-9.89205
sp	-9.89209
▁posta	-9.89294
▁Ca	-9.89444
▁taluni	-9.8952
▁Sa	-9.89589
▁normative	-9.89642
▁Strasburgo	-9.89739
».	-9.89793
▁beni	-9.89797
▁nessuna	-9.89849
▁rientra	-9.89856
▁verità	-9.89881
▁medio	-9.89982
▁culturali	-9.90009
▁fornito	-9.90032
▁trasparente	-9.9004
▁codecisione	-9.90276
L	-9.90326
▁umano	-9.90478
efficacia	-9.90498
esigenza	-9.90525
▁Riteniamo	-9.90545
▁permette	-9.90597
▁compreso	-9.90647
▁orale	-9.90654
▁farà	-9.90814
▁trasferimento	-9.90857
▁elevati	-9.90883
▁sostanza	-9.90918
▁Solo	-9.90928
▁protocollo	-9.91087
▁intendo	-9.91091
ndi	-9.91149
▁errore	-9.91237
▁Irlanda	-9.91272
▁notevoli	-9.91495
▁concedere	-9.91549
▁sport	-9.9155
▁petrolio	-9.91631
▁patto	-9.91679
▁corruzione	-9.91699
F	-9.91763
▁volti	-9.9187
▁pa	-9.91991
▁ricorda	-9.91998
▁contributi	-9.92007
▁decisionale	-9.92007
▁indicato	-9.9216
▁pescatori	-9.92171
▁argomenti	-9.92178
▁rifugiati	-9.92178
▁ultime	-9.92213
▁Po	-9.92291
▁vostro	-9.92384
▁specialmente	-9.92457
▁efficacia	-9.92496
▁risoluzioni	-9.92556
esistenza	-9.92666
▁pagamento	-9.92671
▁Patto	-9.92687
▁interessante	-9.92717
▁appoggiare	-9.92735
▁corretta	-9.93
▁tabacco	-9.93005
▁pe	-9.93014
▁personalmente	-9.93114
▁costante	-9.93195
▁sovvenzioni	-9.93351
▁figli	-9.93416
▁competente	-9.9346
▁statuto	-9.93471
▁esterna	-9.93492
▁eventuali	-9.93577
fer	-9.93583
▁britannico	-9.93629
▁norma	-9.93637
▁Stiamo	-9.93708
▁Mediatore	-9.93769
zia	-9.93774
▁cercato	-9.93783
▁esportazioni	-9.93881
▁visita	-9.9396
H	-9.93962
▁regola	-9.94047
▁molta	-9.94083
▁nazioni	-9.94095
▁nord	-9.94151
▁tenendo	-9.94258
▁affrontato	-9.94287
▁palestinesi	-9.94328
ché	-9.94373
▁sanitaria	-9.94398
▁organizzata	-9.94494
anni	-9.94536
▁continuano	-9.94544
▁esprime	-9.94552
▁accolto	-9.94573
▁Innanzi	-9.94593
▁2,	-9.94595
▁Chiedo	-9.94609
▁alternative	-9.94609
▁usare	-9.9469
▁codice	-9.94753
▁disciplina	-9.94778
▁ricostruzione	-9.94784
acqua	-9.94807
▁seguenti	-9.94839
▁incontro	-9.94849
opposizione	-9.94949
▁pagare	-9.9497
▁stretta	-9.94986
▁difficili	-9.95031
▁transizione	-9.95031
▁PAC	-9.95044
Ucraina	-9.95055
▁campi	-9.95118
▁estrema	-9.95145
▁negoziato	-9.95206
▁bianco	-9.95208
▁2020	-9.95259
unanimità	-9.95268
▁tecnica	-9.95304
PT	-9.95309
▁profughi	-9.95314
▁intraprendere	-9.95433
▁saremo	-9.95567
ul	-9.95568
▁sessione	-9.95572
▁1997	-9.95601
▁legati	-9.95635
▁riflessione	-9.95669
▁utili	-9.95681
▁100	-9.9573
▁legale	-9.9574
▁dignità	-9.95776
▁privati	-9.95777
▁intendiamo	-9.95811
gg	-9.95906
▁benché	-9.95906
▁giunto	-9.9599
▁status	-9.9603
▁monitoraggio	-9.96096
▁fallimento	-9.96238
aspetto	-9.96265
▁reso	-9.96288
▁stabilito	-9.96363
▁principalmente	-9.96381
▁rom	-9.96481
▁stra	-9.96531
▁recentemente	-9.96535
▁ore	-9.96588
▁aprile	-9.96636
ES	-9.96737
▁prende	-9.96781
▁II	-9.96866
▁influenza	-9.96876
ad	-9.96885
ia	-9.96914
▁Bassi	-9.96932
▁ciascuno	-9.96987
▁lasciare	-9.96987
▁clausola	-9.96998
▁continuerà	-9.97107
▁importazioni	-9.97108
▁interne	-9.97116
▁avviato	-9.97194
▁appieno	-9.97208
▁derivanti	-9.97263
▁do	-9.97289
▁odierna	-9.97342
tica	-9.97371
▁rurali	-9.97569
▁durata	-9.97633
▁lieta	-9.97641
ur	-9.97644
▁personali	-9.97766
▁funzioni	-9.97786
é	-9.97831
▁definito	-9.97895
▁Chi	-9.97903
▁tardi	-9.98006
▁considera	-9.98096
▁versione	-9.98178
▁dispone	-9.98187
▁seriamente	-9.98217
▁stia	-9.98253
▁Accolgo	-9.98295
▁significato	-9.98299
▁sfruttare	-9.98618
▁gestire	-9.98634
▁potremmo	-9.98697
tt	-9.98738
pre	-9.98979
tivo	-9.99107
▁quota	-9.99149
▁febbraio	-9.99174
▁strategie	-9.99211
▁competenti	-9.99289
▁pilastro	-9.99359
▁Vogliamo	-9.99395
▁salvaguardia	-9.99432
▁solamente	-9.99468
▁tipi	-9.99489
▁Trattati	-9.99543
▁occupa	-9.99601
▁sca	-9.99636
▁imposte	-9.99728
▁cerca	-9.99743
▁sorta	-9.99769
importante	-9.99986
▁richiamare	-10.0002
▁privato	-10.0004
▁Fa	-10.0009
▁agricole	-10.001
N	-10.0012
▁auto	-10.002
▁industriali	-10.0026
▁referendum	-10.0032
▁utilizzati	-10.0035
▁citare	-10.005
▁giuridici	-10.0054
eccellente	-10.0066
▁convenzione	-10.0073
▁modi	-10.0076
▁svedese	-10.0077
▁concreta	-10.008
▁logica	-10.008
▁ONG	-10.0084
▁discorso	-10.0084
▁dà	-10.0085
▁beneficio	-10.0095
▁errori	-10.0096
▁coinvolti	-10.0103
bilità	-10.0109
▁credito	-10.0118
autorità	-10.0118
▁riserva	-10.0119
▁terza	-10.0122
▁aspettative	-10.0126
▁F	-10.0128
▁mano	-10.013
or	-10.0138
▁facciamo	-10.0149
▁creato	-10.0152
▁basta	-10.0153
▁perdita	-10.0155
▁climatici	-10.0168
▁democratiche	-10.0171
▁governance	-10.0171
▁avviene	-10.0175
▁capo	-10.0185
▁implica	-10.019
▁includere	-10.0195
▁Molti	-10.0197
ulteriore	-10.0198
▁seguente	-10.0211
▁vivere	-10.0213
▁miglioramenti	-10.0217
▁convergenza	-10.022
▁raggiungimento	-10.0235
ex	-10.0239
▁massa	-10.0239
▁interrogazione	-10.0239
ppo	-10.024
ghe	-10.0241
▁mattina	-10.025
w	-10.0253
▁casa	-10.0267
▁invita	-10.0267
pp	-10.0268
▁umane	-10.0269
▁tanti	-10.0273
▁larga	-10.0273
▁CO	-10.0279
il	-10.0285
▁avremmo	-10.0288
ando	-10.0293
▁impegnati	-10.0294
▁collaborare	-10.0301
ar	-10.0303
Iraq	-10.0308
rebbero	-10.031
▁arrivare	-10.0313
▁immigrazione	-10.0317
▁conferma	-10.032
▁pazienti	-10.033
▁aperta	-10.0334
▁Van	-10.0341
elaborazione	-10.0346
▁sovranità	-10.0346
▁energetiche	-10.035
▁mo	-10.0352
agenda	-10.0354
▁21	-10.0365
▁perdere	-10.0368
▁prove	-10.0373
▁desiderio	-10.0374
▁occasioni	-10.0377
▁certezza	-10.0377
▁aprire	-10.0379
▁uomo	-10.0381
▁cogliere	-10.0384
▁esempi	-10.0392
▁voti	-10.0393
ire	-10.0396
bu	-10.0407
▁crea	-10.0407
▁1996	-10.0416
▁occhi	-10.043
▁umanitari	-10.043
▁Me	-10.0444
▁semplificazione	-10.0447
▁alta	-10.0451
▁diretto	-10.0465
▁investire	-10.0467
▁fissare	-10.0485
▁avevano	-10.0486
▁regimi	-10.0489
▁riuscire	-10.049
▁utilizzato	-10.0499
▁23	-10.05
▁concessione	-10.0512
amministrazione	-10.0514
▁sostenibilità	-10.0517
G	-10.0517
impressione	-10.0525
▁contribuenti	-10.0532
▁futuri	-10.0532
▁prestare	-10.0541
stra	-10.0543
▁basa	-10.0547
▁P	-10.0555
▁laddove	-10.0567
▁soli	-10.0572
▁Oltre	-10.0575
▁ex	-10.0585
▁accade	-10.0588
▁serve	-10.0591
▁Essa	-10.0592
▁particolari	-10.0592
▁Concordo	-10.0595
▁Possiamo	-10.0595
▁notare	-10.0598
▁Ba	-10.0611
▁dipendenti	-10.0615
im	-10.0615
el	-10.0622
eranno	-10.063
▁1,	-10.0638
entrata	-10.064
▁voler	-10.065
▁rappresentato	-10.065
indipendenza	-10.0655
com	-10.0656
▁Senza	-10.0659
▁sin	-10.0666
▁Dovremmo	-10.067
▁speciali	-10.0674
▁qualcuno	-10.0675
▁monetari	-10.0681
▁pi	-10.0683
V	-10.0688
▁tecnico	-10.069
za	-10.0691
dere	-10.0694
▁contatto	-10.0699
▁tendenza	-10.0706
▁vada	-10.071
▁americani	-10.0716
▁trattare	-10.0727
▁contrastare	-10.0735
▁materie	-10.0737
▁manca	-10.0741
▁riusciremo	-10.0749
▁percentuale	-10.0749
inquinamento	-10.0763
▁determinati	-10.0764
▁legislative	-10.0765
▁adeguatamente	-10.0772
▁Prodi	-10.0775
▁effettuare	-10.0789
▁svolge	-10.0796
▁impianti	-10.0797
▁contenute	-10.0801
▁bilaterali	-10.0814
▁diffusione	-10.0814
▁statistiche	-10.0833
▁sette	-10.0833
▁dimostrano	-10.0837
▁efficienza	-10.0837
▁totalmente	-10.0838
▁strategico	-10.0842
▁Italia	-10.0848
▁citato	-10.0856
▁consapevole	-10.0865
▁espresse	-10.0866
gna	-10.0872
▁Uno	-10.0872
▁occidentale	-10.0885
▁conservazione	-10.0891
epoca	-10.0892
▁istituzionali	-10.0895
▁restrizioni	-10.0906
▁valida	-10.0906
▁negativo	-10.0907
glia	-10.0907
▁rilievo	-10.0911
▁24	-10.0911
ina	-10.0911
▁Bisogna	-10.0915
▁sollevato	-10.0921
▁costruttivo	-10.0927
▁ampiamente	-10.0933
▁patrimonio	-10.094
▁indipendenti	-10.0943
▁mani	-10.0954
▁comp	-10.096
▁energie	-10.098
▁ampliamento	-10.0981
▁amministrazione	-10.0987
cchi	-10.0989
▁vitale	-10.0996
▁apertura	-10.0998
▁scegliere	-10.0998
▁dettagli	-10.1
▁lavorato	-10.1009
▁pubblicità	-10.1011
▁All	-10.1011
▁rappresentare	-10.1015
mina	-10.1018
▁peso	-10.1019
▁esistente	-10.1021
▁precedenza	-10.1025
▁Copenaghen	-10.1041
▁dibattiti	-10.1041
▁2009	-10.1044
▁ripercussioni	-10.1046
▁quell	-10.1046
▁tassi	-10.1047
NL	-10.105
▁rapido	-10.1054
nt	-10.1057
▁Allo	-10.1062
▁approva	-10.1081
▁tuttora	-10.1094
▁intenzioni	-10.1099
▁testi	-10.1104
▁2007	-10.1106
▁niente	-10.1121
▁partecipato	-10.1126
as	-10.1131
▁discutendo	-10.1138
▁fatta	-10.1142
▁criminali	-10.1151
▁insistere	-10.1156
▁iniziale	-10.116
▁contare	-10.1167
▁22	-10.117
▁contratti	-10.1174
▁accolgo	-10.1178
ino	-10.1181
tive	-10.1192
▁cura	-10.1206
tiche	-10.1211
▁valido	-10.1228
▁perseguire	-10.124
ò	-10.1242
▁contrari	-10.1255
▁utilizzo	-10.1256
▁ombra	-10.1263
▁Africa	-10.1264
▁cominciare	-10.1271
▁affronta	-10.1283
▁periodi	-10.1286
▁oneri	-10.1288
▁Croazia	-10.1291
▁malattia	-10.1291
▁accettato	-10.1296
▁accaduto	-10.1297
tura	-10.1298
▁ricorrere	-10.1313
La	-10.1315
▁elettori	-10.132
▁fermamente	-10.1321
▁inserire	-10.1322
cor	-10.1322
▁precisa	-10.1328
▁terrà	-10.133
be	-10.1335
▁sessuale	-10.1342
▁attivamente	-10.1348
▁2006	-10.135
▁elaborato	-10.1355
zzi	-10.1361
▁vede	-10.1367
▁giuridiche	-10.1368
▁sanitari	-10.1369
▁scientifica	-10.1372
▁ritardi	-10.1393
▁60	-10.1394
▁emerge	-10.14
▁consentirà	-10.1402
tare	-10.1403
ho	-10.1411
▁spiegare	-10.1421
▁Pa	-10.1421
▁ascoltato	-10.1421
▁catastrofi	-10.1427
▁tecnici	-10.1427
▁equo	-10.1436
▁attesa	-10.1447
▁svolta	-10.1448
▁cifre	-10.1449
gno	-10.1452
▁soddisfacente	-10.1453
▁Attualmente	-10.1479
▁appoggia	-10.1482
▁aerei	-10.1482
▁Voglio	-10.1483
cco	-10.1487
▁dovesse	-10.1491
rca	-10.1497
equilibrio	-10.1504
▁esperienze	-10.1505
▁burocrazia	-10.1509
spe	-10.1515
▁accoglie	-10.1517
▁abusi	-10.1539
▁qual	-10.1541
▁medicinali	-10.1545
▁frodi	-10.1548
▁diretti	-10.1553
Iran	-10.1556
endo	-10.156
▁Co	-10.1567
mmo	-10.1572
▁categoria	-10.1578
▁presidenti	-10.1578
esecuzione	-10.1582
▁avvenuto	-10.1583
one	-10.159
▁territoriale	-10.1596
▁dicendo	-10.1596
▁comprensione	-10.16
▁Com	-10.1601
RO	-10.161
▁formulazione	-10.1611
▁to	-10.1613
▁basato	-10.1618
Ufficio	-10.1621
▁ricordo	-10.1622
▁riunioni	-10.1622
▁condivide	-10.1625
▁inferiore	-10.1635
▁attivo	-10.1647
▁concluso	-10.1661
▁centinaia	-10.1674
▁abitanti	-10.1676
▁lista	-10.1678
▁allargamento	-10.1679
▁indubbiamente	-10.1679
▁firma	-10.1681
▁alquanto	-10.1683
ori	-10.1687
ndosi	-10.169
▁davanti	-10.1692
teristituzionale	-10.1701
▁frattempo	-10.1718
▁riguardante	-10.172
▁destinato	-10.1721
▁diretta	-10.1729
▁globali	-10.173
▁Sebbene	-10.1745
▁occidentali	-10.1763
▁anziani	-10.1767
▁preoccupa	-10.1774
▁riuscita	-10.1779
accento	-10.1785
▁meridionale	-10.1789
▁urgenza	-10.1796
▁fi	-10.1804
tici	-10.1813
▁contatti	-10.1817
▁valuta	-10.1818
▁Vicepresidente	-10.182
▁trovato	-10.1824
▁crimini	-10.1825
▁fonda	-10.1833
▁concordo	-10.1838
▁limitato	-10.1845
▁risponde	-10.1851
▁brevemente	-10.1852
▁industria	-10.1857
qui	-10.1863
▁auspica	-10.1872
▁fortemente	-10.1873
impiego	-10.1874
▁centri	-10.1876
▁riveste	-10.1879
▁impone	-10.1886
▁capitolo	-10.1889
▁Negli	-10.1889
▁preme	-10.1896
▁Propri	-10.1896
▁ceca	-10.1897
▁Georgia	-10.1932
▁tagli	-10.1937
▁guardare	-10.1938
▁Serbia	-10.1945
▁disabili	-10.1949
▁nomina	-10.1949
▁ta	-10.1952
unione	-10.1959
▁articoli	-10.1959
▁2010	-10.196
▁liberali	-10.1992
▁adeguati	-10.1992
▁rivedere	-10.2
▁reazione	-10.2003
gui	-10.2012
▁ferma	-10.2014
▁veste	-10.2015
▁profondamente	-10.2018
▁sopra	-10.2019
▁territori	-10.2023
▁calendario	-10.2032
▁evidenzia	-10.2039
▁stabilisce	-10.2041
▁applica	-10.2042
▁indica	-10.2046
ss	-10.2046
schi	-10.2065
▁equilibrata	-10.2068
▁legate	-10.2086
▁prossime	-10.2087
▁utenti	-10.2095
▁scarsa	-10.2109
▁droga	-10.2109
▁impegnarsi	-10.211
▁Iraq	-10.2113
▁movimento	-10.2114
▁essenzialmente	-10.2118
ghi	-10.2122
▁messi	-10.213
▁tiene	-10.2137
▁USA	-10.2145
▁evidentemente	-10.2146
ottima	-10.2146
▁rilevare	-10.215
zze	-10.2155
▁perso	-10.2157
▁estendere	-10.216
▁decisamente	-10.2167
▁determinate	-10.2177
▁costa	-10.2186
▁condotto	-10.2187
ffi	-10.2189
▁convinzione	-10.2192
▁scuole	-10.2192
▁carta	-10.2193
▁distruzione	-10.2194
▁disposti	-10.2196
▁Relazione	-10.2201
▁Quest	-10.2206
▁considerata	-10.2214
▁Lussemburgo	-10.2215
▁PIL	-10.2215
▁Nei	-10.2217
▁chiusura	-10.2229
▁attiene	-10.2229
▁vasta	-10.2235
uto	-10.2241
▁informati	-10.2252
▁compresi	-10.2252
▁passaggio	-10.2254
▁te	-10.2254
▁sostanziale	-10.2261
▁caratteristiche	-10.2266
▁raccolta	-10.2275
▁rivolgo	-10.2285
▁strade	-10.2287
bo	-10.229
▁rivolgere	-10.2302
opera	-10.231
▁commenti	-10.2315
▁rifiuto	-10.2317
▁petizioni	-10.2327
▁determinato	-10.233
stica	-10.2334
▁apportare	-10.2334
▁sostanzialmente	-10.2336
▁sanno	-10.2338
▁approvazione	-10.2354
pro	-10.2358
▁disponiamo	-10.2359
▁tassa	-10.2362
▁vincolante	-10.2365
▁francesi	-10.2369
is	-10.2379
▁quarto	-10.2388
▁fornisce	-10.2397
▁continui	-10.24
gio	-10.24
ssima	-10.2409
▁compresa	-10.2411
▁restare	-10.2422
▁conta	-10.2429
▁serra	-10.243
▁portoghese	-10.2435
▁tedesco	-10.244
impresa	-10.2441
▁minoranza	-10.2444
▁funziona	-10.2449
aria	-10.2454
▁materiale	-10.2457
▁industrie	-10.2463
▁sorveglianza	-10.2468
▁colloqui	-10.2492
▁scelte	-10.2496
▁inizio	-10.2501
▁poche	-10.2503
▁disponibile	-10.2511
▁universale	-10.253
▁tornare	-10.2534
vamo	-10.2536
▁prosperità	-10.2544
▁colpito	-10.2547
▁assicura	-10.2552
anti	-10.2557
▁attacchi	-10.2559
▁atte	-10.2562
▁profonda	-10.2564
ccia	-10.2575
rri	-10.2584
▁aeree	-10.2592
COM	-10.2592
▁strutturale	-10.2601
▁No	-10.2607
▁costantemente	-10.2608
▁reati	-10.2619
▁Finlandia	-10.2621
▁piccolo	-10.2621
est	-10.2628
▁necessariamente	-10.2636
▁rischia	-10.2639
nce	-10.264
▁concernenti	-10.2641
▁assenza	-10.2641
nia	-10.2641
▁Ogni	-10.2646
▁parliamo	-10.2656
esito	-10.2686
ck	-10.2689
▁1995	-10.2689
▁attentamente	-10.269
▁giovedì	-10.2694
uguaglianza	-10.2695
▁mostra	-10.2697
▁costituito	-10.2703
▁dietro	-10.2714
EL	-10.2718
▁tedesca	-10.2723
pri	-10.2723
▁1°	-10.2723
sione	-10.273
▁ottimo	-10.2736
▁cosiddetto	-10.2737
▁aderire	-10.2743
▁sicuri	-10.2752
▁K	-10.2757
▁permetta	-10.276
man	-10.2761
▁equilibrato	-10.2762
▁ammettere	-10.2764
gre	-10.277
▁figura	-10.277
▁cambio	-10.2771
▁concesso	-10.2772
▁vive	-10.2777
▁valutazioni	-10.2779
▁terra	-10.2781
▁PSE	-10.2782
▁facoltà	-10.2791
▁organizzazione	-10.2796
▁cosiddetta	-10.2801
tri	-10.2803
▁pensioni	-10.2811
▁espressa	-10.2811
▁sembrano	-10.2812
Italia	-10.2823
▁unità	-10.2825
▁Kyoto	-10.2826
▁sinistra	-10.2826
▁pronti	-10.2842
▁familiare	-10.2845
Alleanza	-10.2845
▁eccetera	-10.285
▁razzismo	-10.285
nzi	-10.2851
▁positivamente	-10.286
▁consultazioni	-10.2861
▁lottare	-10.2863
▁correttamente	-10.2867
▁test	-10.2876
ol	-10.2877
▁menzionato	-10.2883
▁coinvolgere	-10.2883
▁tornata	-10.289
▁fe	-10.2897
▁riuscito	-10.2902
▁organizzare	-10.2906
elenco	-10.2907
▁vicinato	-10.2909
ber	-10.291
▁auguriamo	-10.2911
zio	-10.2912
▁istituzione	-10.2914
▁conoscere	-10.2915
▁pareri	-10.2919
▁ritorno	-10.292
▁minacce	-10.2924
▁armonizzazione	-10.2929
▁ufficiale	-10.293
et	-10.2931
▁chiedono	-10.2933
scono	-10.2936
▁fede	-10.2939
▁strettamente	-10.2941
▁margine	-10.2954
▁informare	-10.2956
▁lascia	-10.2966
▁Corea	-10.2974
lmente	-10.2992
▁Nizza	-10.2995
▁partenza	-10.2997
mmi	-10.2997
▁materiali	-10.2997
▁amici	-10.3004
fu	-10.3005
▁otto	-10.3005
ente	-10.3007
▁applicato	-10.3007
trice	-10.3008
nne	-10.3012
▁cittadinanza	-10.3014
▁precisare	-10.3025
▁ferroviario	-10.3028
▁Bosnia	-10.3044
▁Ra	-10.3056
▁indietro	-10.306
ristrutturazione	-10.3085
▁dipendenza	-10.3097
▁detta	-10.3097
esame	-10.3099
▁scadenza	-10.3105
▁limita	-10.3109
▁mondiali	-10.3115
▁scelto	-10.3115
▁rilevanza	-10.3136
nato	-10.3137
▁mal	-10.3138
▁vicenda	-10.314
▁disparità	-10.3146
▁latte	-10.3158
▁coscienza	-10.3161
▁provvedimento	-10.3161
▁colpiti	-10.3169
ll	-10.3171
▁carenze	-10.3171
▁amministrative	-10.3171
▁associazioni	-10.3172
U	-10.3174
▁adeguamento	-10.3181
▁accelerare	-10.3181
▁Ciononostante	-10.3181
▁olandese	-10.3181
▁avendo	-10.3183
▁turco	-10.3191
▁agricoltura	-10.3197
▁integrato	-10.32
j	-10.3203
▁inviare	-10.321
▁trovo	-10.3212
▁integrare	-10.3213
▁salvaguardare	-10.3214
▁semplici	-10.3215
▁interessa	-10.3231
▁reciproco	-10.3237
▁normativo	-10.3238
▁pomeriggio	-10.3243
▁vulnerabili	-10.3246
▁disastro	-10.3247
▁assieme	-10.3248
età	-10.3255
▁diventa	-10.327
evoluzione	-10.3284
▁rappresentanza	-10.3286
▁neanche	-10.329
▁beneficiari	-10.3293
▁rivela	-10.3295
pu	-10.3297
eliminazione	-10.3303
▁Quali	-10.3307
▁categorie	-10.3309
▁introdotto	-10.3309
▁richiedono	-10.332
▁soffermarmi	-10.332
ka	-10.3326
inclusione	-10.3328
▁Sta	-10.3342
▁deplorevole	-10.3346
▁funzionare	-10.335
▁praticamente	-10.335
▁indagini	-10.3351
▁ascoltare	-10.3352
▁negativi	-10.3354
▁tenga	-10.3356
▁male	-10.3361
▁indicazioni	-10.3369
▁significativa	-10.3369
uti	-10.337
▁disposto	-10.3382
▁settentrionale	-10.3382
▁minima	-10.3383
▁risparmio	-10.3383
▁vendita	-10.3385
▁spagnola	-10.3387
▁profilo	-10.3392
▁farmaci	-10.3392
▁31	-10.3397
▁Belgio	-10.3398
▁discriminazioni	-10.3409
▁studenti	-10.3413
gia	-10.3418
▁sentenza	-10.3424
▁presi	-10.3424
stitu	-10.3426
approvvigionamen	-10.3426
▁calo	-10.3427
▁deficit	-10.3429
▁illustra	-10.3429
▁26	-10.3431
▁esercizio	-10.3451
▁conoscenze	-10.3456
▁cristiani	-10.3463
▁Ancora	-10.3477
▁tutt	-10.3481
▁dico	-10.3482
▁anzitutto	-10.3503
▁operato	-10.3504
▁costretti	-10.3513
▁accedere	-10.3518
▁mu	-10.3523
▁spiega	-10.3525
tiamo	-10.353
▁riflette	-10.3536
▁vecchi	-10.3538
▁notevolmente	-10.3539
tamente	-10.3539
esempio	-10.3543
▁esterni	-10.3545
▁brevi	-10.3549
esclusione	-10.3559
▁piccola	-10.3566
▁lavorando	-10.3572
▁intellettuale	-10.3576
abolizione	-10.3581
▁[	-10.3598
▁connessi	-10.36
▁elenco	-10.3606
▁vite	-10.3611
▁rientrano	-10.3612
▁Barcellona	-10.3619
▁flessibile	-10.3619
▁avevamo	-10.3625
▁emergenza	-10.3626
▁annunciato	-10.3628
▁Giappone	-10.364
▁ribadito	-10.364
▁p	-10.3641
▁buoni	-10.3641
%	-10.3645
▁ritenuto	-10.3646
elecomunicazioni	-10.3651
▁ungherese	-10.3651
zzato	-10.3651
▁stradale	-10.3655
▁barriere	-10.3656
▁britannici	-10.3656
▁500	-10.3658
▁auspicabile	-10.3658
▁legali	-10.366
▁Condivido	-10.3662
▁britannica	-10.3662
▁contribuirà	-10.3662
um	-10.3662
▁assunti	-10.3667
▁incentivi	-10.3667
▁virtù	-10.3667
▁adottati	-10.3686
▁rammarico	-10.3688
ari	-10.3689
menta	-10.369
▁eletti	-10.37
ica	-10.3701
▁singolo	-10.371
▁catastrofe	-10.3715
▁frode	-10.3715
▁minuti	-10.3715
▁Eppure	-10.3723
▁conformemente	-10.3725
▁assistito	-10.3737
▁applicate	-10.3739
ff	-10.374
▁giudiziario	-10.3741
▁iniziato	-10.3743
▁lavorano	-10.3743
▁completo	-10.3748
▁im	-10.3748
▁convinta	-10.3753
▁evidenziato	-10.3756
▁crede	-10.3758
▁consolidamento	-10.3759
oratore	-10.376
▁Gran	-10.3761
▁marittima	-10.3764
▁contribuisce	-10.3764
▁vorremmo	-10.3769
▁programmazione	-10.3781
▁limitata	-10.3782
▁Perciò	-10.3785
▁2011	-10.3792
assenza	-10.3807
▁Pakistan	-10.3812
▁innovazione	-10.3813
▁realizzato	-10.3815
nali	-10.3816
▁Baltico	-10.3818
▁indicare	-10.3823
▁viaggio	-10.3824
▁osservatori	-10.3827
▁terreno	-10.3828
▁finanze	-10.3829
▁credere	-10.3829
▁cinese	-10.3834
▁segue	-10.3838
os	-10.3841
▁appalti	-10.3845
▁applicata	-10.3847
▁avanzate	-10.385
▁strategica	-10.3851
▁pacifica	-10.3851
▁respingere	-10.3853
▁ambizioso	-10.3853
Alto	-10.3856
▁prego	-10.3871
▁Pur	-10.3872
▁Qual	-10.3877
▁coinvolte	-10.3878
▁minuto	-10.3878
▁chiunque	-10.3878
▁dovuta	-10.3889
▁investimento	-10.389
▁tradizionali	-10.3894
▁pericolose	-10.3899
tato	-10.3906
▁età	-10.3912
▁concordato	-10.3912
▁organizzato	-10.3916
▁generazione	-10.3924
▁terroristi	-10.3924
▁deboli	-10.3932
▁morale	-10.3944
▁Cuba	-10.3944
▁3,	-10.3949
▁28	-10.3951
▁tonnellate	-10.3955
▁assistere	-10.396
▁preparare	-10.3963
▁avvenire	-10.3982
▁Li	-10.3982
ampia	-10.3988
▁conosce	-10.3991
▁avanzata	-10.3992
enti	-10.4004
asilo	-10.4004
▁operano	-10.4009
▁miglior	-10.4013
ing	-10.4014
▁seria	-10.4014
▁assume	-10.4015
▁frontiera	-10.4016
▁contrasto	-10.4027
▁speriamo	-10.4027
▁accetta	-10.4031
▁considerevole	-10.4032
▁avevo	-10.4032
gni	-10.4033
▁R	-10.4033
▁paga	-10.4034
▁Può	-10.4038
▁positive	-10.4043
▁tragedia	-10.4043
▁deriva	-10.4058
anzi	-10.4062
▁raccogliere	-10.4074
▁dettaglio	-10.4081
▁normale	-10.4083
▁campagne	-10.4088
▁Così	-10.4088
▁cammino	-10.4093
▁sostengo	-10.41
▁svolgono	-10.411
▁rivolta	-10.4116
▁acqua	-10.4118
▁aspetta	-10.4119
▁profitti	-10.4121
▁dec	-10.4122
▁avesse	-10.4124
▁offerto	-10.4127
▁sto	-10.4128
ero	-10.413
▁segnatamente	-10.4133
▁BCE	-10.4134
▁respinto	-10.4138
▁storico	-10.4138
▁29	-10.4145
▁obbligo	-10.4149
rei	-10.4153
▁attori	-10.4154
▁reciproca	-10.4156
ito	-10.4166
▁giudiziaria	-10.417
intenzione	-10.4172
▁biodiversità	-10.4177
▁priva	-10.4179
▁timori	-10.4183
▁rifiuta	-10.4188
▁sussidi	-10.4189
espressione	-10.4189
▁definiti	-10.4191
osa	-10.4194
▁negoziale	-10.4196
bbero	-10.4205
▁trasformazione	-10.4207
▁religione	-10.4211
▁ciclo	-10.4211
ute	-10.4216
▁permetterà	-10.4217
▁divario	-10.4217
▁integrata	-10.4218
▁assumersi	-10.4221
▁tenuta	-10.4223
▁Bo	-10.4223
▁problematica	-10.4232
▁vedo	-10.4238
▁Oggetto	-10.4245
▁risposto	-10.4245
▁garantisce	-10.4246
▁distanza	-10.4252
ns	-10.4255
▁Sarà	-10.4262
arco	-10.4268
▁decisivo	-10.4269
▁tecnologico	-10.4279
▁soddisfatto	-10.4286
▁incendi	-10.4288
▁minimi	-10.429
zzati	-10.4291
▁legittimità	-10.4297
▁u	-10.4301
▁Pro	-10.4308
▁Terzo	-10.4314
▁Adesso	-10.4314
▁soddisfatti	-10.4314
▁giunti	-10.4315
▁confermato	-10.432
▁preciso	-10.4325
bra	-10.4331
▁spagnolo	-10.4336
▁percorso	-10.4336
▁destinate	-10.4339
▁trasmettere	-10.434
▁privata	-10.434
▁considerati	-10.4348
▁zucchero	-10.4354
▁ringraziamenti	-10.436
▁causato	-10.4365
▁firmato	-10.4369
▁sbagliato	-10.437
▁carbonio	-10.4371
▁evidenza	-10.4372
▁destinata	-10.4374
▁osservare	-10.4379
▁complessa	-10.4382
▁prigionieri	-10.4382
▁tasse	-10.4386
tru	-10.4388
udi	-10.439
▁tentativi	-10.44
▁mozione	-10.441
▁approvati	-10.4415
▁sp	-10.4419
▁sviluppati	-10.4421
▁tante	-10.4422
▁venisse	-10.4425
▁quindici	-10.443
▁affermazioni	-10.443
oggi	-10.4433
▁Maastricht	-10.4434
▁morti	-10.4438
▁giornalisti	-10.4454
▁fo	-10.4456
▁Danimarca	-10.4457
▁criterio	-10.4458
effetto	-10.4458
▁storica	-10.4459
▁riferi	-10.446
▁incoraggia	-10.446
▁scritte	-10.4467
▁manifesta	-10.4469
mu	-10.4478
▁professionali	-10.4479
▁mancato	-10.448
▁fissato	-10.4488
am	-10.4493
▁collegamento	-10.4494
▁fortuna	-10.4498
▁continuo	-10.4498
ten	-10.4503
▁Tribunale	-10.4504
isce	-10.4505
ir	-10.4506
▁facilmente	-10.451
▁flussi	-10.451
▁eletto	-10.4511
▁CE	-10.4522
ssime	-10.4525
▁Personalmente	-10.4527
▁impegnata	-10.4532
▁adozione	-10.4534
▁tassazione	-10.4537
▁importo	-10.4537
▁intensificare	-10.4541
ry	-10.4546
▁informato	-10.4549
▁consapevolezza	-10.4552
▁Ai	-10.4554
▁decenni	-10.4556
▁provocato	-10.4559
▁apprezzamento	-10.4559
96	-10.4563
▁rilevante	-10.4565
▁soglia	-10.457
▁sollevare	-10.4571
▁solida	-10.4572
▁candidato	-10.4574
▁incrementare	-10.4575
▁semplificare	-10.458
ita	-10.4582
▁pronta	-10.4596
▁benvenuto	-10.4603
▁Be	-10.4604
nare	-10.4608
▁Molte	-10.4609
▁governative	-10.4615
▁avanzare	-10.4618
▁aeroporti	-10.4621
▁esecuzione	-10.4622
▁assoluta	-10.4622
▁convincere	-10.4628
▁stabile	-10.4629
atto	-10.463
▁orientamento	-10.4631
▁rivolte	-10.4633
▁rivolto	-10.4633
▁f	-10.4651
▁generazioni	-10.4652
▁convinti	-10.4656
influenza	-10.4663
▁turno	-10.4674
▁formulate	-10.4678
▁amministrativi	-10.468
▁colpite	-10.4683
▁M	-10.4684
ture	-10.4686
▁denuncia	-10.4686
▁Certo	-10.4686
▁riprendere	-10.469
rti	-10.4713
dipendentemente	-10.4715
▁dura	-10.4716
▁opposizione	-10.4723
▁Berlino	-10.4727
▁pretesto	-10.4733
▁sosteniamo	-10.4733
▁condividere	-10.4734
▁consolidare	-10.4735
▁riciclaggio	-10.4739
ico	-10.4744
▁consiglio	-10.4753
▁approvvigiona	-10.4754
▁foreste	-10.4757
▁diventi	-10.476
▁preoccupante	-10.4762
▁comunicazioni	-10.4764
▁efficacemente	-10.4771
▁cor	-10.4771
5-0	-10.4779
▁desiderano	-10.4781
▁vincolanti	-10.4782
▁riprende	-10.4782
▁rileva	-10.4789
▁punta	-10.4797
▁appunto	-10.4808
▁composizione	-10.4811
▁voglia	-10.4815
▁istituti	-10.4818
▁ridotto	-10.4818
▁offerta	-10.4825
▁malgrado	-10.4829
atteggiamento	-10.4831
▁agevolare	-10.4833
etichettatura	-10.4837
▁attende	-10.4841
▁tocca	-10.4843
▁Mo	-10.4846
▁registrato	-10.4855
▁appare	-10.4859
▁chiudere	-10.4861
enorme	-10.4861
▁negoziare	-10.4864
▁discutiamo	-10.4865
▁reagire	-10.4865
uri	-10.4865
▁70	-10.4866
▁somma	-10.4866
▁dando	-10.4866
▁destra	-10.4867
rgli	-10.4869
▁Sud	-10.487
▁Te	-10.487
▁Macedonia	-10.4871
▁notizia	-10.4872
.000	-10.4874
▁intero	-10.4875
▁bo	-10.4877
▁scritto	-10.4881
▁Marocco	-10.4883
▁dichiara	-10.4883
▁garantendo	-10.4885
▁evidenziare	-10.4889
▁rispetta	-10.4891
▁stretto	-10.4895
▁grato	-10.4896
▁pesanti	-10.4901
nci	-10.4903
▁legislativi	-10.4907
▁confermare	-10.4911
rica	-10.4913
mma	-10.4913
cra	-10.4913
▁stima	-10.4914
uta	-10.4916
▁genitori	-10.492
▁ricchi	-10.4925
▁fornitura	-10.4926
▁alti	-10.4927
▁finché	-10.4927
▁corrente	-10.4928
▁ripartizione	-10.4932
▁russa	-10.4932
▁lanciare	-10.4933
▁fatte	-10.4934
▁avrei	-10.4938
▁lacune	-10.4938
esportazione	-10.494
iti	-10.4946
▁animale	-10.4952
▁farsi	-10.4954
▁istituito	-10.4956
for	-10.4964
para	-10.4965
▁ufficiali	-10.4969
▁spera	-10.4974
▁trattative	-10.4975
▁90	-10.4988
▁marittimo	-10.4993
temporaneamente	-10.5001
▁rispettivi	-10.5007
▁ignorare	-10.5007
▁americano	-10.5008
▁San	-10.5012
erò	-10.5015
fo	-10.5016
▁Durant	-10.5018
▁faccio	-10.502
ssimi	-10.5029
▁competitiva	-10.5029
▁svolgimento	-10.5036
▁200	-10.5048
▁belga	-10.5054
▁ciascun	-10.5059
▁Dichiarazioni	-10.506
▁velocità	-10.506
▁ove	-10.5062
▁tenuti	-10.5066
▁doganali	-10.5067
▁rilevato	-10.5075
▁formula	-10.5079
▁sensibili	-10.5081
▁qualificata	-10.5083
▁liberale	-10.5086
▁bassi	-10.5093
▁obbligatoria	-10.5094
▁poc	-10.5122
▁leggere	-10.5125
▁aiuta	-10.5127
▁promesse	-10.5128
urgenza	-10.513
▁minore	-10.5132
▁silenzio	-10.5134
stico	-10.5143
▁incremento	-10.5145
▁crimine	-10.5147
▁primavera	-10.5153
▁rinvio	-10.5153
rge	-10.5153
osservazione	-10.5156
▁doganale	-10.5159
▁dimostrazione	-10.5166
up	-10.5169
▁generi	-10.5175
▁pianeta	-10.5178
▁ringraziamento	-10.5178
▁pianificazione	-10.5185
▁italiana	-10.519
▁italiano	-10.519
▁modelli	-10.519
▁garanti	-10.5191
ster	-10.5193
▁creando	-10.5199
▁intendono	-10.5207
▁vie	-10.5208
▁sostituire	-10.5208
▁notizie	-10.5209
▁congratulazioni	-10.521
rg	-10.5226
▁costituzionali	-10.5228
▁poste	-10.5236
▁promuove	-10.5241
India	-10.5243
▁raggiunti	-10.5246
▁talun	-10.5251
▁irlandesi	-10.5253
ut	-10.5259
▁repressione	-10.5259
avvio	-10.5262
▁greco	-10.5265
▁Zimbabwe	-10.5271
ngo	-10.5272
▁alternativa	-10.5272
▁liberamente	-10.5282
▁graduale	-10.5285
▁entrate	-10.5303
▁geneticamente	-10.5305
▁sub	-10.5315
▁esserci	-10.5319
st	-10.5319
▁Ro	-10.5319
▁private	-10.532
▁mobili	-10.5322
▁emerso	-10.5322
▁verte	-10.5322
▁resi	-10.5324
▁radio	-10.533
▁analizzare	-10.5334
▁Democratici	-10.5344
▁segno	-10.5347
▁umanitario	-10.5349
iscono	-10.5349
▁sostengono	-10.5353
30	-10.5372
▁crediamo	-10.5373
".	-10.5374
▁ripetere	-10.5378
▁dar	-10.5385
▁ambiziosi	-10.5385
▁Gaza	-10.5386
▁van	-10.5386
▁12.00.	-10.5397
▁bi	-10.5399
▁go	-10.54
▁familiari	-10.5404
▁transito	-10.541
▁scientifico	-10.5411
▁uniforme	-10.5411
▁insufficiente	-10.5413
▁dotazione	-10.5418
remmo	-10.5418
▁Segretario	-10.5423
▁argomentazioni	-10.5424
▁penali	-10.5431
ottica	-10.5433
(	-10.5437
▁dollari	-10.5443
▁offerte	-10.5443
▁tri	-10.5445
▁fame	-10.5446
rati	-10.5447
▁potenziali	-10.5449
diamo	-10.5449
▁convenzioni	-10.5468
▁segnalare	-10.5472
▁indipendenza	-10.5472
▁flotta	-10.5475
▁soldi	-10.5475
▁severe	-10.5476
▁confine	-10.5481
iche	-10.5485
▁garantito	-10.5487
▁Slovacchia	-10.5487
▁intervenuti	-10.5487
▁Do	-10.5494
▁lieti	-10.5494
▁Ginevra	-10.5507
SV	-10.5507
▁blocco	-10.552
▁giunta	-10.552
▁compiaccio	-10.5526
▁determinare	-10.5527
▁clandestina	-10.5532
orario	-10.5538
▁avvenimenti	-10.5539
▁incontri	-10.5539
▁cinesi	-10.5539
▁conclude	-10.5539
▁Europol	-10.5543
lan	-10.5553
stiche	-10.5558
▁U	-10.5558
▁repentaglio	-10.5565
▁uscire	-10.5565
▁rafforzata	-10.5567
▁mancata	-10.5569
▁Ministri	-10.5571
▁legislatura	-10.5571
▁ricchezza	-10.5572
▁colloca	-10.5575
▁letto	-10.5578
▁Invito	-10.5578
▁porte	-10.5578
estensione	-10.5581
▁Bretagna	-10.5591
▁disoccupati	-10.5591
autore	-10.5591
▁on	-10.5591
app	-10.5592
▁organo	-10.5593
▁pericolosi	-10.5596
▁espressi	-10.5596
▁socialisti	-10.5598
▁vivamente	-10.5599
▁concentrarsi	-10.5601
sen	-10.5601
tazione	-10.5609
▁significativi	-10.561
▁Chiediamo	-10.5617
▁ritengono	-10.5619
sia	-10.5619
▁deroga	-10.5623
amento	-10.5627
▁Par	-10.5627
▁accrescere	-10.5627
▁corpo	-10.5631
▁attribuire	-10.5633
▁consideriamo	-10.5637
▁indicatori	-10.5646
▁Deve	-10.5648
▁diminuzione	-10.5649
▁vittima	-10.5656
der	-10.5659
lare	-10.5664
▁Nessuno	-10.5666
)]	-10.5672
▁lasciato	-10.5678
▁importi	-10.5682
▁problematiche	-10.5692
▁dimentica	-10.5692
lia	-10.5694
at	-10.5697
▁approfondita	-10.5708
▁ovunque	-10.5715
▁radicale	-10.5715
▁attirare	-10.5721
▁definita	-10.5721
▁illegali	-10.5728
▁dispiace	-10.5728
▁Nelle	-10.5736
cche	-10.5738
▁invitare	-10.5739
▁Cosa	-10.5742
▁modificato	-10.5743
▁fissati	-10.5749
▁formale	-10.5752
▁perdite	-10.5755
▁trasformare	-10.5756
▁faremo	-10.5773
▁tradizione	-10.5774
▁mente	-10.5782
ine	-10.5785
▁fasi	-10.5789
▁potesse	-10.579
▁inclusi	-10.5794
▁unita	-10.5795
▁datori	-10.5805
▁OGM	-10.5807
▁ottenuti	-10.5807
ene	-10.5809
appoggio	-10.5811
▁inutili	-10.5812
▁2000,	-10.5815
▁elevata	-10.5819
▁considero	-10.5822
▁luoghi	-10.5834
▁concretamente	-10.5835
▁dichiarare	-10.5847
▁4,	-10.5848
▁impresa	-10.5852
▁Esiste	-10.5854
▁federale	-10.5854
▁impulso	-10.5864
▁umanitaria	-10.5869
▁confusione	-10.5874
▁sicura	-10.5875
▁brevetti	-10.5882
▁rappresenti	-10.5882
▁costruttiva	-10.5887
▁beneficiare	-10.5896
▁prestiti	-10.5897
dire	-10.59
▁legami	-10.59
▁amministrativa	-10.5901
▁negative	-10.5901
almente	-10.5901
erebbe	-10.5901
amente	-10.5905
unità	-10.591
ov	-10.5918
▁altrove	-10.592
▁individui	-10.592
▁multinazionali	-10.592
▁esito	-10.5923
▁implicazioni	-10.5924
▁cifra	-10.5927
offerta	-10.5932
▁utilizza	-10.5942
▁sanitario	-10.5946
▁regolarmente	-10.5947
▁Essi	-10.5968
▁Roma	-10.597
▁frutto	-10.5975
▁occuparsi	-10.5981
▁coste	-10.5982
ana	-10.5988
▁riferisce	-10.5995
▁Birmania	-10.6001
▁presenterà	-10.6004
▁stock	-10.6015
▁cure	-10.6016
vole	-10.6018
▁or	-10.6027
que	-10.6032
▁motivazione	-10.6036
estero	-10.6037
rdi	-10.6037
▁Lituania	-10.6042
▁rallegro	-10.6042
▁scientifici	-10.6042
▁navigazione	-10.6043
inchiesta	-10.6047
▁africani	-10.6055
▁trasparenti	-10.6055
▁rispettati	-10.6056
▁paura	-10.6056
▁mettendo	-10.6056
▁attendere	-10.6063
insieme	-10.6067
▁espressamente	-10.6068
zzata	-10.6072
▁voteremo	-10.6076
▁35	-10.608
operazione	-10.6084
▁supplementari	-10.6089
▁chiamati	-10.6091
▁segnali	-10.6093
▁isole	-10.6097
▁utilizzate	-10.6101
▁condividiamo	-10.6103
▁transazioni	-10.6103
▁marchio	-10.6109
▁ritiro	-10.611
▁abbandonare	-10.6114
▁tribunale	-10.6125
▁stimolare	-10.6125
▁formulato	-10.613
▁avvenga	-10.6137
▁cosiddetti	-10.6137
▁banane	-10.6144
▁distinzione	-10.6144
▁progredire	-10.6144
auto	-10.6148
▁eccessivo	-10.6148
▁Canada	-10.6151
▁rigore	-10.6151
▁meritano	-10.6152
▁latina	-10.6153
▁ecu	-10.6163
▁debole	-10.6163
▁coordinare	-10.6164
▁ge	-10.6164
▁monetario	-10.6166
98	-10.6169
▁cattura	-10.6172
▁fondata	-10.6172
▁ga	-10.6173
▁successivamente	-10.6175
▁donatori	-10.6179
▁complessivo	-10.618
▁controversie	-10.618
CEE	-10.6182
▁est	-10.6189
▁Afghanistan	-10.6189
▁2013	-10.62
essi	-10.6201
▁andrebbe	-10.621
esterno	-10.6211
▁prevedono	-10.6214
operato	-10.6218
umanità	-10.6224
▁esistere	-10.6228
▁aspettiamo	-10.6228
▁eccessivamente	-10.623
▁presupposto	-10.6241
▁voci	-10.6241
dono	-10.6255
▁nove	-10.6262
▁preliminare	-10.6275
▁contraria	-10.6276
▁politicamente	-10.6279
▁confronto	-10.6282
▁stabilizzazione	-10.6284
▁rimedio	-10.6284
▁migratori	-10.6289
▁ambizioni	-10.6296
▁scopi	-10.6298
▁debbono	-10.63
▁identità	-10.6303
▁Riguardo	-10.6303
voli	-10.6307
stre	-10.6308
par	-10.631
▁ridotta	-10.631
▁capito	-10.6312
▁fornitori	-10.6313
▁preoccupati	-10.6314
Asia	-10.6318
▁tortura	-10.6324
▁inutile	-10.6324
▁rendono	-10.6327
▁cooperare	-10.6331
▁compensazione	-10.6332
▁prestazioni	-10.6333
▁comunicare	-10.6334
emocratizzazione	-10.6339
▁Ed	-10.6343
▁giornata	-10.6345
▁ostacolo	-10.6348
▁richiedenti	-10.635
▁impiego	-10.6352
▁autori	-10.6358
▁escludere	-10.6361
▁Pre	-10.6366
▁ferrovie	-10.6366
▁capace	-10.6373
▁compromessi	-10.6373
▁gode	-10.6374
ag	-10.6374
▁urgenti	-10.6387
▁ero	-10.6393
▁Ucraina	-10.6403
▁armonizzare	-10.6404
ner	-10.641
▁osservato	-10.6413
mbi	-10.6417
▁minime	-10.6422
▁dedicato	-10.6424
▁Austria	-10.6428
sh	-10.6432
▁sfera	-10.6436
▁pensiero	-10.6437
ante	-10.6439
ppa	-10.6444
▁concittadini	-10.645
▁Quello	-10.6452
▁nazione	-10.6457
▁restano	-10.6462
▁segnala	-10.6464
eventuale	-10.6471
▁1994	-10.6472
▁profitto	-10.6493
▁investitori	-10.6496
▁servire	-10.6497
▁poteva	-10.65
▁battaglia	-10.65
▁speranze	-10.6501
▁equa	-10.6513
ultraperiferiche	-10.6514
▁esorta	-10.6515
▁pericoloso	-10.6519
▁tesi	-10.6523
▁conforme	-10.6524
▁straordinaria	-10.6531
▁modificati	-10.6531
▁ognuno	-10.6536
▁desideriamo	-10.6538
CS	-10.6544
▁esterno	-10.6545
▁eccezione	-10.6548
▁vostre	-10.655
▁presentano	-10.6552
▁tematiche	-10.6554
▁gravità	-10.6559
▁intesa	-10.6562
▁decide	-10.6568
▁potenziare	-10.6572
▁stabiliti	-10.6574
▁adatta	-10.6574
▁rilascio	-10.6579
▁veri	-10.6591
▁multilaterale	-10.6593
▁giustificare	-10.6594
dia	-10.6599
▁pesce	-10.6609
▁congiuntamente	-10.6618
▁servono	-10.6622
▁catena	-10.6622
▁edifici	-10.6625
▁qualifiche	-10.6626
▁richiedere	-10.6627
▁disposta	-10.6633
▁sostenuta	-10.6636
bb	-10.6637
▁danneggia	-10.664
Autorità	-10.6642
▁attuate	-10.6645
▁riscontra	-10.6646
ingresso	-10.665
discussione	-10.665
▁deroghe	-10.6658
▁pensiamo	-10.6666
▁riceve	-10.6667
▁chiedendo	-10.6669
▁redditi	-10.6672
▁rispettato	-10.6672
▁lunghi	-10.6672
▁organismo	-10.6674
▁istituisce	-10.6679
▁requisito	-10.6679
▁scienza	-10.668
▁aspettare	-10.6681
▁inviato	-10.6683
▁osserva	-10.6685
▁evoluzione	-10.6686
▁chimiche	-10.6687
▁dipendono	-10.6687
▁offrono	-10.6687
▁sole	-10.6688
aviazione	-10.6689
▁promesso	-10.6694
▁temporanea	-10.6697
▁pilota	-10.6701
▁tradizioni	-10.6701
▁precise	-10.6708
▁rapidità	-10.671
▁capisco	-10.6714
▁fuoco	-10.6716
▁incidente	-10.6723
▁Invece	-10.6723
▁include	-10.6727
▁Sul	-10.673
▁fornite	-10.6732
▁adotta	-10.6737
▁sottoscritto	-10.6738
▁individuali	-10.6741
▁esclusi	-10.6744
▁ripeto	-10.6745
▁ignora	-10.6749
▁appoggiato	-10.675
▁facilitare	-10.6755
▁approfondito	-10.6757
▁imprenditori	-10.6758
▁sperare	-10.6759
▁Protocollo	-10.6759
▁inglese	-10.6762
▁ampliare	-10.6763
▁rimangono	-10.6767
▁scuola	-10.6774
ici	-10.6784
▁incluso	-10.6788
▁transeuropee	-10.6788
▁imposta	-10.6789
▁scena	-10.6791
▁Esso	-10.6794
adeguata	-10.6806
▁civiltà	-10.681
▁vostri	-10.6818
▁case	-10.6819
▁registra	-10.682
▁Cecenia	-10.6825
▁sci	-10.6827
▁concentra	-10.6827
▁Ta	-10.6829
▁interrompe	-10.6834
▁super	-10.6835
▁Ka	-10.6836
mb	-10.6837
▁moderna	-10.684
01	-10.6851
▁aumenta	-10.6852
zi	-10.687
▁solleva	-10.6872
▁tariffe	-10.6877
▁triste	-10.6878
▁corrisponde	-10.6879
▁recupero	-10.6899
▁semestre	-10.6899
▁divisione	-10.6899
▁Ve	-10.6902
impostazione	-10.6909
▁dispongono	-10.6916
pol	-10.6918
▁sospensione	-10.6921
▁dimostrata	-10.6921
'11	-10.6922
▁registrati	-10.6925
▁Mentre	-10.6928
esercito	-10.6936
▁giacché	-10.6936
▁milione	-10.6936
▁esplicitamente	-10.6938
▁godere	-10.6947
▁comunista	-10.6964
▁consentono	-10.6965
▁lavora	-10.6977
▁tentare	-10.698
▁contribuiscono	-10.698
▁rafforza	-10.6982
▁pubblicato	-10.6982
▁statali	-10.6985
▁ti	-10.6987
▁statunitense	-10.6995
▁condannare	-10.7
▁università	-10.7
▁risolto	-10.7003
autorizzazione	-10.7003
▁stranieri	-10.7018
HU	-10.7018
trici	-10.702
▁occorrono	-10.7025
▁ricerche	-10.7025
▁porterà	-10.7029
▁attentati	-10.7039
▁pescherecci	-10.704
▁produce	-10.7041
▁accennato	-10.7043
identità	-10.7056
▁complessiva	-10.7056
▁certe	-10.7061
▁suggerimenti	-10.7063
▁OMC	-10.7065
▁inquina	-10.7067
cola	-10.7067
▁aggiunge	-10.7069
▁detenuti	-10.707
▁danese	-10.707
pie	-10.7071
▁occupazionale	-10.7078
▁cambia	-10.7079
▁vigenti	-10.7079
▁comprese	-10.7085
▁conseguente	-10.7087
▁irregolarità	-10.7093
▁sindacati	-10.71
▁dettagliata	-10.7102
▁regolamentare	-10.7103
acquis	-10.7103
-20	-10.7105
▁guarda	-10.711
▁rinunciare	-10.7111
oso	-10.7111
gu	-10.7117
▁arriva	-10.7124
▁interessato	-10.7125
▁genera	-10.7135
▁suscita	-10.7138
▁richiamo	-10.7138
▁inizia	-10.7145
▁rendendo	-10.7146
▁tolleranza	-10.7147
▁guardia	-10.7151
▁critico	-10.7161
▁delicato	-10.7161
▁diventato	-10.7163
▁esige	-10.7165
▁reato	-10.7166
▁peggiore	-10.717
▁sottoposto	-10.7176
▁Del	-10.7179
▁quotidiana	-10.7187
▁unanime	-10.7187
▁occorra	-10.7191
▁imposto	-10.7191
▁sopravvivenza	-10.7191
▁signori	-10.7193
▁fermezza	-10.7199
zzo	-10.7202
▁garantita	-10.7204
▁Londra	-10.7207
▁finlandese	-10.7207
▁liberi	-10.7207
altezza	-10.7208
▁digitale	-10.7214
▁obbliga	-10.7216
▁parziale	-10.7222
▁pensionistici	-10.7222
▁elettronica	-10.7223
▁clausole	-10.7237
tati	-10.7238
▁inteso	-10.7239
▁entrata	-10.7242
▁imparare	-10.7245
▁Malta	-10.7245
agenzia	-10.7245
▁Tutte	-10.7245
▁J	-10.725
▁originale	-10.7253
▁Verde	-10.7254
▁sovra	-10.7261
▁realizzati	-10.7262
▁modificata	-10.7262
▁operativo	-10.7269
▁somme	-10.7269
▁contraddizione	-10.7275
▁amministrazioni	-10.7276
▁regolare	-10.7276
▁trasmissione	-10.7278
▁legittima	-10.7279
▁proroga	-10.7281
▁enti	-10.7283
▁tende	-10.7283
▁timore	-10.7283
▁Era	-10.7286
▁Palestina	-10.7291
▁magari	-10.7291
colo	-10.7291
▁resistenza	-10.7291
interpretazione	-10.7292
▁effettivo	-10.7292
imposizione	-10.7299
▁giunge	-10.7303
▁banca	-10.7303
▁Ce	-10.7304
▁intorno	-10.7306
▁Benché	-10.7306
▁America	-10.7312
▁bovina	-10.7314
▁Tempo	-10.7314
▁valere	-10.732
▁sostenibili	-10.732
▁favorevolmente	-10.7322
▁geografica	-10.7322
▁informa	-10.7322
▁post	-10.7324
▁Sostengo	-10.7329
0.000	-10.7332
▁attivi	-10.7334
ffari	-10.7337
ALE	-10.734
▁GUE	-10.7341
▁tessile	-10.7345
rete	-10.7352
gare	-10.7352
▁impegnato	-10.7353
▁Dall	-10.7372
▁fenomeni	-10.7376
una	-10.7379
▁valide	-10.7383
▁aumenti	-10.7384
▁vino	-10.7384
▁2000.	-10.7385
▁consentano	-10.7393
▁decisa	-10.7394
▁concentrazione	-10.7395
▁vorrebbe	-10.7396
▁sostanziali	-10.7399
▁sc	-10.7399
▁esaminato	-10.7402
immagine	-10.7416
▁introduzione	-10.7418
▁Iran	-10.742
▁profondo	-10.743
▁pericoli	-10.743
▁segna	-10.7438
▁venti	-10.744
▁invoca	-10.7441
▁successivo	-10.7448
▁attuato	-10.745
FI	-10.7452
▁movimenti	-10.7454
▁specificamente	-10.7454
▁mangimi	-10.7469
▁delegazioni	-10.7471
▁automobili	-10.7472
0	-10.7475
▁efficienti	-10.7477
▁den	-10.7478
▁colpa	-10.748
▁incontrato	-10.7481
▁protesta	-10.7483
▁terribile	-10.7485
▁singole	-10.7485
▁tengo	-10.7485
enza	-10.7485
au	-10.7486
▁copertura	-10.7493
▁definitivo	-10.7496
▁2009.	-10.7498
▁sangue	-10.7501
▁India	-10.7506
▁partecipanti	-10.7511
▁interessanti	-10.7521
▁lanciato	-10.7528
▁supera	-10.7532
▁Dublino	-10.7532
▁ingenti	-10.7532
col	-10.7536
▁V	-10.7537
▁culture	-10.754
▁Speriamo	-10.754
▁straordinario	-10.7551
▁scientifiche	-10.7556
▁riesce	-10.7556
▁pensione	-10.7556
▁successi	-10.756
97	-10.7563
▁decisionali	-10.7564
effettiva	-10.7565
▁ratificato	-10.7571
▁dinamica	-10.7572
▁indispensabili	-10.7579
▁Ebbene	-10.7579
▁2012	-10.758
▁attuata	-10.7581
▁respinge	-10.7584
▁lontano	-10.7587
▁legame	-10.7595
▁marcia	-10.7596
▁approfondire	-10.76
▁pluriennale	-10.7603
indagine	-10.7605
gua	-10.7612
Austria	-10.7621
▁giro	-10.7621
▁tribunali	-10.7629
):	-10.7634
▁Consentitemi	-10.7635
▁sinora	-10.7645
▁stabili	-10.7647
▁raccomanda	-10.7651
▁Doha	-10.7652
▁incontra	-10.7653
▁migrazione	-10.7653
▁cercano	-10.7654
▁salvare	-10.7658
▁volume	-10.7659
▁vadano	-10.7661
▁intervengo	-10.7663
▁informale	-10.7663
mer	-10.7666
▁Esistono	-10.7667
▁strategici	-10.7667
▁scadenze	-10.7667
▁cos	-10.7667
▁russo	-10.7675
▁finalità	-10.7676
▁integrante	-10.7678
▁monopoli	-10.7679
▁inserito	-10.7683
▁Istituzione	-10.7684
▁registrazione	-10.7687
▁validi	-10.7689
▁sussiste	-10.769
NGL	-10.7691
▁darà	-10.7693
nico	-10.7697
▁preveda	-10.7699
▁determinante	-10.7701
▁opere	-10.7701
▁prioritario	-10.7701
▁doppio	-10.7707
▁presta	-10.7714
▁rimasto	-10.7715
▁preservare	-10.7716
▁temo	-10.7721
▁credibile	-10.7731
▁rigorosa	-10.7734
▁saputo	-10.7747
▁diffusa	-10.7747
▁violenze	-10.7755
▁costituisca	-10.7755
▁solito	-10.7755
▁messe	-10.7763
▁stesura	-10.7763
▁conclusi	-10.7766
rato	-10.7769
▁aggrava	-10.7771
▁applicabile	-10.7774
▁odierno	-10.7776
▁estende	-10.7788
▁perlomeno	-10.7795
▁sintesi	-10.7796
▁ripristinare	-10.7801
▁Brasile	-10.7803
▁sensibilità	-10.7807
th	-10.7811
▁Verts	-10.7812
▁commessi	-10.7812
▁entità	-10.7812
▁comincia	-10.7814
entità	-10.7817
▁eppure	-10.7818
▁comprensibile	-10.782
▁precisione	-10.782
▁Egli	-10.7837
▁previsioni	-10.7844
▁dimentichiamo	-10.7844
▁Fi	-10.785
8/	-10.7851
▁Più	-10.7852
importo	-10.7854
▁paragrafi	-10.786
stici	-10.786
▁proliferazione	-10.7861
▁invitato	-10.7861
▁Innanzitutto	-10.7869
▁Verdi	-10.787
▁contempla	-10.7872
▁amministrativo	-10.7877
▁legata	-10.7877
▁versa	-10.7882
▁ritenere	-10.7885
▁pubblicazione	-10.789
▁comportano	-10.7892
▁Sudan	-10.7894
IVA	-10.7895
▁rilevanti	-10.7905
▁revoca	-10.7908
▁CIG	-10.7909
▁onde	-10.7914
▁verificato	-10.792
efficace	-10.792
▁televisione	-10.7926
▁rimasti	-10.7934
▁partecipa	-10.7938
▁attacco	-10.7943
azioni	-10.7945
▁componenti	-10.795
▁stasera	-10.795
▁godono	-10.7951
▁ripetutamente	-10.7951
▁garantisca	-10.7951
▁peggio	-10.7956
▁facciano	-10.7957
▁diventata	-10.7959
▁riconciliazione	-10.7959
▁commento	-10.796
▁integra	-10.796
▁spe	-10.7962
▁colpo	-10.7962
▁sensibile	-10.7964
▁pronto	-10.7971
▁ispira	-10.7985
▁tensioni	-10.7991
▁carenza	-10.7992
▁discute	-10.7993
▁particolar	-10.8001
▁terroristici	-10.8005
▁vent	-10.8006
▁subire	-10.8007
▁considerate	-10.8007
▁sentenze	-10.8008
▁paio	-10.8012
stri	-10.8014
▁detenzione	-10.8016
▁sottoposti	-10.8016
▁accusa	-10.8017
▁sana	-10.802
▁limitazione	-10.802
▁notato	-10.8021
▁rapidi	-10.8023
▁elaborata	-10.8027
ard	-10.8028
▁5,	-10.8042
▁termina	-10.8046
▁tenore	-10.8049
▁medici	-10.8051
▁Fra	-10.8053
▁inizi	-10.8057
▁destino	-10.8058
11	-10.8059
ed	-10.8061
▁motivazioni	-10.8067
estate	-10.8071
▁nega	-10.8074
▁sarei	-10.8076
AIDS	-10.8077
▁Quale	-10.8078
▁determinata	-10.8081
▁premio	-10.8083
▁manifestato	-10.8083
ottimo	-10.8085
▁fondamento	-10.8086
▁carbone	-10.8091
▁droghe	-10.8091
arresto	-10.8094
▁New	-10.8101
'80	-10.8101
▁auspichiamo	-10.8108
▁dicono	-10.8116
ffer	-10.8121
▁Allora	-10.8122
▁usato	-10.8123
▁Permettetemi	-10.8124
▁tavolo	-10.8124
▁peccato	-10.8124
▁continueremo	-10.8125
▁sinceramente	-10.8126
ocialdemocratici	-10.8133
▁conservatori	-10.8133
▁apertamente	-10.8134
▁rispetti	-10.8135
▁coinvolto	-10.8141
▁sanitarie	-10.8142
onore	-10.8146
▁noti	-10.8148
ent	-10.8157
▁vigente	-10.816
▁femminile	-10.8166
▁vecchia	-10.8172
▁Comunque	-10.8175
▁vediamo	-10.8175
▁Patten	-10.8183
▁inizialmente	-10.8184
2/	-10.8184
▁Congo	-10.8185
▁soddisfa	-10.8191
▁preceduto	-10.8191
▁Ricordo	-10.82
▁Tunisia	-10.82
▁americana	-10.8204
▁Libano	-10.8208
▁austriaca	-10.8208
▁proibi	-10.8208
▁trasferi	-10.8211
▁legato	-10.8212
gono	-10.8216
▁eventualmente	-10.8217
▁contratto	-10.8217
sten	-10.8221
▁rafforzato	-10.8222
nni	-10.8223
▁negare	-10.8223
▁giustifica	-10.8227
▁desideri	-10.8228
▁ascolta	-10.8228
▁farci	-10.8228
▁concentrare	-10.8229
▁mirano	-10.8229
▁crediti	-10.8237
pone	-10.8238
▁precisi	-10.8242
▁ALDE	-10.8242
▁accuse	-10.8242
▁complessità	-10.8252
▁censura	-10.8259
▁truppe	-10.8259
▁povere	-10.826
niamo	-10.826
▁ragionevoli	-10.8261
▁rappresentati	-10.8263
▁inquinamento	-10.8266
▁area	-10.8272
▁testa	-10.8274
▁par	-10.8277
▁forni	-10.8287
▁lancia	-10.829
▁opzioni	-10.8293
ze	-10.8297
scano	-10.8299
▁applicabili	-10.8299
▁consigli	-10.8311
affermazione	-10.8312
isola	-10.8312
▁colpisce	-10.8319
▁300	-10.8322
▁Na	-10.8324
tre	-10.8325
▁contesta	-10.833
▁alimenta	-10.8334
▁effettuati	-10.834
▁bio	-10.8341
▁scritta	-10.8343
▁possesso	-10.8344
▁parametri	-10.8344
▁uffici	-10.8349
▁bambino	-10.8352
▁tradizionale	-10.8352
▁dittatura	-10.8353
▁necessita	-10.8353
hi	-10.8353
▁immaginare	-10.8362
▁immediata	-10.8362
▁rientrare	-10.8364
▁limitarsi	-10.8368
▁avanzato	-10.8369
▁inferiori	-10.837
▁XXI	-10.8372
▁75	-10.8376
▁Fin	-10.8378
▁sostituzione	-10.8378
▁conferire	-10.8378
▁autore	-10.838
▁volontari	-10.8383
▁missioni	-10.8383
▁procedimenti	-10.8387
▁scapito	-10.8387
▁differenti	-10.8387
▁omaggio	-10.8387
▁rispecchia	-10.839
▁completare	-10.8391
pia	-10.8393
▁definisce	-10.8395
▁vota	-10.8398
▁intelligente	-10.8404
▁continueranno	-10.8405
▁regolari	-10.8408
▁conosciamo	-10.8413
ità	-10.8421
▁preventiva	-10.8421
▁prezioso	-10.8421
▁ecologica	-10.8421
alto	-10.8421
▁Bush	-10.843
▁mercoledì	-10.8438
▁batte	-10.8439
▁modernizzazione	-10.8439
▁giornali	-10.8441
▁cancro	-10.8447
▁interrogativi	-10.8447
▁rubrica	-10.8447
▁Esteri	-10.8447
▁soggetto	-10.8448
▁benissimo	-10.8449
▁limitazioni	-10.8451
▁ritornare	-10.8454
▁comunicato	-10.8455
▁Nondimeno	-10.8456
▁assoluto	-10.8456
5-00	-10.8456
stro	-10.8463
▁BEI	-10.8464
▁stare	-10.8465
▁produttività	-10.8465
▁condiziona	-10.8467
▁rappresentata	-10.8473
▁Sembra	-10.8473
riamo	-10.8473
▁viola	-10.8475
orientamento	-10.8476
▁distorsioni	-10.8482
▁elettronico	-10.8482
▁spalle	-10.8482
▁svolte	-10.8485
▁accessibili	-10.8504
▁Siria	-10.8516
▁legittimo	-10.8516
▁car	-10.8522
▁completamento	-10.8522
ki	-10.8526
▁sottoporre	-10.8527
▁negativa	-10.853
▁resa	-10.8531
▁manifestazioni	-10.8537
▁etichettatura	-10.854
val	-10.8542
▁sostitui	-10.8543
▁redigere	-10.8554
Afghanistan	-10.8555
▁effettiva	-10.8559
▁N	-10.8565
▁complementare	-10.8569
▁ostacola	-10.857
▁finire	-10.857
▁occupati	-10.8577
▁gamma	-10.8578
▁attribuisce	-10.8578
inter	-10.8582
▁spendere	-10.8582
smi	-10.8585
▁commesso	-10.8586
cre	-10.8592
▁dimenticato	-10.8593
▁duplice	-10.8595
ord	-10.8596
nale	-10.8599
▁Schulz	-10.8604
▁allargata	-10.8604
▁combustibili	-10.8604
▁conseguimento	-10.8604
▁recepimento	-10.8605
▁attua	-10.8607
▁pertinenti	-10.8612
▁venerdì	-10.8612
▁conservare	-10.8619
▁obiezioni	-10.863
▁individuale	-10.8633
▁intera	-10.8633
▁equivale	-10.8634
spor	-10.8639
▁dovuti	-10.8639
▁slancio	-10.8648
▁allevatori	-10.8648
mar	-10.8652
▁capaci	-10.8663
incontro	-10.8664
▁elettorali	-10.8665
▁interpretazione	-10.8666
▁divergenze	-10.8674
imposta	-10.8675
votazione	-10.8681
▁To	-10.8683
▁suolo	-10.8684
OLAF	-10.8687
▁salari	-10.869
▁Qui	-10.8691
▁comitati	-10.8692
▁superiori	-10.8692
▁applicati	-10.87
▁Appoggio	-10.87
▁libere	-10.8701
▁vuol	-10.8701
▁for	-10.8703
▁r	-10.8705
▁0,	-10.8707
▁condannato	-10.8716
▁Già	-10.8718
▁promessa	-10.8719
4/	-10.872
▁sollevate	-10.8722
▁dossier	-10.8727
▁2010.	-10.8728
▁illustrato	-10.8732
▁bilaterale	-10.8736
▁voli	-10.874
▁collettiva	-10.874
▁Ashton	-10.8745
qua	-10.8745
UEM	-10.8758
▁risolve	-10.8762
▁cattiva	-10.8766
▁approvate	-10.8768
▁utilizzata	-10.8768
▁accompagna	-10.8769
▁lunedì	-10.8772
onere	-10.8773
▁esprimo	-10.8773
▁economicamente	-10.8774
▁Solana	-10.878
▁gravemente	-10.8785
▁vietare	-10.879
▁frase	-10.8795
▁Sull	-10.8796
▁pericolosa	-10.8797
▁discussa	-10.8798
▁esorto	-10.8799
▁riducendo	-10.88
▁delinea	-10.8803
▁logico	-10.8804
ite	-10.8806
▁cibo	-10.8807
▁vieta	-10.8807
▁tratto	-10.8807
▁proponiamo	-10.8808
▁analizza	-10.8812
▁ric	-10.8813
▁felice	-10.8816
▁religiose	-10.8816
▁tentato	-10.882
▁caratterizzato	-10.8824
▁componente	-10.8825
7/	-10.8833
▁manovra	-10.8834
▁mantenuto	-10.8834
▁pervenire	-10.8834
▁eccezioni	-10.8835
▁automobilistica	-10.8835
cci	-10.884
▁pratico	-10.8843
▁aperti	-10.8844
▁affrontata	-10.8848
▁crescere	-10.885
▁instaurare	-10.885
▁legislazioni	-10.8852
▁zero	-10.8852
▁spinge	-10.8854
mba	-10.886
▁destinare	-10.886
▁profonde	-10.8861
▁fumo	-10.8863
▁annuali	-10.8877
men	-10.8886
▁Fischler	-10.8888
▁Libia	-10.8888
▁immediato	-10.889
▁occupano	-10.8891
▁insiste	-10.8892
▁ottima	-10.8892
▁diversamente	-10.8894
▁passati	-10.8899
▁vigilare	-10.89
▁conciliare	-10.8905
▁ambiziosa	-10.8909
▁superato	-10.8912
▁fianco	-10.8915
▁ricercatori	-10.8916
▁H	-10.8918
nna	-10.8918
tor	-10.8924
▁intrapreso	-10.8924
▁coprire	-10.8924
Erzegovina	-10.8933
▁intraprese	-10.8933
▁appropriato	-10.8933
1/	-10.8934
▁discorsi	-10.8934
▁motore	-10.8934
inserimento	-10.8937
▁sessuali	-10.8942
▁clandestini	-10.8952
▁1992	-10.8952
ista	-10.8953
/97)	-10.8955
▁evitando	-10.8956
acquisto	-10.8957
▁cu	-10.8957
▁integrati	-10.8958
▁miliardo	-10.8961
▁aerea	-10.8961
▁Verheugen	-10.897
▁unilaterale	-10.897
▁vasto	-10.898
▁»	-10.8981
venti	-10.8982
▁Concludo	-10.8988
▁tedeschi	-10.8988
▁abolire	-10.8988
OSCE	-10.8988
▁sostenendo	-10.8989
▁Dett	-10.8989
▁Finora	-10.8991
dis	-10.8992
▁aumentato	-10.8993
▁ribadisco	-10.8997
▁emissione	-10.8997
▁adottando	-10.9003
▁sedi	-10.9003
wa	-10.9005
▁intenda	-10.9007
▁marittimi	-10.9015
▁doveva	-10.9016
▁quinto	-10.9016
▁urgentemente	-10.902
10	-10.9023
▁israeliani	-10.9024
port	-10.9029
▁Svizzera	-10.9034
▁ritmo	-10.9034
isca	-10.904
▁Certamente	-10.9043
▁gioventù	-10.9043
▁pilastri	-10.9043
▁stanziamento	-10.9043
▁corre	-10.9046
▁schiera	-10.9051
▁precisamente	-10.9052
▁xenofobia	-10.9054
▁comportare	-10.9058
▁correggere	-10.9059
tur	-10.9076
▁perchè	-10.9079
▁serietà	-10.908
▁sento	-10.9081
▁difende	-10.9083
apprendimento	-10.9085
logia	-10.9085
▁attendono	-10.9088
▁probabile	-10.9089
▁concede	-10.9089
▁rivoluzione	-10.9089
▁agito	-10.909
▁competitivo	-10.9098
▁doppia	-10.9098
▁monitorare	-10.9098
▁dodici	-10.9098
▁rispettive	-10.91
▁impostazione	-10.9102
▁sollevata	-10.9102
▁stanziati	-10.9102
▁risorsa	-10.9107
▁manifestare	-10.9108
pos	-10.9112
▁sospesa	-10.9116
▁stupefacenti	-10.9116
intesa	-10.9122
▁primaria	-10.9123
à	-10.9123
▁2007,	-10.9125
▁dazi	-10.9125
▁imbarcazioni	-10.9126
▁rating	-10.9126
▁accanto	-10.9134
▁diciamo	-10.9137
▁chiama	-10.9138
sul	-10.9139
alimentazione	-10.914
▁resti	-10.9144
▁attendiamo	-10.9144
▁sofferenze	-10.9144
▁registro	-10.9146
importazione	-10.9149
9/	-10.9153
▁rinviare	-10.9153
▁studiare	-10.9158
▁consentendo	-10.9159
mpo	-10.9161
▁vicepresidente	-10.9163
▁caccia	-10.9164
▁2006,	-10.9167
▁richiama	-10.917
▁elaborazione	-10.9171
ono	-10.9171
SK	-10.9174
▁fisica	-10.9181
▁diventando	-10.9187
▁inaccettabili	-10.919
▁preparativi	-10.9193
▁ONU	-10.9195
▁migranti	-10.92
▁evita	-10.9209
▁tratte	-10.9212
▁passa	-10.9227
▁mine	-10.923
▁colmare	-10.9234
▁utilizzando	-10.9241
▁applicano	-10.9242
▁metta	-10.9244
ani	-10.9244
▁Slovenia	-10.9246
▁accolta	-10.9246
▁preferito	-10.9246
▁agenti	-10.9247
arsi	-10.9251
▁constatato	-10.9255
▁Tampere	-10.9256
▁retribuzione	-10.9256
▁Santer	-10.9257
PE	-10.9262
▁consuma	-10.9264
▁assunta	-10.9265
▁supervisione	-10.9265
ccio	-10.9274
▁definite	-10.9274
▁tendenze	-10.9275
▁giuridicamente	-10.9282
▁2007-2013	-10.9284
▁aumentando	-10.9291
▁Stoccolma	-10.9293
▁operativa	-10.9295
▁Dato	-10.9302
▁coerenti	-10.9303
▁decine	-10.9303
rono	-10.9305
▁mettono	-10.9307
▁importa	-10.9309
land	-10.9311
▁Brok	-10.9312
▁Ga	-10.9318
▁ragion	-10.932
▁fattispecie	-10.9321
▁mancano	-10.9322
sol	-10.9322
▁assi	-10.9324
arte	-10.9326
▁succede	-10.9332
▁andrà	-10.9334
▁fissa	-10.9335
▁classe	-10.934
attiva	-10.9342
▁inquinanti	-10.9344
▁tenta	-10.9345
▁vendite	-10.935
▁anniversario	-10.9352
elemento	-10.9356
sche	-10.9357
▁affrontando	-10.9359
▁concetti	-10.9359
▁ritrova	-10.936
▁pensionati	-10.9369
▁affrontati	-10.9378
▁eccessiva	-10.9378
▁condivisa	-10.9378
▁chiamato	-10.9381
▁illustrare	-10.9382
▁abita	-10.9389
▁brevetto	-10.9389
▁calcio	-10.9391
▁continuità	-10.9391
▁citati	-10.9395
▁continuamente	-10.9396
▁sospeso	-10.9397
▁scandalo	-10.9403
▁trascura	-10.9404
▁Costa	-10.9406
▁riscaldamento	-10.9407
rare	-10.9414
▁Ieri	-10.9415
▁successiva	-10.9417
▁momenti	-10.9419
▁prendendo	-10.9425
▁menzionare	-10.9425
▁impedisce	-10.9426
▁evidenti	-10.9435
▁vittoria	-10.9435
▁affermando	-10.9436
▁raggiunge	-10.9439
inflazione	-10.9441
▁forniti	-10.9443
fondamentalmente	-10.9443
▁torna	-10.9444
▁comparto	-10.9445
▁religiosa	-10.9445
lato	-10.9445
▁vecchio	-10.9446
▁Membro	-10.9454
▁rigoroso	-10.9454
▁soggiorno	-10.9454
▁esauriente	-10.9456
▁accadendo	-10.9464
forma	-10.9466
▁puramente	-10.9468
▁trans	-10.9472
▁israeliano	-10.9473
sor	-10.9483
▁contenuta	-10.9492
▁esposto	-10.9492
▁sviluppato	-10.9495
▁be	-10.9497
▁denunce	-10.9502
▁Sì	-10.9503
▁validità	-10.9504
▁formulata	-10.9509
▁gradi	-10.9509
▁traduzione	-10.9512
▁salva	-10.9513
▁concentrarci	-10.9515
▁auguri	-10.9519
▁manodopera	-10.9521
mini	-10.9525
▁seguendo	-10.9525
uma	-10.9527
via	-10.9528
▁Timor	-10.9531
▁cautela	-10.9531
▁riguardi	-10.9531
▁sarò	-10.9532
▁propongo	-10.9534
▁riferire	-10.9537
▁appartenenti	-10.9542
▁nutri	-10.9547
▁connesse	-10.955
dendo	-10.956
▁pesticidi	-10.956
▁cofinanziamento	-10.9561
▁cari	-10.9565
▁energetici	-10.9569
ET	-10.9574
▁Bu	-10.9583
▁gratitudine	-10.9589
▁ispezioni	-10.9589
▁acco	-10.959
▁Pi	-10.959
▁faranno	-10.9592
▁postali	-10.9592
▁lordo	-10.9598
▁aperte	-10.9599
▁2007.	-10.9601
▁b	-10.9603
▁sorprende	-10.9605
▁37	-10.9611
▁prenda	-10.9615
▁flessibili	-10.9616
▁normali	-10.9616
ttori	-10.9618
▁causati	-10.9618
▁seguita	-10.9624
▁IVA	-10.9626
it	-10.9627
▁elenca	-10.9628
▁ecco	-10.9632
▁giocattoli	-10.9637
▁riflessioni	-10.9637
▁bassa	-10.964
▁russi	-10.9647
▁Pe	-10.9656
▁inondazioni	-10.9657
15	-10.9663
ser	-10.9666
▁spiegato	-10.9669
▁esigere	-10.967
prend	-10.967
▁Gu	-10.9672
▁prioritari	-10.9676
▁contr	-10.968
▁evento	-10.9682
▁calamità	-10.9686
▁ris	-10.97
▁ritirare	-10.97
▁attribui	-10.9703
▁testimonia	-10.9704
▁tollera	-10.9706
nati	-10.971
▁realizza	-10.9711
▁effettuato	-10.9711
▁rallegra	-10.9713
cc	-10.9713
▁guerre	-10.9715
▁supplementare	-10.9715
▁giuste	-10.9716
▁percepi	-10.9723
▁gradualmente	-10.9725
parti	-10.9731
▁agenda	-10.9733
▁margini	-10.9735
▁fornendo	-10.9735
Istituto	-10.9736
▁Due	-10.9739
▁bar	-10.9739
▁mostrare	-10.9742
50	-10.9742
▁contenere	-10.9745
▁comitatologia	-10.9746
▁usati	-10.9753
▁Scozia	-10.9755
▁volevo	-10.9764
▁destinazione	-10.9776
▁risparmi	-10.978
▁45	-10.978
infanzia	-10.9782
invecchiamento	-10.9783
porre	-10.9783
▁greca	-10.9784
▁preparato	-10.9791
▁spi	-10.9794
▁supporto	-10.9794
▁monete	-10.9794
zzate	-10.9795
nca	-10.9796
▁lamenta	-10.9799
▁Agenda	-10.9805
▁eventuale	-10.9805
▁celebra	-10.9814
▁leadership	-10.9814
▁stradali	-10.9822
▁cellule	-10.9834
▁moltiplica	-10.9834
▁autonomi	-10.9835
▁rivelato	-10.9836
hanno	-10.9837
▁mostrato	-10.9838
▁6,	-10.984
tion	-10.9841
▁inevitabilmente	-10.9844
▁spa	-10.9845
▁1.	-10.9854
▁esporta	-10.9861
▁recessione	-10.9863
▁diventerà	-10.9863
dice	-10.9865
▁indicano	-10.9869
▁costituita	-10.9873
▁monito	-10.9873
▁1993	-10.9874
▁separazione	-10.9875
ini	-10.9879
80	-10.9879
▁intermedia	-10.9881
▁aspettano	-10.9882
▁Auspico	-10.9883
▁circostanza	-10.9883
▁sottoposta	-10.9883
rt	-10.9884
▁acquistare	-10.989
▁auspico	-10.9893
▁2020.	-10.9894
nica	-10.9895
▁talmente	-10.9899
▁fabbrica	-10.99
▁porgere	-10.9903
▁estero	-10.9908
▁concessioni	-10.9914
▁consentirebbe	-10.9915
▁risiede	-10.9923
▁volontario	-10.9927
▁affermazione	-10.9928
▁riformare	-10.9932
▁messaggi	-10.9934
str	-10.9935
▁bloccare	-10.9937
▁professionisti	-10.9946
Ungheria	-10.9951
▁nondimeno	-10.9953
ty	-10.9958
▁trasferire	-10.9959
▁2009,	-10.996
▁aliquote	-10.9963
▁contribuendo	-10.9963
▁rivolge	-10.9965
▁cito	-10.9966
▁ringraziando	-10.9967
educazione	-10.9971
▁dovute	-10.9973
▁ricevono	-10.9973
▁sostenitori	-10.9973
09	-10.9975
▁dedica	-10.9981
▁risarcimento	-10.9984
▁impegnarci	-10.9986
▁cerchiamo	-10.9986
▁radicali	-10.9988
allegato	-10.9991
▁riconosciuta	-10.9994
▁protezionismo	-10.9994
▁seri	-10.9995
▁concorda	-11.0004
▁insufficienti	-11.0004
ismo	-11.0006
-0	-11.0013
▁agosto	-11.0018
▁sollecita	-11.003
▁mobilitazione	-11.0034
▁riservato	-11.0036
▁insegna	-11.0036
▁adoperarsi	-11.0038
lin	-11.0039
▁organizzati	-11.0043
▁Helsinki	-11.0044
▁Tibet	-11.0044
▁Potrebbe	-11.0044
▁giovane	-11.0046
▁Cor	-11.0047
▁indicati	-11.0051
▁Messico	-11.0054
▁Soltanto	-11.0054
▁canali	-11.0056
▁autorizzazione	-11.0058
▁potenza	-11.0064
integrità	-11.0072
▁complimentarmi	-11.0075
▁chiederle	-11.0075
rma	-11.008
ndone	-11.0084
▁reputo	-11.0085
LT	-11.0088
mette	-11.0088
▁africana	-11.0088
▁trasporta	-11.0093
▁scienziati	-11.0095
▁etnica	-11.0095
▁forniscono	-11.0095
6/	-11.0095
fini	-11.0095
bilmente	-11.0096
▁Z	-11.0097
▁bancario	-11.0102
▁mari	-11.0105
▁attorno	-11.0105
ui	-11.0106
▁2008.	-11.0108
▁coloni	-11.0108
▁operativi	-11.0109
▁dedicare	-11.0113
▁molteplici	-11.0113
▁acquis	-11.0114
▁spiace	-11.0115
▁concessi	-11.0115
▁avvi	-11.0123
▁concordare	-11.0123
▁accolti	-11.0125
▁2010,	-11.0128
▁puntare	-11.0136
▁notifica	-11.0137
dare	-11.0144
▁Vienna	-11.0146
▁scusa	-11.0155
▁Gi	-11.0156
▁residenti	-11.0156
▁protegge	-11.016
dio	-11.0162
▁cerchi	-11.0164
▁procedimento	-11.0166
▁tecnologica	-11.0166
▁eccezionale	-11.017
he	-11.0173
▁fuga	-11.0174
▁viaggi	-11.0176
▁stabilite	-11.018
ura	-11.0184
▁proclama	-11.0187
▁bordo	-11.0187
▁renderà	-11.0194
▁impiegati	-11.0196
▁fermo	-11.0197
▁note	-11.02
▁provocare	-11.0202
▁tematica	-11.0204
▁massimi	-11.0204
▁siete	-11.0204
audizione	-11.0205
▁moratoria	-11.0207
▁coordinata	-11.0213
▁importantissimo	-11.0214
▁producono	-11.0218
▁continuiamo	-11.0224
▁muro	-11.0235
emergenza	-11.0237
▁prioritaria	-11.0238
▁Saddam	-11.0238
▁delicata	-11.0239
▁unitaria	-11.024
▁diceva	-11.0247
6-0	-11.0248
▁soldati	-11.0249
▁riferito	-11.0249
▁conserva	-11.0257
",	-11.0264
vor	-11.0268
▁lettere	-11.027
▁nazionalità	-11.027
cen	-11.0271
▁adopera	-11.0275
▁creata	-11.0277
▁biocarburanti	-11.028
▁riescono	-11.0282
▁governa	-11.0288
▁rinnovabile	-11.0291
▁multi	-11.0292
▁riporta	-11.0293
▁conquista	-11.0293
▁PESC	-11.03
▁riduzioni	-11.03
▁vorrà	-11.03
▁ecologico	-11.03
▁meriti	-11.0301
▁Poi	-11.0306
▁rischiano	-11.0309
+	-11.0311
▁risultare	-11.0319
▁Millennio	-11.0321
▁rivestono	-11.0321
▁reazioni	-11.0323
ppi	-11.0323
▁belle	-11.0325
ke	-11.034
▁controlla	-11.0341
▁affidabili	-11.0342
▁intensi	-11.0345
▁ciascuna	-11.0346
▁esercita	-11.0351
Atlantico	-11.0353
▁costretto	-11.0353
▁differenzia	-11.0354
▁fornita	-11.0355
▁volontaria	-11.0357
▁sbagliata	-11.036
▁severi	-11.0361
bbi	-11.0362
▁partecipano	-11.0363
▁inclusa	-11.0363
▁ugualmente	-11.0363
▁esprimersi	-11.0375
▁cambiato	-11.038
fiche	-11.0381
▁probabilità	-11.0384
1999	-11.0391
▁cereali	-11.0394
▁disastri	-11.0394
▁giustificata	-11.0399
▁conduce	-11.0402
ja	-11.0404
▁residui	-11.0405
▁riconosciuti	-11.0405
▁riposo	-11.0405
▁incertezza	-11.0408
▁lezione	-11.0408
▁Asia	-11.0409
▁fondato	-11.0412
▁memoria	-11.0415
▁bandiera	-11.0416
▁Capi	-11.0427
▁lì	-11.0433
▁attrezzature	-11.0436
▁allontana	-11.0437
▁tu	-11.0445
▁basarsi	-11.0447
▁ripro	-11.0447
▁augura	-11.0451
ì	-11.0456
▁potenzialmente	-11.0458
▁terreni	-11.0459
▁gu	-11.0462
á	-11.0462
Agenda	-11.0467
alternativa	-11.0467
▁nave	-11.0468
▁obbligatorio	-11.0474
▁competere	-11.0476
▁Anch	-11.0482
▁considerano	-11.0483
▁Sudafrica	-11.049
▁rassicura	-11.0491
/2002	-11.0492
▁coltiva	-11.0497
▁1990	-11.05
▁lavorativa	-11.0501
viamo	-11.0503
▁netto	-11.0505
▁eravamo	-11.0507
▁Apprezzo	-11.051
▁comporterà	-11.051
▁turca	-11.0511
▁finanziato	-11.0512
investimento	-11.052
▁respinta	-11.0521
▁entra	-11.0528
▁stanziare	-11.0529
▁trasferimenti	-11.0533
▁Ungheria	-11.0534
▁giustificato	-11.0536
▁giudiziarie	-11.0538
▁apprezza	-11.0541
▁arbitrari	-11.0542
▁stime	-11.0542
▁armamenti	-11.0543
▁colture	-11.0544
▁disaccordo	-11.0546
▁trasmette	-11.0547
simo	-11.0548
stematicamente	-11.0548
▁giudicare	-11.0549
▁autonomia	-11.055
▁basate	-11.055
poli	-11.055
▁auspicato	-11.056
▁riesca	-11.0569
▁chiarito	-11.0575
▁duro	-11.0581
▁limitati	-11.0584
▁preferenze	-11.0585
▁previdenza	-11.0585
▁attive	-11.0586
▁onore	-11.0588
3/	-11.0592
▁necessitano	-11.0595
appello	-11.0595
▁grosso	-11.0596
▁migliorato	-11.0602
▁ufficio	-11.0603
▁attuati	-11.0606
▁conseguito	-11.0606
▁critici	-11.0606
▁monopolio	-11.0611
▁dumping	-11.0617
▁medico	-11.0618
▁App	-11.0618
▁apprezzato	-11.0618
▁riuscirà	-11.0619
▁disabilità	-11.0621
▁accerta	-11.0622
▁proprietari	-11.0627
▁esposti	-11.0628
▁aderito	-11.0628
bri	-11.0631
▁amico	-11.0633
▁Sotto	-11.0634
▁finanzia	-11.0637
▁suggerito	-11.0638
▁Federazione	-11.0639
▁potenziamento	-11.064
▁limitate	-11.064
▁creano	-11.064
▁saremmo	-11.0641
▁compromettere	-11.0643
▁adeguare	-11.0646
▁elettrica	-11.0649
▁dovessero	-11.0656
▁duramente	-11.0658
▁subordina	-11.066
70	-11.066
▁polacchi	-11.066
▁duratura	-11.0661
▁purché	-11.0664
▁suscitato	-11.0666
inc	-11.0667
▁rispettano	-11.0667
▁complessi	-11.068
▁vedono	-11.0681
▁anticipo	-11.0682
▁acquista	-11.069
▁porto	-11.069
invito	-11.0692
▁assurdo	-11.0692
▁condotte	-11.0693
▁definitivamente	-11.0697
▁diminuire	-11.0703
▁rin	-11.071
▁Lettonia	-11.0714
▁condivisione	-11.0714
▁frutti	-11.0715
▁ampie	-11.0718
nata	-11.0722
▁2004.	-11.0723
05	-11.0723
▁flusso	-11.0725
▁respiro	-11.0725
▁introduce	-11.0734
▁pluralismo	-11.0736
ko	-11.0737
▁g	-11.0743
5-01	-11.0745
▁comporterebbe	-11.0747
uni	-11.0748
▁impedito	-11.0758
▁incluse	-11.0758
▁presupposti	-11.0758
▁aspirazioni	-11.0759
▁Temo	-11.0763
▁personalità	-11.0763
▁affrontate	-11.0763
▁considerevoli	-11.0768
▁congedo	-11.0768
▁Vorremmo	-11.0779
▁apparecchiature	-11.0779
▁tradurre	-11.0779
▁denunciare	-11.0779
▁sesso	-11.0784
dici	-11.0786
▁derivano	-11.0789
40	-11.0789
▁bisogni	-11.079
▁flotte	-11.079
▁privatizzazione	-11.0794
ltamente	-11.0801
▁Madrid	-11.0801
▁cruciali	-11.0801
▁promuovendo	-11.0802
▁coltivazione	-11.0804
▁identificare	-11.0806
▁ipotesi	-11.0808
▁invia	-11.0811
▁migliorata	-11.0812
▁Monti	-11.0814
lità	-11.0814
▁trovi	-11.0815
▁avviata	-11.0818
▁pesante	-11.0818
▁parlo	-11.0822
▁voterà	-11.0823
▁segreto	-11.0823
▁verifiche	-11.0823
▁firmatari	-11.0828
▁entusiasmo	-11.0831
▁nascita	-11.0845
▁esaminando	-11.0845
▁disarmo	-11.0845
▁pò	-11.0846
▁venissero	-11.0851
▁potenze	-11.0856
▁avvicina	-11.0859
▁He	-11.086
ibili	-11.0861
ude	-11.0866
▁32	-11.0866
▁riferimenti	-11.0869
▁specificità	-11.0874
▁80	-11.0877
azienda	-11.0889
▁rigorose	-11.0889
▁occupazionali	-11.0889
▁esteso	-11.0889
▁investi	-11.0891
▁Jo	-11.0896
▁decennio	-11.0899
OCSE	-11.09
▁percorrere	-11.09
▁consistente	-11.0904
▁comportamenti	-11.0905
▁36	-11.0909
▁acquisire	-11.0912
▁selezione	-11.0913
sì	-11.0914
▁stiano	-11.0916
▁sospendere	-11.0917
▁pubblicamente	-11.0919
▁squilibri	-11.0922
▁ECU	-11.0922
▁Kinnock	-11.0922
▁imposti	-11.0922
▁Hanno	-11.0926
▁agevola	-11.0927
▁permetto	-11.0928
▁direttore	-11.0929
▁date	-11.0929
▁accettabili	-11.093
form	-11.0932
▁autentico	-11.0933
▁Martin	-11.0938
▁guidare	-11.0939
▁multilaterali	-11.0942
▁matura	-11.0943
▁genocidio	-11.0945
▁muta	-11.095
▁favori	-11.0952
▁generalmente	-11.0956
sk	-11.0963
mettere	-11.0964
om	-11.0966
▁sostenuti	-11.0966
▁forum	-11.0967
▁umanitarie	-11.0967
andamento	-11.0969
▁complementari	-11.097
tano	-11.097
▁scenario	-11.0971
mine	-11.0973
▁vini	-11.0974
▁artisti	-11.0977
▁preparando	-11.0979
▁giudica	-11.0981
▁Caucaso	-11.0989
▁carburante	-11.0989
den	-11.1
▁Jugoslavia	-11.1
▁eurodeputati	-11.1
▁accoglienza	-11.1003
▁concordi	-11.1008
▁occorrerà	-11.1009
▁domina	-11.101
▁compatibile	-11.1011
▁rigorosi	-11.1011
▁statunitensi	-11.1011
▁sensazione	-11.1011
▁colpevoli	-11.1011
▁opportuna	-11.1013
▁pronunciato	-11.102
▁Wi	-11.1022
▁risparmiare	-11.1025
SE	-11.1031
▁loco	-11.1032
▁svantaggi	-11.1033
▁dirigenti	-11.1035
▁utilizzano	-11.1037
▁vergogna	-11.1044
▁lungi	-11.1044
▁pu	-11.1045
▁combatte	-11.1056
altronde	-11.1062
▁svedesi	-11.1067
▁preoccupato	-11.1075
▁ponga	-11.1078
▁finanziati	-11.1078
▁nomi	-11.1081
▁doveri	-11.1084
▁Trovo	-11.1089
▁York	-11.1089
▁associo	-11.1089
▁ambizione	-11.1092
▁nettamente	-11.1093
▁Sia	-11.1104
▁primario	-11.1106
▁avvio	-11.1108
▁ordina	-11.1108
▁condiviso	-11.1112
▁democrazie	-11.1112
▁comprendono	-11.1112
gene	-11.1121
▁classifica	-11.1124
▁giustificazione	-11.1127
▁situa	-11.1131
▁contengono	-11.1134
▁Spetta	-11.1135
▁intese	-11.1137
▁assegnato	-11.114
▁recuperare	-11.1142
▁obbligatorie	-11.1144
▁rimasta	-11.1146
▁chiamata	-11.1147
cità	-11.1155
▁licenze	-11.1157
▁realistico	-11.1158
ario	-11.1162
▁carte	-11.1163
▁offrendo	-11.1167
▁ridotte	-11.1168
rbi	-11.1172
▁tenute	-11.118
▁Nero	-11.1185
▁pensato	-11.1185
▁clienti	-11.1191
▁mera	-11.1195
▁classi	-11.1196
▁2006.	-11.1196
affa	-11.1197
ub	-11.12
▁Annunci	-11.1202
immunità	-11.1203
'8	-11.1204
▁rivelarsi	-11.1211
▁interroga	-11.1211
▁appoggiamo	-11.1212
▁chiederci	-11.1213
▁alternativi	-11.1225
▁apprezzo	-11.1225
▁novità	-11.1225
▁simbolo	-11.1225
▁descritto	-11.1226
▁compiendo	-11.123
▁esista	-11.1233
ncia	-11.1234
▁appreso	-11.1236
▁presuppone	-11.1236
mbo	-11.1241
▁costituirà	-11.1248
essa	-11.1252
▁associati	-11.1254
▁smaltimento	-11.1259
▁esponenti	-11.1261
▁Fino	-11.1262
▁formalmente	-11.1264
▁comportato	-11.1268
▁Taiwan	-11.1271
▁calcolo	-11.1271
▁partenariati	-11.1271
▁scatena	-11.1271
▁svolgendo	-11.1275
ose	-11.1276
ese	-11.1278
nk	-11.128
/99	-11.128
▁oppone	-11.1282
▁automaticamente	-11.1284
ndoci	-11.1284
▁intergovernativ	-11.1286
▁pal	-11.1294
▁riesame	-11.1301
▁Analogamente	-11.1305
▁accessibile	-11.1305
▁carcere	-11.1305
▁cosiddette	-11.1305
▁premi	-11.1306
▁soddisfatta	-11.1307
COD	-11.1307
▁apporta	-11.1308
▁inevitabile	-11.1309
▁liberazione	-11.1311
we	-11.1313
▁congiunto	-11.1317
▁Esorto	-11.1317
▁tesa	-11.1322
▁progressiva	-11.1323
▁vuoto	-11.1328
intento	-11.1329
Albania	-11.1329
entra	-11.133
▁stava	-11.1334
dica	-11.1334
alta	-11.1335
▁rendo	-11.1338
uno	-11.135
▁abbandona	-11.135
gue	-11.136
▁insistito	-11.1363
▁sleale	-11.1363
▁sottolineo	-11.1363
▁Camera	-11.1374
▁Cancelliere	-11.1374
▁tanta	-11.1376
grande	-11.1378
▁fermare	-11.1385
▁legittime	-11.1386
▁tabella	-11.1386
▁chiedersi	-11.1386
▁parlano	-11.1387
▁Alcune	-11.1397
▁Congresso	-11.1397
▁analoghe	-11.1397
▁maternità	-11.1397
▁lasciando	-11.1401
▁finali	-11.1401
let	-11.1407
▁Guinea	-11.1409
▁chiarimento	-11.1418
▁complesse	-11.1421
▁portando	-11.1423
nsibilizzazione	-11.1425
▁Visto	-11.143
▁piedi	-11.1432
▁impegna	-11.1432
▁indurre	-11.1444
▁costiere	-11.1452
▁siti	-11.1452
▁rispettate	-11.1453
▁rimborso	-11.1456
▁verrebbe	-11.1464
asse	-11.1464
▁collettivi	-11.1466
▁distruggere	-11.1476
▁conformi	-11.1478
▁sorpresa	-11.1479
▁prendiamo	-11.1479
▁ministeriale	-11.1479
▁and	-11.1482
▁collegati	-11.1484
▁attraversando	-11.1485
▁peggiori	-11.1489
elettricità	-11.1492
ula	-11.1492
▁esecutivo	-11.1496
▁pratici	-11.1502
▁ratificare	-11.1512
▁introdotte	-11.1514
▁piattaforma	-11.1514
op	-11.1515
▁spazi	-11.1516
▁unitamente	-11.1522
▁complica	-11.1525
▁troppi	-11.1526
▁crollo	-11.1526
atti	-11.1531
▁creati	-11.1534
▁sicure	-11.1537
▁terribili	-11.1538
▁dedicata	-11.1538
▁colleghe	-11.1549
▁lontani	-11.1549
▁storici	-11.1549
▁derivati	-11.155
▁95	-11.1553
▁prestazione	-11.1554
03	-11.1559
▁rettifica	-11.1561
▁affida	-11.1567
▁33	-11.1567
▁Gruppo	-11.1573
▁Ko	-11.1577
▁farebbe	-11.1582
▁taglio	-11.1584
▁ringraziarla	-11.1586
▁suggerimento	-11.1598
▁consegna	-11.1601
▁esortare	-11.1603
▁scorsi	-11.1605
▁Parigi	-11.1608
▁infantile	-11.1608
▁direi	-11.161
▁compia	-11.1611
atmosfera	-11.162
▁Nigeria	-11.162
▁conseguiti	-11.162
▁pat	-11.1621
▁interamente	-11.1627
▁Resta	-11.1628
60	-11.1629
▁filo	-11.163
ller	-11.163
▁inammissibile	-11.1632
▁comporti	-11.1633
▁soppressione	-11.1634
nari	-11.1634
▁esclusione	-11.1635
▁assicurato	-11.1635
▁articola	-11.1637
▁accadere	-11.1638
▁sancito	-11.1644
▁tessili	-11.1644
▁Kong	-11.1645
▁fungere	-11.1648
giamo	-11.1655
▁profuso	-11.1657
▁territoriali	-11.1658
▁collegamenti	-11.1659
▁sorti	-11.1659
▁sollevati	-11.1662
assegnazione	-11.1668
▁Frattini	-11.1668
▁innocenti	-11.1668
▁risolti	-11.1668
▁consumi	-11.1668
▁esistenza	-11.1673
▁guadagna	-11.1674
▁ferroviarie	-11.1675
▁semi	-11.1676
▁dirette	-11.1676
▁spreca	-11.168
▁frutta	-11.1681
▁imprenditoriale	-11.1681
▁realistica	-11.1681
▁leale	-11.1682
bor	-11.1682
▁manifestazione	-11.1686
▁grava	-11.1688
▁privo	-11.1692
erogazione	-11.1692
▁riusciamo	-11.1693
▁successivi	-11.1697
▁Milosevic	-11.1704
▁giudici	-11.1704
▁1999.	-11.1707
▁ivi	-11.1708
▁sorprendente	-11.1708
▁arricchi	-11.1708
▁Pechino	-11.1715
▁filosofia	-11.1715
▁concezione	-11.1716
▁inerenti	-11.1716
▁Hong	-11.1716
▁Alto	-11.1718
▁Ver	-11.1719
pl	-11.1725
▁ripristino	-11.1729
▁amplia	-11.1733
▁Colombia	-11.1739
▁legalmente	-11.1739
▁coinvolge	-11.1744
▁Esse	-11.1745
▁cita	-11.1748
▁2005.	-11.175
▁48	-11.1751
▁elevate	-11.1751
▁cominciato	-11.1757
▁pun	-11.1759
▁eccezionali	-11.1764
▁marino	-11.1772
▁troppe	-11.1776
▁vincoli	-11.1776
▁esagera	-11.1777
▁pen	-11.1784
▁micro	-11.1786
▁sposta	-11.1786
▁procede	-11.1789
elli	-11.1789
▁riportare	-11.1796
▁accor	-11.1798
▁madre	-11.18
▁tele	-11.1811
▁ricorre	-11.1811
▁Dovrebbe	-11.1814
▁appropriata	-11.1815
▁contribuisca	-11.182
non	-11.1821
lica	-11.1822
aborto	-11.1822
▁catture	-11.1824
▁etniche	-11.1824
▁smantellamento	-11.1824
▁svantaggiate	-11.1825
▁varietà	-11.1828
▁400	-11.1832
rme	-11.1834
▁ritira	-11.1834
▁risultano	-11.1835
▁potrei	-11.1836
indicazione	-11.1838
▁impiegare	-11.1841
▁Quel	-11.1842
▁ideale	-11.1851
▁provoca	-11.1854
▁emergenti	-11.1857
▁Vo	-11.1858
▁Frontex	-11.186
▁concordiamo	-11.1863
▁netta	-11.1869
▁appar	-11.1869
▁incentivare	-11.1871
pote	-11.1882
▁sistematica	-11.1884
▁venuto	-11.1884
▁Altri	-11.1889
gano	-11.1894
▁Eurostat	-11.1897
▁drammatica	-11.1897
▁eccessivi	-11.1898
autonomia	-11.1899
▁ESB	-11.1907
▁penalizza	-11.1907
▁Centro	-11.1909
ffo	-11.1914
ger	-11.1915
▁attualità	-11.1916
▁m	-11.1918
▁7,	-11.192
▁scarso	-11.1921
▁Ben	-11.1921
▁Spesso	-11.1921
▁renda	-11.1922
Accordo	-11.1923
▁decisiva	-11.1925
▁onere	-11.1929
▁Blair	-11.1933
▁portuali	-11.1933
adeguamento	-11.1935
▁palese	-11.1941
▁Montenegro	-11.1946
▁entrerà	-11.1946
▁mercurio	-11.1946
▁ridotti	-11.1946
▁spagnoli	-11.1946
ya	-11.195
▁riuni	-11.1952
▁Soprattutto	-11.1958
▁innovative	-11.1958
▁polacco	-11.1958
▁W	-11.1961
▁St	-11.1962
vare	-11.1965
▁provvedere	-11.1967
▁delibera	-11.1969
▁lunghe	-11.1969
▁professione	-11.197
▁alleati	-11.1975
▁spiegazione	-11.1977
▁redatto	-11.1982
▁rendersi	-11.1983
▁contrasta	-11.1986
dem	-11.1994
▁titoli	-11.1995
▁transatlantico	-11.1995
wi	-11.1999
▁solidale	-11.2003
▁proveniente	-11.2007
nse	-11.201
rk	-11.201
▁figurano	-11.201
▁migliorando	-11.2015
▁2.	-11.2015
ure	-11.2015
epidemia	-11.2019
▁significherebbe	-11.2019
▁razionale	-11.202
5-02	-11.2024
▁cristiano	-11.2025
▁formali	-11.2027
▁corte	-11.2029
▁accogliamo	-11.2032
▁produttore	-11.2032
▁accada	-11.2032
▁von	-11.2035
▁potenzialità	-11.2035
ESB	-11.2037
▁discrimina	-11.2039
ran	-11.2039
▁clonazione	-11.2044
▁medesimo	-11.2044
▁protetti	-11.2044
▁trattava	-11.2047
del	-11.2049
▁gesto	-11.2052
▁vissuto	-11.2056
▁unifica	-11.2067
▁mantenendo	-11.2069
▁rumore	-11.2069
▁danesi	-11.2069
▁speso	-11.2071
▁volo	-11.2079
▁competitivi	-11.2079
▁st	-11.208
▁Hussein	-11.2081
▁interlocutori	-11.2081
▁risalto	-11.2081
▁Tengo	-11.2082
▁certificazione	-11.2082
▁aggiunta	-11.2084
▁negoziazione	-11.2086
▁identifica	-11.2092
▁Europea	-11.211
▁constata	-11.2112
chia	-11.2117
▁sesto	-11.2126
▁scor	-11.2133
▁permettono	-11.2134
▁migliora	-11.2135
▁linguistica	-11.2143
▁riconosca	-11.2143
▁biologica	-11.2144
▁sofferma	-11.2144
▁rifiutato	-11.2145
▁collaboratori	-11.2148
▁rimpatrio	-11.2149
▁nutro	-11.2152
▁precauzione	-11.2156
▁lattiero	-11.2156
▁34	-11.2158
▁confinanti	-11.2158
▁americane	-11.2159
▁esclusiva	-11.2162
▁farò	-11.2166
▁caro	-11.2168
í	-11.2168
rov	-11.2174
▁coalizione	-11.2181
▁delusione	-11.2181
▁ufficialmente	-11.2181
▁pretendere	-11.2182
▁aggiuntivi	-11.2182
▁corretti	-11.2183
▁veto	-11.2184
▁arrivati	-11.2187
▁facilita	-11.2187
▁Ge	-11.2189
▁esigenza	-11.219
▁Ni	-11.2191
▁attacca	-11.2201
▁ELDR	-11.2206
▁rilancio	-11.2206
▁stoccaggio	-11.2206
▁tonno	-11.2206
▁forniture	-11.2207
▁subiscono	-11.2207
▁entrato	-11.2208
▁andrebbero	-11.2213
▁dimostri	-11.2215
elezione	-11.2218
▁autobus	-11.2219
▁assicurazione	-11.222
seri	-11.2223
▁significative	-11.2225
▁Euro	-11.2225
▁capitoli	-11.2226
▁consultato	-11.2229
▁riduce	-11.223
▁Washington	-11.2231
▁elettroniche	-11.2231
▁2015	-11.2233
▁precedentemente	-11.2238
▁cancella	-11.2238
▁ripete	-11.2241
▁fabbisogno	-11.2244
▁linguaggio	-11.2246
▁consulenza	-11.2256
CNS	-11.2257
▁stile	-11.2257
▁Né	-11.2257
rse	-11.2261
▁ferroviaria	-11.2265
▁digitali	-11.2266
▁neo	-11.2266
▁immagini	-11.2269
▁rinnovo	-11.2269
▁preadesione	-11.2269
▁Anzi	-11.2276
▁hoc	-11.2277
son	-11.2277
Occidente	-11.2282
▁richiesti	-11.2282
▁sorte	-11.2282
25	-11.2287
▁emana	-11.2292
▁dominio	-11.2294
▁presidenziali	-11.2294
▁proporzioni	-11.2294
▁abbatt	-11.2295
▁compagnia	-11.2297
▁Dichiarazione	-11.2297
▁rafforzando	-11.2299
▁diffondere	-11.2302
▁cantieri	-11.2307
▁stretti	-11.2307
▁avanza	-11.2309
▁varia	-11.2309
pat	-11.2318
▁vere	-11.2319
▁42	-11.2319
▁adulti	-11.232
▁diffuso	-11.232
12	-11.2324
▁fissazione	-11.2324
▁squadra	-11.2333
▁condotti	-11.2333
▁proponendo	-11.2335
▁insegnanti	-11.2336
▁ripetersi	-11.2337
▁permetterci	-11.2342
▁impiega	-11.2345
▁urbane	-11.2345
line	-11.2346
▁vivi	-11.2353
▁combina	-11.2356
▁Darfur	-11.2358
▁sindacali	-11.2358
▁sospetto	-11.2358
▁uniti	-11.2359
▁incorpora	-11.2359
▁armati	-11.2368
▁sedute	-11.2371
▁SIS	-11.2372
▁attribuita	-11.2372
▁mirate	-11.2372
▁verificarsi	-11.2373
▁transitorio	-11.2376
abbiamo	-11.2376
▁assiste	-11.2393
▁verificano	-11.2395
K	-11.2396
▁numeri	-11.2396
▁spettro	-11.2396
▁registrano	-11.2399
▁corsi	-11.2404
▁getta	-11.2408
▁concorrenti	-11.2409
incidente	-11.2414
▁basati	-11.2419
▁regolamenta	-11.242
▁italiani	-11.2422
▁sufficienza	-11.2422
▁firmare	-11.2423
▁riconoscendo	-11.2423
▁rinuncia	-11.2428
▁pongono	-11.2429
▁prepara	-11.2429
▁blocca	-11.2433
▁approfitt	-11.2434
▁risale	-11.2436
▁vicina	-11.2447
▁idriche	-11.2448
▁esclude	-11.2448
▁patria	-11.2449
▁causare	-11.2452
zo	-11.2455
▁sappia	-11.2455
▁esporre	-11.2457
▁nasconde	-11.2458
▁cambi	-11.2469
▁garantiti	-11.247
▁autoveicoli	-11.2474
▁trasmesso	-11.2474
▁rotta	-11.2474
odierna	-11.2477
▁vorrebbero	-11.2479
▁scoprire	-11.248
▁innovativi	-11.2487
▁collegio	-11.2491
▁uguaglianza	-11.2494
▁superficie	-11.2503
▁permettano	-11.2503
▁individua	-11.2507
▁svolga	-11.2509
▁Rom	-11.251
▁150	-11.2511
▁Swoboda	-11.2512
▁retribuzioni	-11.2512
▁ostacolare	-11.2513
▁bando	-11.2517
▁effettuata	-11.2519
▁inequivocabile	-11.2525
▁residenza	-11.2525
▁turchi	-11.2525
▁affidabile	-11.2527
▁Mu	-11.2527
▁investito	-11.2529
▁rivolgersi	-11.253
Aia	-11.2534
▁vivo	-11.2535
▁raccolto	-11.2538
▁privi	-11.2538
▁prospetta	-11.2539
▁pronunciarsi	-11.2542
▁ammonta	-11.2547
▁portano	-11.2551
▁merluzzo	-11.2551
tezza	-11.2555
▁controversia	-11.2555
▁man	-11.2557
rda	-11.2558
▁riesco	-11.2561
ier	-11.2567
Anno	-11.2568
▁Egitto	-11.2568
oglie	-11.2574
▁intensifica	-11.2576
▁analoghi	-11.2577
▁criminale	-11.2577
▁esplicito	-11.2591
▁Seconda	-11.2591
▁risulti	-11.2591
▁rendiamo	-11.2591
▁entri	-11.2595
▁DG	-11.2599
versificazione	-11.2603
▁produzioni	-11.2604
▁Sch	-11.2604
ai	-11.2605
▁qualificati	-11.2607
▁elimina	-11.261
▁compatibili	-11.2615
▁conoscono	-11.2617
etti	-11.2618
▁vigilia	-11.2622
▁costringe	-11.2623
▁assicurarci	-11.2623
▁esamina	-11.2628
▁esportazione	-11.263
▁cosicché	-11.263
▁uguali	-11.263
▁Molto	-11.263
▁rese	-11.2633
terà	-11.2641
ffe	-11.2642
▁prostituzione	-11.2643
▁opporsi	-11.2643
▁effettuate	-11.265
▁professioni	-11.2653
▁trascurare	-11.2654
▁combustibile	-11.2656
▁definizioni	-11.2656
▁settimo	-11.2656
▁originaria	-11.2656
▁tempestivamente	-11.266
▁generare	-11.2661
▁sessi	-11.2666
ndomi	-11.2669
▁comunica	-11.2672
imminente	-11.2673
▁saprà	-11.2682
▁cielo	-11.2683
▁chiuso	-11.2692
rta	-11.2693
▁giurisprudenza	-11.2696
▁saper	-11.2698
▁giudiziari	-11.2707
▁avverti	-11.2707
▁Barnier	-11.2709
▁fretta	-11.2709
▁pietra	-11.2709
▁confronta	-11.2715
▁desta	-11.2721
▁rispettino	-11.2721
▁tossicodipenden	-11.2722
▁diplomazia	-11.2722
▁Mosca	-11.2723
▁perfino	-11.2724
▁segnalato	-11.2725
▁verificati	-11.2726
▁legalità	-11.2726
▁avvalersi	-11.2737
▁discuterne	-11.2738
▁55	-11.2742
▁rimanga	-11.2747
▁REACH	-11.2749
▁carriera	-11.2749
▁smettere	-11.275
▁III	-11.2751
hu	-11.2751
▁registrare	-11.2755
▁sottolineando	-11.2759
▁chilometri	-11.2762
▁distanze	-11.2762
▁consultare	-11.2762
▁garantirà	-11.2769
▁provengono	-11.2773
▁nominale	-11.2774
▁previsione	-11.2775
int	-11.2775
▁delega	-11.2775
▁episodi	-11.2777
incremento	-11.2779
ndoli	-11.278
aeroporto	-11.2788
▁affermano	-11.2793
▁ridur	-11.2793
▁continuino	-11.2794
▁introdotta	-11.2802
▁istanze	-11.2802
▁verdi	-11.2803
DA	-11.2804
▁ottimi	-11.2814
▁8,	-11.2814
▁peggiora	-11.2815
▁avessimo	-11.2816
▁incontrare	-11.2818
zie	-11.282
▁meta	-11.2821
▁attenti	-11.2824
▁quotidiano	-11.2828
4-00	-11.2829
▁grati	-11.2829
▁socialismo	-11.2834
▁ponendo	-11.2834
▁gi	-11.2835
▁voleva	-11.2836
rate	-11.284
▁opposto	-11.2842
▁Michel	-11.2843
▁consegue	-11.2848
▁ministero	-11.2855
▁parzialmente	-11.2855
▁legiferare	-11.2855
▁reciprocità	-11.2856
▁mar	-11.2863
▁salvaguarda	-11.2864
▁persiste	-11.2866
▁svantaggio	-11.2867
▁auspicio	-11.2868
▁olandesi	-11.2869
▁distinguere	-11.2873
▁Göteborg	-11.2882
▁arresti	-11.2882
▁scomparsa	-11.2882
▁dipenderà	-11.2884
▁sezione	-11.2888
▁creatività	-11.2896
▁suggerisce	-11.2896
▁stimolo	-11.2896
endiamo	-11.2897
▁debolezza	-11.2898
allevamento	-11.29
▁Poettering	-11.2909
▁autorizzati	-11.2911
▁statistici	-11.2918
▁Hu	-11.2919
▁ittiche	-11.2923
▁ascolto	-11.2927
▁Però	-11.2928
stu	-11.2929
▁65	-11.2936
mica	-11.294
▁avessero	-11.2944
▁Mugabe	-11.295
▁pertinente	-11.295
▁indebolire	-11.2953
▁mirata	-11.2953
▁devasta	-11.2957
▁Bar	-11.2958
▁caratterizzata	-11.2959
▁impongono	-11.2963
▁agevole	-11.2963
▁attenta	-11.2976
▁Vietnam	-11.2977
▁autovetture	-11.2977
▁giurisdizione	-11.2977
▁disciplinare	-11.2978
▁operative	-11.2979
▁dimostrando	-11.2982
tter	-11.2989
▁perplessità	-11.299
▁teoria	-11.299
▁chiuse	-11.299
▁Tu	-11.299
▁38	-11.3003
▁dispositivi	-11.3004
▁eccellenti	-11.3004
▁imprescindibile	-11.3004
▁caduta	-11.3004
/2006	-11.3004
▁ecc	-11.3008
▁consolida	-11.301
▁detti	-11.3012
▁soffrono	-11.3018
▁usa	-11.3018
▁pensano	-11.302
duca	-11.3025
▁vanta	-11.3029
ssione	-11.3029
▁disavanzo	-11.3031
▁iracheno	-11.3031
▁portoghesi	-11.3031
▁transnazionale	-11.3031
▁visibilità	-11.3032
▁forestale	-11.3033
▁dettagliate	-11.3033
5/	-11.3036
▁unici	-11.3038
▁notte	-11.3039
elle	-11.3043
▁moderni	-11.3043
▁astenuto	-11.3045
▁dotata	-11.3045
▁diplomatici	-11.3045
▁corrette	-11.3045
▁tengono	-11.3046
ipotesi	-11.305
▁qua	-11.3057
▁dette	-11.3065
▁concludo	-11.3072
▁esemplare	-11.3072
▁decisi	-11.3074
▁UEN	-11.3082
abile	-11.3085
▁giunga	-11.3086
▁permanenti	-11.3087
▁aspira	-11.3088
▁introducendo	-11.3089
▁trattate	-11.309
▁assicurando	-11.3091
▁gioca	-11.3095
▁Insieme	-11.31
▁circoscrizione	-11.31
▁statale	-11.3104
assunzione	-11.3105
▁criticare	-11.3112
▁introdotti	-11.3113
▁lussemburghese	-11.3113
▁sottoposte	-11.3113
▁proteste	-11.3113
▁emergere	-11.3113
linea	-11.3114
▁propaganda	-11.3114
▁recarsi	-11.3115
▁affronti	-11.3116
▁contraffazione	-11.3116
▁debitamente	-11.3117
▁adotti	-11.3123
▁contabile	-11.3132
esenzione	-11.3132
▁2003.	-11.3138
▁viviamo	-11.3138
▁favorisce	-11.3142
▁rilanciare	-11.3146
▁operazione	-11.3147
▁erogati	-11.3149
▁lezioni	-11.3152
▁rive	-11.3156
▁assicurazioni	-11.3161
▁adempiere	-11.3169
▁appartiene	-11.3169
▁bestiame	-11.3169
ennesima	-11.3169
▁vettori	-11.3169
▁nasce	-11.3174
▁esprimendo	-11.3179
▁venir	-11.318
▁utilità	-11.3181
▁assistiamo	-11.3182
▁conferito	-11.3182
▁blu	-11.3184
bol	-11.3186
▁solido	-11.3187
▁commentare	-11.319
▁circo	-11.3192
▁fondamenta	-11.3192
▁gestito	-11.3194
▁Laeken	-11.3196
▁consultivo	-11.3196
▁assicuri	-11.3196
▁Qualsiasi	-11.321
▁sentimenti	-11.321
▁contenga	-11.321
▁speculazione	-11.3212
▁severa	-11.3212
▁attribuito	-11.3213
edilizia	-11.3214
▁massimale	-11.3218
▁sembrare	-11.3219
▁qualifica	-11.3219
ngono	-11.3222
▁estesa	-11.3225
▁medica	-11.3228
leg	-11.3229
▁incoraggiante	-11.3232
▁iniziali	-11.3233
▁...	-11.3235
▁riprese	-11.3237
▁Palacio	-11.3238
▁sforza	-11.3238
▁proceda	-11.3238
▁proporzionalità	-11.3238
▁compensare	-11.3238
▁abitua	-11.3241
▁motori	-11.3244
▁menzionati	-11.3247
avv	-11.3248
▁sviluppate	-11.3248
▁chimici	-11.3252
▁disuguaglianze	-11.3252
▁Altrimenti	-11.3253
▁classificazione	-11.3256
▁interessata	-11.3257
eccezione	-11.3258
▁trasforma	-11.3259
▁autonoma	-11.3261
▁indirizza	-11.3263
▁Bolkestein	-11.3266
▁ispettori	-11.3266
▁concerto	-11.3266
▁concessa	-11.3266
▁quarta	-11.3266
▁temporaneo	-11.327
▁ospita	-11.3276
▁anticipare	-11.328
▁demografico	-11.328
▁innovazioni	-11.328
▁lobby	-11.328
▁risolta	-11.328
▁mobilitare	-11.3281
▁apre	-11.3281
appalto	-11.3282
▁indirettamente	-11.3283
ung	-11.3287
▁condividono	-11.3292
▁prendono	-11.3295
▁esercitato	-11.3296
▁occupando	-11.3298
ö	-11.3308
▁portavoce	-11.3308
▁divisioni	-11.3308
▁contabili	-11.3311
▁viva	-11.3315
▁43	-11.3318
ment	-11.3322
▁collettivo	-11.3322
▁islamico	-11.3322
▁faceva	-11.3324
▁Haiti	-11.3324
logico	-11.3332
▁vendere	-11.3332
▁tollerare	-11.3334
▁segreti	-11.3336
▁radici	-11.3337
▁Roth	-11.335
▁mille	-11.3354
▁preoccupata	-11.3358
▁perseguita	-11.3359
▁149	-11.3363
▁prenderà	-11.3363
▁Sto	-11.3363
▁opportune	-11.3364
▁orizzontale	-11.3364
▁spaziale	-11.3365
esso	-11.3372
▁deputata	-11.3378
▁impediscono	-11.3378
▁mentalità	-11.3379
▁nascondere	-11.3381
bro	-11.3382
nate	-11.339
▁ampi	-11.3392
▁Crediamo	-11.3393
▁valutato	-11.3403
▁musulmani	-11.3407
▁mirato	-11.3407
ug	-11.3409
▁intervenuto	-11.3421
4-01	-11.3421
idi	-11.3424
▁ammette	-11.3429
▁derivante	-11.343
▁raddoppi	-11.3434
unificazione	-11.3435
▁influenzare	-11.3435
▁incaricato	-11.3435
▁soggette	-11.3435
▁sussistono	-11.3435
▁Dove	-11.3436
▁mediterranea	-11.3436
▁accompagnato	-11.3436
alleanza	-11.3438
▁terroristiche	-11.3439
▁dramma	-11.3447
▁recepi	-11.3448
▁parecchi	-11.3448
▁illegalmente	-11.3449
▁nero	-11.3449
▁fusione	-11.3451
▁cedere	-11.3453
▁asser	-11.3456
ts	-11.346
▁occupato	-11.3461
▁sostenga	-11.3462
▁consentiranno	-11.3465
em	-11.3472
▁avanzati	-11.3476
▁prossimità	-11.3477
▁domando	-11.3478
▁quesito	-11.3478
▁ittici	-11.3478
▁preparati	-11.348
▁-(	-11.3481
Democratici	-11.3484
▁estensione	-11.3484
▁sbaglia	-11.3488
▁sviluppando	-11.3489
▁para	-11.349
▁Tre	-11.3491
▁Cotonou	-11.3492
▁PHARE	-11.3492
▁contingenti	-11.3492
▁sostenute	-11.3492
▁consentitemi	-11.3493
▁tese	-11.35
Esecutivo	-11.3506
▁quantitativi	-11.3506
opzione	-11.3517
▁vol	-11.3517
▁Devono	-11.3519
▁medesima	-11.3521
▁reattori	-11.3521
▁stregua	-11.3521
▁ungheresi	-11.3521
nder	-11.3522
▁moltissimo	-11.3524
tratta	-11.3527
▁procedurali	-11.353
▁incrementa	-11.3532
ot	-11.3534
▁gesti	-11.3535
▁retorica	-11.3535
▁fuor	-11.3536
▁mutamenti	-11.3536
▁ferroviari	-11.3538
▁stimola	-11.3539
▁vecchie	-11.3543
▁complimenti	-11.3549
▁attento	-11.3552
▁alcol	-11.3553
▁sopravvivere	-11.3563
▁siccità	-11.3564
▁tappa	-11.3565
ndola	-11.3568
04	-11.357
▁secoli	-11.3575
▁geografiche	-11.3578
▁imparato	-11.3578
▁russe	-11.3578
▁gettare	-11.3584
uda	-11.3584
▁collaborato	-11.359
▁periferiche	-11.3593
▁sfollati	-11.3593
▁largo	-11.3594
▁sottoscrivere	-11.3595
▁obbligati	-11.3599
autentica	-11.3599
associazione	-11.3599
▁limiterò	-11.36
▁Lu	-11.3601
zzerà	-11.3605
▁Accogliamo	-11.3607
▁avverrà	-11.3607
anche	-11.361
▁armate	-11.3618
SI	-11.3618
▁2002.	-11.362
▁garantiscano	-11.3621
▁MEDA	-11.3622
▁elettriche	-11.3622
▁preferenza	-11.3622
▁lontana	-11.3622
▁giudice	-11.3622
▁abuso	-11.3626
▁pronuncia	-11.3634
▁marchi	-11.3648
Islanda	-11.3651
▁irresponsabile	-11.3651
autodetermina	-11.3651
▁grata	-11.3651
▁eliminazione	-11.3659
▁martedì	-11.3665
▁Ki	-11.3668
▁superamento	-11.3669
▁rifiutare	-11.3682
▁giu	-11.3682
▁estremo	-11.3683
▁appartengono	-11.3688
▁Fo	-11.3689
min	-11.3694
▁difficilmente	-11.3694
▁strategiche	-11.3694
▁analogo	-11.3694
▁offerti	-11.3694
▁rec	-11.3699
ton	-11.3701
▁quotidianamente	-11.3703
mato	-11.3704
▁tempestiva	-11.3704
▁estremisti	-11.3705
ndolo	-11.3705
▁ammissibile	-11.3709
▁demografica	-11.3709
▁laburista	-11.3709
▁coordinato	-11.3709
▁lancio	-11.3709
▁1991	-11.3709
▁intento	-11.3709
▁ingresso	-11.371
▁mosse	-11.372
▁anima	-11.3721
°	-11.3722
▁svolti	-11.3724
▁Putin	-11.3724
▁potete	-11.3724
▁caratterizza	-11.3727
dano	-11.3735
▁contrariamente	-11.3735
▁ECHO	-11.3738
▁incomprensibile	-11.3738
▁felici	-11.3738
▁Bene	-11.3741
▁assuma	-11.3751
▁risparmia	-11.3752
▁coltivatori	-11.3754
▁approfittare	-11.3754
▁trovino	-11.376
▁condannati	-11.376
industrializzati	-11.3766
abbigliamento	-11.3768
▁Considerando	-11.3768
▁convenuto	-11.3768
▁addetti	-11.3768
rdo	-11.3776
▁comprenda	-11.3781
▁conferenze	-11.3782
▁rimarrà	-11.3782
▁sofferenza	-11.3782
▁procura	-11.3783
▁spinta	-11.3783
▁quante	-11.379
ete	-11.3791
▁serva	-11.3796
aliquota	-11.3797
▁Sicuramente	-11.3797
▁austriaco	-11.3797
▁tragica	-11.3797
▁diplomatica	-11.3797
UN	-11.3803
▁toglie	-11.3807
▁provenienza	-11.3812
▁professor	-11.3812
▁uniformi	-11.3814
ill	-11.3816
van	-11.3817
affari	-11.3817
▁por	-11.3819
▁criticato	-11.382
▁arma	-11.3823
▁oratore	-11.3824
▁escluso	-11.3826
▁produttivo	-11.3826
▁scoperto	-11.3826
▁scontri	-11.3826
▁Dovremo	-11.3828
▁sovrano	-11.3828
▁interessano	-11.3828
▁propongono	-11.3836
▁veder	-11.384
▁scarica	-11.3842
fra	-11.3847
estrema	-11.3849
▁promuova	-11.3856
▁Jean	-11.3856
▁accadrà	-11.3856
▁mentale	-11.3856
▁collabora	-11.3856
▁sott	-11.3857
▁spingere	-11.3858
▁adeguarsi	-11.3858
▁eque	-11.386
gri	-11.3864
▁prigioni	-11.387
▁Malgrado	-11.3871
▁istanza	-11.3878
▁orienta	-11.3878
▁spesi	-11.3881
▁condivisi	-11.3884
▁elettricità	-11.3885
▁attenersi	-11.3886
▁distorsione	-11.3886
4-02	-11.3886
assicurazione	-11.3889
▁sogno	-11.3891
▁ricordarvi	-11.3891
▁ristabilire	-11.3893
▁ideali	-11.3894
ren	-11.3896
▁predisporre	-11.3901
▁sapendo	-11.3901
▁garantiscono	-11.3901
▁sfuggire	-11.3902
▁dotati	-11.3902
▁pensi	-11.3903
▁approcci	-11.3904
▁142	-11.391
▁traccia	-11.3913
izzazione	-11.3913
▁determina	-11.3914
▁ambiguità	-11.3919
▁settoriali	-11.3922
▁unire	-11.3922
▁reputa	-11.3927
▁Norvegia	-11.393
▁carburanti	-11.393
▁vertici	-11.3931
▁teso	-11.3933
logi	-11.3934
▁insegnamento	-11.3937
acce	-11.3939
▁apparentemente	-11.3945
▁corridoi	-11.3945
▁virus	-11.3945
▁madri	-11.3946
▁acquisito	-11.3946
▁impress	-11.395
▁attraversa	-11.3957
▁ammesso	-11.396
▁convinzioni	-11.396
▁conferisce	-11.396
▁visite	-11.3961
▁arrivi	-11.3963
▁ottimale	-11.3967
▁Ti	-11.3968
Qu	-11.397
▁cessare	-11.397
▁occupi	-11.3973
▁interrotta	-11.3975
▁emerse	-11.3976
▁associa	-11.3985
▁congiuntura	-11.399
▁epizootica	-11.399
▁ribadisce	-11.399
vers	-11.3992
porta	-11.3993
▁incentivo	-11.3994
▁fornirà	-11.3996
ros	-11.3997
▁colpita	-11.4
▁equi	-11.4
▁mediazione	-11.4002
▁indennità	-11.4002
▁vivendo	-11.4002
▁ospedali	-11.4005
▁nozione	-11.4014
▁muoiono	-11.4021
▁dotato	-11.4022
▁teme	-11.4028
▁prolunga	-11.4032
▁baltici	-11.4036
▁prerogative	-11.4036
▁radicalmente	-11.4036
▁1989	-11.4036
▁Commissaria	-11.4037
▁diventano	-11.4037
▁lasciano	-11.4039
▁stabilimento	-11.4039
▁successive	-11.404
▁facili	-11.4045
▁occuparci	-11.4046
uromediterranea	-11.4047
▁urbani	-11.4049
▁tengano	-11.4052
▁autonomamente	-11.4056
▁strano	-11.4058
dy	-11.4058
▁sente	-11.4059
▁formare	-11.4063
▁sostene	-11.4068
▁capita	-11.4072
▁ricorrendo	-11.4076
▁tensione	-11.4081
▁terrore	-11.4081
▁firme	-11.4081
▁segua	-11.4091
/2003	-11.4091
▁impressione	-11.4092
▁sigarette	-11.4096
▁miseria	-11.4096
▁diventati	-11.4098
▁congela	-11.4098
▁aziendali	-11.4099
▁credono	-11.4104
▁farne	-11.4104
vere	-11.4105
▁piace	-11.4108
▁rispettando	-11.4108
▁frammenta	-11.4108
▁Cancún	-11.4111
▁disponga	-11.4111
▁oppositori	-11.4111
▁autonomo	-11.4111
▁morali	-11.4112
▁permettendo	-11.4113
▁accorda	-11.4114
▁incide	-11.4118
gato	-11.412
esse	-11.4125
▁bel	-11.4125
▁innumerevoli	-11.4127
▁indirizzi	-11.4127
▁andranno	-11.413
▁sviluppa	-11.4134
▁arrivato	-11.4135
▁esenzione	-11.4136
▁riesaminare	-11.4137
▁arabi	-11.4137
▁belli	-11.4138
▁impiegato	-11.4141
▁combinazione	-11.4146
▁mostrano	-11.4146
▁palesemente	-11.4147
mettiamo	-11.415
▁solide	-11.415
rim	-11.4152
attivo	-11.4154
▁Dichiaro	-11.4157
▁contaminazione	-11.4157
▁incarico	-11.4158
▁cadere	-11.4161
▁moderno	-11.4172
▁ricon	-11.4174
missione	-11.4178
▁epoca	-11.418
▁prendo	-11.4188
▁soffoca	-11.4188
▁permettetemi	-11.4188
▁turche	-11.4188
▁vige	-11.4188
▁crei	-11.419
▁commissari	-11.4192
▁nata	-11.4192
ufficio	-11.4196
▁avvicinare	-11.4197
▁genetica	-11.4199
rsene	-11.4202
▁conosco	-11.4203
ristrutturazioni	-11.4203
▁For	-11.4206
etica	-11.421
▁rimettere	-11.4216
▁Danubio	-11.4218
▁volontariato	-11.4222
▁serbi	-11.4227
mita	-11.423
▁richiederà	-11.4231
▁reagito	-11.4234
▁omosessuali	-11.4235
▁libri	-11.4236
stante	-11.4239
uscita	-11.424
▁sollecitare	-11.4247
▁prodotte	-11.4249
▁declino	-11.4249
▁arabo	-11.4249
▁interpreta	-11.425
▁separate	-11.4259
▁Ribadisco	-11.4265
▁scontra	-11.4265
▁divenire	-11.4265
▁burocratico	-11.4266
▁affidabilità	-11.4267
▁dirige	-11.4275
ib	-11.4278
▁comprendo	-11.428
▁buono	-11.428
▁ambienti	-11.428
▁raggiunta	-11.428
▁offra	-11.4281
▁chiedeva	-11.4284
▁dure	-11.4285
▁difensori	-11.4296
▁intelligenti	-11.4296
▁proviene	-11.4296
▁premesse	-11.4296
▁funzionante	-11.4307
▁iscritti	-11.431
▁stamattina	-11.4311
▁sensibilmente	-11.4312
zzando	-11.4315
▁pubblicata	-11.4321
▁pensando	-11.4326
▁albanesi	-11.4327
▁avvocati	-11.4327
▁bovini	-11.4327
▁coinvolta	-11.4327
▁potabile	-11.4327
▁compatibilità	-11.4329
mare	-11.4332
▁medicina	-11.4334
europei	-11.4336
▁irre	-11.4342
▁religiosi	-11.4342
▁corsa	-11.4348
▁Av	-11.4355
ioni	-11.4356
▁Moldova	-11.4358
▁pagine	-11.4358
▁decise	-11.4358
▁affermi	-11.4358
▁appropriate	-11.4358
▁convince	-11.4364
▁spiegazioni	-11.4364
infrastruttura	-11.4366
usa	-11.4369
▁Watson	-11.4373
▁discusse	-11.4373
▁pagina	-11.4373
▁liste	-11.4374
▁carni	-11.4379
bre	-11.4387
▁visitato	-11.4387
▁Posselt	-11.4389
▁autorizzare	-11.439
erei	-11.4393
▁applicazioni	-11.4397
▁Albania	-11.4404
▁Golfo	-11.4405
▁Sarkozy	-11.4405
▁precoce	-11.4405
▁valutando	-11.4409
▁avviati	-11.4414
messa	-11.4415
▁El	-11.4415
alcol	-11.4416
▁rivolti	-11.442
▁suddetti	-11.442
▁assegnati	-11.4421
▁guidato	-11.4421
▁indicazione	-11.4429
nes	-11.4432
▁preserva	-11.4434
▁sottovaluta	-11.4434
▁legittimi	-11.4434
▁Hamas	-11.4436
▁Passiamo	-11.4436
▁redazione	-11.4436
▁universitari	-11.4436
OIL	-11.4436
▁pagato	-11.4438
utilità	-11.4439
▁indotto	-11.4441
ficazione	-11.4441
▁tetto	-11.4456
posizione	-11.4458
▁vigili	-11.4461
▁tira	-11.4462
▁simboli	-11.4463
▁prioritarie	-11.4465
▁volentieri	-11.4467
cente	-11.4468
▁macchina	-11.4468
▁ricordando	-11.4471
dente	-11.4476
▁esportare	-11.448
▁Confido	-11.4483
▁Programma	-11.4483
▁frequenza	-11.4483
▁pacifico	-11.4483
▁soddisfacenti	-11.4483
▁curdi	-11.4484
▁Est	-11.4486
▁prevedeva	-11.4487
IC	-11.449
▁An	-11.449
▁accumula	-11.4491
▁additivi	-11.4499
▁mirati	-11.45
▁trattata	-11.4501
▁riportato	-11.4501
bal	-11.4508
▁basse	-11.4514
▁moderne	-11.4515
ideologia	-11.4515
▁mediche	-11.4516
▁attesta	-11.4516
▁espansione	-11.4517
▁varare	-11.452
▁accertare	-11.4525
▁immagina	-11.4529
▁avvenuta	-11.4531
▁montagna	-11.4531
▁libro	-11.4532
▁compiace	-11.4532
06	-11.454
▁autorizzato	-11.4542
▁produttivi	-11.4545
▁citata	-11.4546
▁esposte	-11.4547
▁francamente	-11.4547
▁potente	-11.4547
▁malati	-11.455
incidenza	-11.455
▁ECOFIN	-11.4551
▁corrispondente	-11.4554
▁avviate	-11.4555
▁Wallström	-11.4562
▁paziente	-11.4562
▁fondate	-11.4564
▁doveroso	-11.4564
ppia	-11.4564
▁autorizzazioni	-11.4565
▁temere	-11.4565
▁svilupparsi	-11.4566
▁tratterà	-11.4568
▁potessero	-11.4571
▁congratula	-11.4572
2010	-11.4574
▁bisognerebbe	-11.4578
▁millennio	-11.4578
▁provincia	-11.4578
▁aggiornare	-11.4578
▁complicato	-11.4579
▁piacerebbe	-11.4584
14	-11.4586
▁circolare	-11.4587
▁orario	-11.4592
rs	-11.4594
▁Mercosur	-11.4594
▁aumenterà	-11.4594
▁conosciuto	-11.4594
▁popolari	-11.4594
▁promosso	-11.4594
▁esercitata	-11.4594
▁affidato	-11.4595
▁semplifica	-11.4602
▁Sahara	-11.461
▁petizione	-11.461
▁avermi	-11.4621
▁rispettata	-11.4622
▁Fu	-11.4624
▁Jarzembowski	-11.4626
▁negato	-11.4627
▁importati	-11.4629
▁allegato	-11.463
▁bella	-11.4632
individuazione	-11.4638
▁persecuzione	-11.4642
▁tecnologici	-11.4642
▁sperimentazione	-11.4646
▁volere	-11.4648
▁riferiscono	-11.4657
▁suggerire	-11.466
▁precari	-11.466
▁riguardava	-11.4662
▁esistano	-11.4665
▁orientata	-11.467
▁debiti	-11.4674
▁inserita	-11.4675
▁Avrei	-11.4675
▁realizzata	-11.4677
▁pian	-11.4678
▁attivisti	-11.4679
▁cancellare	-11.4681
▁assicurarsi	-11.4687
tività	-11.4688
▁alcuno	-11.469
▁prudenza	-11.4691
▁titolari	-11.4691
▁fallito	-11.4691
▁andando	-11.4692
▁annuncia	-11.4696
90	-11.4699
fre	-11.4701
▁sfo	-11.4705
▁contraddizioni	-11.4707
▁diagnosi	-11.4707
▁pulita	-11.4707
▁basano	-11.4708
▁etichetta	-11.471
▁copre	-11.4711
▁continue	-11.4715
affrontare	-11.4717
▁telefoni	-11.4719
▁coincide	-11.472
▁Rispetto	-11.4723
▁marittime	-11.4723
▁Presidenti	-11.4723
▁designato	-11.4723
▁pregiudizi	-11.4728
▁funzionato	-11.4731
ens	-11.4731
▁precisato	-11.4736
▁Statuto	-11.4739
▁discapito	-11.4739
▁preferire	-11.4739
▁computer	-11.4739
▁Natura	-11.4739
▁ricava	-11.474
▁accompagnata	-11.4742
▁adoperarci	-11.4743
arma	-11.4746
▁sano	-11.4746
▁suggeri	-11.4747
▁assolvere	-11.4748
▁vincola	-11.4754
▁scontato	-11.4755
▁interinale	-11.4755
▁divide	-11.4757
▁intenso	-11.4759
▁oggetti	-11.476
▁apportato	-11.476
▁foto	-11.4761
45	-11.4763
▁accettata	-11.477
▁giovanile	-11.477
▁agenzia	-11.477
▁taglia	-11.477
▁riconosciamo	-11.4771
▁ansia	-11.4772
▁mirare	-11.4776
▁orali	-11.4779
ù	-11.4784
ndole	-11.4786
07	-11.4788
▁ecosistemi	-11.4788
▁esecuzioni	-11.4788
▁Sal	-11.4788
▁adatto	-11.479
▁fissate	-11.479
out	-11.479
▁interferire	-11.4797
▁intollerabile	-11.4804
▁privacy	-11.4804
▁visibile	-11.4804
▁consideri	-11.4806
▁Qualora	-11.4806
▁costituirebbe	-11.4807
▁estremi	-11.4809
▁tutelati	-11.4818
▁44	-11.4819
▁Cambogia	-11.482
▁Probabilmente	-11.482
▁blocchi	-11.482
▁aiuterà	-11.482
▁trent	-11.4821
▁fronteggiare	-11.4822
▁piante	-11.4826
▁prefigge	-11.4837
▁ricco	-11.4837
▁scandaloso	-11.484
▁Agenzia	-11.485
▁proficua	-11.4853
▁Dalla	-11.4857
ottobre	-11.4863
▁v	-11.4864
Inghilterra	-11.4869
▁Affinché	-11.4869
▁Concludendo	-11.4869
▁configura	-11.4869
▁uguale	-11.4869
▁socio	-11.4876
coltura	-11.4883
▁privilegi	-11.4884
▁tubercolosi	-11.4886
▁Natale	-11.4886
▁applichi	-11.4886
▁dittatori	-11.4886
▁cancellazione	-11.4891
▁morta	-11.4892
ammodernamento	-11.4894
▁Sh	-11.4894
▁interrompere	-11.4898
▁individuato	-11.4901
▁immunità	-11.4902
▁transatlantiche	-11.4902
▁urbana	-11.4902
▁fossili	-11.4904
▁distinti	-11.4904
▁potenzia	-11.4907
▁portati	-11.4909
▁spar	-11.4913
▁paragona	-11.4917
▁bevande	-11.4919
▁dispositivo	-11.4919
▁pazienza	-11.4919
▁furono	-11.492
▁opportunamente	-11.4925
ASEAN	-11.4935
▁prive	-11.4935
▁autunno	-11.4936
oggetto	-11.4943
zionale	-11.4946
▁scia	-11.4949
▁dotarsi	-11.4952
▁ecologici	-11.4952
▁emersi	-11.4954
▁banda	-11.4955
▁unanimità	-11.4957
auspicio	-11.4963
▁sentir	-11.4963
▁assegnare	-11.4965
▁etica	-11.4967
▁organizza	-11.4969
▁giusti	-11.4969
ssioni	-11.4974
▁lavoratore	-11.4975
▁X	-11.4977
organo	-11.4985
▁allarme	-11.4985
▁audizioni	-11.4985
▁diventino	-11.4997
▁usate	-11.4998
▁viaggiare	-11.4999
▁commesse	-11.5002
▁raccolti	-11.5002
▁leggermente	-11.5002
▁durevole	-11.5002
▁Dov	-11.5005
eventualità	-11.5012
RE	-11.5016
AR	-11.5017
▁the	-11.5018
▁distribuito	-11.5018
▁destabilizza	-11.5019
▁sospetta	-11.5019
▁documentazione	-11.5021
▁assistenti	-11.5022
▁burocratici	-11.5023
▁orari	-11.5024
▁enormemente	-11.5027
▁intesi	-11.5028
▁distrutti	-11.5035
▁velocemente	-11.5037
▁inflazione	-11.5042
▁competitive	-11.5052
▁iraniano	-11.5052
▁rigida	-11.5052
▁cresce	-11.5058
▁stallo	-11.5058
▁interrogativo	-11.5063
▁pronunciate	-11.5064
▁usata	-11.5064
ski	-11.5066
▁soddisfi	-11.5068
▁Propongo	-11.5068
▁rovina	-11.5068
▁Ferrero	-11.5068
▁confina	-11.5069
▁crescenti	-11.5071
▁separati	-11.5078
eccessiva	-11.5079
▁terremoto	-11.508
▁Quarto	-11.5085
▁elettronici	-11.5085
▁intrapresa	-11.5085
▁patologie	-11.5085
▁pirateria	-11.5085
▁appelli	-11.5085
art	-11.5085
▁vincere	-11.5086
▁negozi	-11.5091
▁arresto	-11.5096
In	-11.5097
▁Iugoslavia	-11.5102
▁poli	-11.5113
▁Sri	-11.5114
▁prevalere	-11.5118
▁chiude	-11.5118
▁ripresenta	-11.512
▁mossa	-11.5122
EC	-11.5126
▁formato	-11.5128
▁prestato	-11.5128
▁ricercare	-11.5133
▁degrado	-11.5135
▁paritetica	-11.5135
▁sportive	-11.5135
▁greci	-11.5135
▁stress	-11.5136
▁riunire	-11.5137
▁trovarsi	-11.514
▁Galileo	-11.5152
▁rendimento	-11.5152
▁enuncia	-11.5152
▁feriti	-11.5152
▁Reding	-11.5153
▁constatazione	-11.5157
▁rigorosamente	-11.5162
▁Accordo	-11.5166
id	-11.5168
avanguardia	-11.5169
▁voterò	-11.5169
▁operanti	-11.5171
▁richiamato	-11.5174
▁presentando	-11.5174
geri	-11.5178
▁Sin	-11.5183
▁continuazione	-11.5186
▁composto	-11.5186
▁legislatori	-11.5186
▁sosterrà	-11.5186
▁Premio	-11.5186
▁verificata	-11.5189
▁extra	-11.519
▁analoga	-11.5199
▁unione	-11.5203
▁Gerusalemme	-11.5203
▁Sosteniamo	-11.5203
▁TACIS	-11.5203
▁colpiscono	-11.5203
▁Dunque	-11.5204
▁totalità	-11.5204
▁chiarimenti	-11.521
▁occupare	-11.5217
▁ingredienti	-11.522
▁mantenga	-11.522
▁sorpreso	-11.522
▁istituita	-11.522
▁interpreti	-11.522
▁Lanka	-11.522
abili	-11.522
▁collegate	-11.522
▁riservata	-11.5221
▁riceveranno	-11.5226
▁funzionano	-11.5226
▁guidata	-11.523
guard	-11.5233
▁parli	-11.5233
Waldner	-11.5237
▁antibiotici	-11.5237
▁film	-11.5237
▁nordica	-11.5239
▁vegetali	-11.5239
▁accordare	-11.524
▁completato	-11.5243
▁Wa	-11.5246
cato	-11.5246
esposizione	-11.5249
▁esserne	-11.5254
▁mon	-11.5254
▁mediterranei	-11.5254
▁villaggi	-11.5255
▁reciprocamente	-11.5268
▁dominante	-11.5276
▁terremo	-11.5279
Egitto	-11.5283
▁preoccupanti	-11.5283
▁attendo	-11.5285
▁scarsi	-11.5288
▁trascorso	-11.5288
mmessi	-11.5289
▁andato	-11.529
▁passando	-11.5291
▁approvo	-11.5291
▁togliere	-11.5295
▁pubblicare	-11.5297
▁intensità	-11.5299
▁preoccupano	-11.5299
Osservatorio	-11.53
impunità	-11.5302
▁sistematico	-11.5303
▁Johannesburg	-11.5305
▁accentua	-11.5305
▁allarmante	-11.5305
▁burocratiche	-11.5306
▁potevano	-11.531
▁nesso	-11.5313
▁sentono	-11.5318
▁indagine	-11.5319
▁Fortunatamente	-11.5323
▁conclusa	-11.5323
▁legislatore	-11.5323
▁soggetta	-11.5323
▁esercito	-11.5323
▁Avete	-11.5323
▁rilasciato	-11.5326
▁vietato	-11.5329
▁proseguimento	-11.5331
▁250	-11.5331
▁moltissimi	-11.5334
▁46	-11.5338
▁Oomen	-11.534
ciprioti	-11.534
▁rimaste	-11.534
▁staminali	-11.534
▁ritenga	-11.534
▁dimissioni	-11.534
▁minor	-11.534
▁gasdotto	-11.534
assi	-11.534
▁prestito	-11.5348
incertezza	-11.5352
▁Dio	-11.5352
attribuzione	-11.5357
▁frequenti	-11.5357
▁dettagliato	-11.536
▁votata	-11.5361
HIV	-11.5369
abuso	-11.5369
ER	-11.537
▁equità	-11.537
pprovazione	-11.5372
▁ripreso	-11.5374
▁venuta	-11.5374
▁lodevole	-11.5374
▁sanziona	-11.5374
▁onesti	-11.5374
▁opportuni	-11.5376
▁inclusione	-11.5381
▁colpi	-11.5381
▁Corbett	-11.5391
▁competizione	-11.5391
▁rifletta	-11.5391
▁urbano	-11.5391
▁trascina	-11.5392
distribu	-11.5399
▁descrive	-11.5402
▁documenta	-11.5406
▁Lomé	-11.5409
▁superfluo	-11.5409
▁alleviare	-11.5409
▁sfocia	-11.5409
▁nominato	-11.542
▁concertazione	-11.5426
▁condanne	-11.5426
▁39	-11.5434
▁adattare	-11.5435
cura	-11.5435
▁rinnovare	-11.5436
▁pene	-11.5438
▁of	-11.5442
▁prigione	-11.5443
▁menzione	-11.5443
▁tragico	-11.5444
▁rappresento	-11.5445
2008	-11.5447
▁persegui	-11.5452
▁speriment	-11.5455
▁deplora	-11.546
▁Esprimo	-11.5461
▁insisto	-11.5461
▁assente	-11.5462
▁segni	-11.5463
▁esserlo	-11.5465
accessibilità	-11.5468
ambizione	-11.5473
accettazione	-11.5475
▁discussi	-11.5477
▁Reputo	-11.5478
▁etnici	-11.5478
▁inseriti	-11.5478
▁cinquant	-11.548
▁assicurarvi	-11.5483
▁rived	-11.5483
▁alloggi	-11.5484
▁aumentata	-11.5486
▁registri	-11.5487
SA	-11.5493
▁troveremo	-11.5496
▁fortunatamente	-11.5497
▁dotare	-11.5498
▁bozza	-11.5499
▁regna	-11.5501
▁manipola	-11.551
▁imposizione	-11.5512
▁sacrifici	-11.5513
▁profila	-11.5513
▁recita	-11.5514
rna	-11.5515
▁automobilistico	-11.5515
▁arrivano	-11.5515
▁reputazione	-11.5517
impossibilità	-11.5522
▁consulta	-11.5523
incapacità	-11.5526
▁riconoscono	-11.5527
▁costoso	-11.5529
▁prodotta	-11.5531
equa	-11.5531
▁dichiarata	-11.5532
▁assumendo	-11.5534
▁agisca	-11.5537
▁Mon	-11.5539
▁recante	-11.5543
osservanza	-11.5544
▁appartenenza	-11.5546
Azerbaigian	-11.5548
adempimento	-11.5548
▁nutre	-11.5548
▁tentazione	-11.5556
emarginazione	-11.5557
rale	-11.5566
Ruijten	-11.5566
▁prospera	-11.5566
▁testimoni	-11.5567
▁trenta	-11.5569
▁applicando	-11.5573
▁stadio	-11.5574
▁ricca	-11.5577
▁sviluppata	-11.5578
▁acquisti	-11.5578
▁compensa	-11.5578
▁contenenti	-11.5583
▁scuse	-11.5583
▁ottica	-11.5592
acciaio	-11.5592
▁perfetto	-11.5601
▁volete	-11.5601
▁correttezza	-11.5603
tario	-11.5607
assemblea	-11.5614
▁destinatari	-11.5615
▁rimuovere	-11.5617
▁parallelo	-11.5619
▁religioso	-11.5619
▁sterline	-11.5619
▁tangibili	-11.5619
▁franco	-11.5619
▁dinamico	-11.5619
▁riservatezza	-11.5619
▁squilibrio	-11.5619
abbia	-11.5631
▁600	-11.5634
▁Orbene	-11.5636
▁candidatura	-11.5636
▁linguistiche	-11.5636
▁sospetti	-11.5636
▁troverà	-11.5636
▁mantiene	-11.5636
▁offrirà	-11.5637
▁incontrano	-11.5637
▁sembrava	-11.5637
▁aggiorna	-11.5637
▁Servizio	-11.5639
▁alza	-11.5639
immissione	-11.5641
SL	-11.5644
▁stando	-11.5646
interoperabilità	-11.5648
IS	-11.5653
▁Auspichiamo	-11.5654
▁arrestare	-11.5654
▁riproduttiva	-11.5654
▁Vitorino	-11.5654
▁circonda	-11.5655
▁insulari	-11.5656
versi	-11.5659
▁rilasciare	-11.566
▁permetterebbe	-11.5661
ud	-11.5667
▁Inter	-11.5668
▁tentando	-11.567
▁credibili	-11.567
▁Finanze	-11.5672
▁brutale	-11.5672
▁socialmente	-11.5672
▁arreca	-11.5672
▁annulla	-11.5672
▁contribuiranno	-11.5673
▁andati	-11.5674
▁Gar	-11.5675
▁raccomandare	-11.5677
▁trarne	-11.5678
▁Col	-11.5681
▁Sare	-11.5682
▁Lega	-11.5687
insegnamento	-11.5687
▁rassegna	-11.5688
▁accettati	-11.5689
▁tono	-11.569
▁decida	-11.569
▁difeso	-11.569
▁avalla	-11.5693
▁garantirne	-11.5694
21	-11.5696
▁muove	-11.5699
▁oppongono	-11.5701
▁incoraggiando	-11.5705
▁Essendo	-11.5707
▁Presidenze	-11.5708
▁riscontro	-11.5708
▁teniamo	-11.5708
▁FES	-11.5709
▁contraddittori	-11.5711
18	-11.5715
▁continuato	-11.5716
rd	-11.5722
Ma	-11.5724
▁erogare	-11.5725
▁Collegio	-11.5725
▁tangibile	-11.5725
▁merce	-11.5725
▁licenziamenti	-11.5725
▁profusi	-11.5726
▁Y	-11.5728
▁premessa	-11.573
rif	-11.5732
▁limitarci	-11.5734
▁costringere	-11.5735
▁inadeguata	-11.5736
▁ignorato	-11.5736
▁versi	-11.5737
▁giova	-11.5738
identificazione	-11.5739
▁fronti	-11.5742
▁esperimenti	-11.5743
▁terranno	-11.5743
▁complete	-11.5744
▁corrispondenti	-11.5751
▁Mare	-11.5751
▁guadagnare	-11.5752
▁colpire	-11.5753
▁massiccia	-11.5758
▁ripercuote	-11.5761
▁africano	-11.5761
▁opponiamo	-11.5761
▁schiavitù	-11.5761
▁sportivi	-11.5761
▁sapeva	-11.5762
▁solenne	-11.5762
▁Passo	-11.5765
▁armatori	-11.5765
▁autentica	-11.5771
▁nera	-11.5771
bus	-11.5774
▁privilegio	-11.5774
logiche	-11.5778
egida	-11.5779
▁riconosciute	-11.5779
▁saggezza	-11.5779
▁affrett	-11.5779
▁Direzione	-11.5779
▁parallelamente	-11.5781
PS	-11.5783
▁terre	-11.5784
erebbero	-11.5788
▁opt	-11.579
avviso	-11.5792
▁prosegui	-11.5796
▁citate	-11.5797
▁produttiva	-11.5797
▁esprima	-11.5797
▁sondaggi	-11.5797
▁codici	-11.5799
▁biossid	-11.5805
▁retro	-11.5806
▁menziona	-11.5807
▁esaminata	-11.5812
▁obiettiva	-11.5815
▁rigide	-11.5815
▁emersa	-11.5815
automobile	-11.5815
▁giornalista	-11.5819
▁adotterà	-11.5833
▁prestigio	-11.5833
▁mortalità	-11.5834
▁contabilità	-11.5837
▁definir	-11.584
▁accelera	-11.5846
onda	-11.5847
Estonia	-11.5847
immediato	-11.5847
▁effettivi	-11.5849
Bendit	-11.5851
▁ribelli	-11.5851
▁soffre	-11.5851
▁É	-11.5852
▁Br	-11.5853
▁fornisca	-11.5854
architettura	-11.5869
▁Politica	-11.5869
▁sovietica	-11.5869
▁rosso	-11.5869
▁finanziate	-11.587
interruzione	-11.587
▁deterioramento	-11.5871
▁conducenti	-11.5875
essenza	-11.5877
▁apprendimento	-11.5877
▁Cohn	-11.5888
▁Giornata	-11.5888
▁eseguire	-11.5888
▁influire	-11.5888
▁zu	-11.5888
▁normalmente	-11.5889
▁universali	-11.5897
▁anticipa	-11.59
▁rispettivamente	-11.5906
▁potenti	-11.5906
4-03	-11.5906
▁caratteristica	-11.5906
▁ricordiamo	-11.5907
▁vaccinazione	-11.5908
▁undici	-11.5908
)).	-11.5917
W	-11.592
all	-11.5921
▁Salonicco	-11.5924
▁dollaro	-11.5924
▁preferibile	-11.5924
▁seleziona	-11.5924
▁incondizionata	-11.5924
Est	-11.5927
▁limitano	-11.5927
▁sorge	-11.5927
uro	-11.5928
▁potut	-11.593
▁induce	-11.5935
▁operi	-11.5935
▁PCP	-11.5942
▁Potremmo	-11.5942
▁direttrici	-11.5942
▁nocivi	-11.5942
▁singola	-11.5943
lt	-11.5943
▁permettersi	-11.5945
▁autorizza	-11.5946
▁pesci	-11.5947
aggiunta	-11.5947
▁mettersi	-11.5953
▁immagine	-11.5958
▁rivendica	-11.5959
▁toccato	-11.596
▁insostenibile	-11.596
▁rammarica	-11.596
▁scongiurare	-11.5961
▁bancari	-11.5961
▁approfondi	-11.5962
▁rap	-11.5969
▁Guantánamo	-11.5979
▁assassina	-11.5979
▁salariale	-11.598
19	-11.5981
▁Quindici	-11.5981
▁capitalismo	-11.5984
▁veterinari	-11.5986
▁menzionata	-11.5989
▁porsi	-11.5994
▁Prendiamo	-11.5997
▁possiede	-11.5997
▁insediamenti	-11.5998
▁cattivo	-11.6001
siderevolmente	-11.6003
▁informata	-11.6004
▁degna	-11.6007
16	-11.6007
tari	-11.6009
etichetta	-11.6011
accusa	-11.6012
oro	-11.6013
▁carbonica	-11.6016
▁diffuse	-11.6016
▁preventive	-11.6016
▁controllata	-11.6016
abbattimento	-11.6016
▁tracciabilità	-11.6016
▁Faccio	-11.6016
▁instabilità	-11.6016
▁adattamento	-11.602
odio	-11.6024
▁off	-11.6031
▁Canarie	-11.6034
▁Fondazione	-11.6034
▁calpesta	-11.6034
▁Lehne	-11.6034
▁creerà	-11.6034
▁colpevole	-11.6034
▁spinto	-11.6035
▁invitiamo	-11.6036
▁fissata	-11.6036
▁passata	-11.6036
▁muoversi	-11.6038
▁eccesso	-11.6043
▁perseguito	-11.6046
amenti	-11.6048
▁GALILEO	-11.6052
▁donatore	-11.6052
▁falsa	-11.6052
Armenia	-11.6052
▁transnazionali	-11.6053
▁Chiunque	-11.6053
acquisizione	-11.6053
ammissione	-11.6054
▁sovvenziona	-11.6055
▁tagliare	-11.6059
▁collabor	-11.6063
invio	-11.6066
▁progetta	-11.6068
▁capite	-11.6068
▁incondizionato	-11.6071
▁straniere	-11.6071
▁Pack	-11.6072
▁risponda	-11.6073
▁cessate	-11.6078
acco	-11.6085
▁riuniti	-11.6087
▁esplicita	-11.6089
▁Berlusconi	-11.6089
▁fredda	-11.6089
assassinio	-11.609
▁morbo	-11.609
▁scoppia	-11.609
▁soglie	-11.6093
▁poggia	-11.6101
▁dipendere	-11.6101
▁uccisi	-11.6103
▁moto	-11.6108
ig	-11.6108
▁chimica	-11.6111
▁caos	-11.6111
▁frammentazione	-11.6112
▁divergenti	-11.6127
▁redditività	-11.6127
▁sanciti	-11.6127
▁preparatori	-11.6128
fico	-11.6129
▁raccoglie	-11.6135
▁rassicurare	-11.6139
lunga	-11.6143
▁modesto	-11.6145
▁navali	-11.6145
▁padri	-11.6145
▁rientri	-11.6145
▁sotterranee	-11.6145
OMS	-11.6145
▁49	-11.6148
▁occupiamo	-11.6149
35	-11.615
▁fattibilità	-11.6151
▁altrettant	-11.6152
▁Vale	-11.6153
attenta	-11.616
▁Sacharov	-11.6164
▁raggruppa	-11.6164
▁eserciti	-11.6164
▁traguardo	-11.6164
▁web	-11.6164
▁diplomatico	-11.6164
▁integrate	-11.6169
’1	-11.6175
▁pura	-11.6175
▁funzionario	-11.6176
accelerazione	-11.6181
▁immediate	-11.6182
▁controversa	-11.6183
▁Anzitutto	-11.6183
▁delicati	-11.6183
▁negativamente	-11.6192
▁accetti	-11.6199
▁Copenhagen	-11.6201
▁PNR	-11.6201
▁emergono	-11.6201
▁bandi	-11.6203
▁veniva	-11.6204
▁onestà	-11.6208
▁avanzamento	-11.6212
▁concretizza	-11.622
▁servirà	-11.622
▁rappresenterà	-11.622
▁evince	-11.622
▁concentri	-11.6223
▁aumentano	-11.6223
▁marina	-11.6228
▁rinvia	-11.6231
nazionali	-11.6233
fichi	-11.6234
▁seppure	-11.6236
▁Somalia	-11.6239
▁radiazioni	-11.6239
▁suddetto	-11.6239
▁secondi	-11.6239
berg	-11.6241
estrazione	-11.6242
▁evoca	-11.6244
▁accresce	-11.6247
▁nominare	-11.6257
▁Desideriamo	-11.6258
▁formule	-11.6258
▁adeguamenti	-11.6258
▁aggiuntive	-11.6258
▁sensibilizzare	-11.626
▁azionisti	-11.6262
igiene	-11.6263
▁trasformato	-11.6268
ham	-11.627
▁inadeguato	-11.6271
▁promette	-11.6272
dita	-11.6272
▁comunismo	-11.6272
▁pianifica	-11.6274
▁onora	-11.6276
▁immigranti	-11.6276
▁svariati	-11.6276
▁resterà	-11.6276
▁normativi	-11.6276
▁incombe	-11.6277
CI	-11.6278
▁mor	-11.6278
▁fasce	-11.6283
▁versante	-11.6284
▁stanziato	-11.6286
▁adattarsi	-11.6287
17	-11.6288
olio	-11.6292
▁poca	-11.6294
▁preziosa	-11.6295
▁usufruire	-11.6295
▁quadri	-11.6295
▁deludente	-11.6295
▁eroga	-11.6296
▁affidamento	-11.6299
▁riammissione	-11.6299
▁motiva	-11.63
Euro	-11.6309
▁coraggiosa	-11.631
arrivo	-11.6311
▁prevale	-11.6313
▁puntuali	-11.6314
▁protagonisti	-11.6314
▁tecnologiche	-11.6314
▁online	-11.6315
▁trovata	-11.6317
ST	-11.6319
▁stabilita	-11.632
▁47	-11.6323
cli	-11.6324
▁recato	-11.6327
▁apportati	-11.6332
▁Comprendo	-11.6333
▁Occorrono	-11.6333
▁scade	-11.6338
84	-11.6339
mani	-11.6341
▁auspici	-11.6341
▁turisti	-11.6342
▁sollecit	-11.6351
▁richieda	-11.6352
▁vaccini	-11.6352
▁ritarda	-11.6353
▁privilegia	-11.6356
▁verrebbero	-11.6358
acc	-11.6359
▁Du	-11.6364
▁embrioni	-11.6371
▁pornografia	-11.6371
▁oltremodo	-11.6371
▁banconote	-11.6371
▁bacino	-11.6371
▁scontro	-11.6372
▁Consigli	-11.6379
▁sceglie	-11.638
ombra	-11.6384
▁valute	-11.6387
▁assassini	-11.639
▁apprendere	-11.639
▁sudorientale	-11.6391
▁fru	-11.6395
0/	-11.64
▁affidare	-11.6401
▁41	-11.6406
▁usi	-11.6407
▁viste	-11.6408
▁esecutiva	-11.641
▁navale	-11.641
▁precipita	-11.641
▁fragile	-11.641
▁tendono	-11.641
▁pregiudica	-11.6411
▁peggioramento	-11.6412
▁Capisco	-11.6413
▁disciplinano	-11.642
vente	-11.6426
▁rallenta	-11.6427
▁chiamare	-11.6427
▁Liikanen	-11.6429
▁Lukashenko	-11.6429
▁assunte	-11.6429
▁slovena	-11.6429
▁opposta	-11.6429
▁Domani	-11.6429
dato	-11.6429
▁eccessive	-11.643
oppressione	-11.6444
ED	-11.6447
▁Böge	-11.6448
▁Harbour	-11.6448
▁pacchetti	-11.6448
▁composta	-11.6448
▁ricade	-11.6449
▁Peraltro	-11.6462
espansione	-11.6464
▁musica	-11.6467
▁soccorso	-11.6467
▁aderenti	-11.6467
tz	-11.6467
▁difetti	-11.6468
▁Saranno	-11.648
▁recepito	-11.6483
▁infrazione	-11.6483
▁porterebbe	-11.6485
▁versano	-11.6486
▁rimanda	-11.6486
▁costretta	-11.6486
▁percentuali	-11.6486
▁sguardo	-11.6486
▁Coloro	-11.6487
▁contrarie	-11.6488
▁partecipi	-11.649
▁stabilizzare	-11.65
▁scorte	-11.6502
embargo	-11.6503
▁violano	-11.6503
ly	-11.6503
/2004	-11.6503
▁120	-11.6504
pla	-11.6505
▁Im	-11.6511
▁bilancia	-11.6513
ev	-11.6523
▁ferro	-11.6525
▁atmosferico	-11.6525
▁islamica	-11.6525
▁rivista	-11.6525
▁distacco	-11.6525
▁Tropp	-11.6526
impronta	-11.6526
▁realizzate	-11.6528
▁provvisoria	-11.6529
▁coesistenza	-11.6531
▁modificate	-11.6533
espulsione	-11.6533
▁raggio	-11.6536
▁traduce	-11.6537
▁treni	-11.6542
▁ottenga	-11.6544
▁Condividiamo	-11.6544
▁albanese	-11.6544
▁contribuente	-11.6544
GA	-11.6551
▁Rehn	-11.6564
▁sinergie	-11.6564
▁conduzione	-11.6564
▁valga	-11.6564
▁unirmi	-11.6565
▁nutrire	-11.6566
▁abolizione	-11.6568
▁Mann	-11.6568
▁affrontiamo	-11.6568
▁equipaggi	-11.6569
▁scorta	-11.657
▁sostituito	-11.6571
▁unito	-11.6574
▁privilegiato	-11.6576
▁prendano	-11.6577
mila	-11.658
Istituzione	-11.658
▁Data	-11.6582
▁aggiornamento	-11.6582
▁restrittive	-11.6583
▁stringe	-11.6583
▁veicolo	-11.6583
▁ringraziarvi	-11.6584
▁incoraggiato	-11.6585
▁interpretazioni	-11.6586
▁sani	-11.6586
▁realismo	-11.6589
▁adito	-11.6591
▁11.00.	-11.6603
▁Lamy	-11.6603
▁separa	-11.6604
rappresenterebbe	-11.6606
▁correzione	-11.6609
▁procedurale	-11.6613
▁tranne	-11.6616
▁allevamento	-11.6616
▁accordato	-11.6618
▁assumono	-11.6622
▁denominazione	-11.6622
▁risanamento	-11.6622
▁sciopero	-11.6622
▁ottiene	-11.6622
▁freno	-11.6622
▁Chiede	-11.6623
▁tragici	-11.6623
▁rivelata	-11.6623
▁rettificativo	-11.6623
▁comunisti	-11.6628
ondata	-11.6632
▁fissi	-11.6632
▁fiscalità	-11.6634
▁pesi	-11.6634
▁vogliano	-11.6636
▁Basilea	-11.6642
▁pedaggi	-11.6642
▁dittatore	-11.6642
▁siffatta	-11.6645
▁beneficiano	-11.6646
▁entrano	-11.6652
▁FEG	-11.6653
▁insedia	-11.6655
▁permetteranno	-11.6656
▁collegare	-11.6657
▁Pacifico	-11.6662
▁segretariato	-11.6662
▁sincero	-11.6662
▁bombe	-11.6662
▁nazionalismo	-11.6662
▁Cile	-11.6663
▁concentrarmi	-11.6664
▁quantifica	-11.6664
▁abusa	-11.6668
▁metri	-11.6672
▁corrispondono	-11.6681
▁disavanzi	-11.6681
▁passaporto	-11.6681
▁tessuto	-11.6681
MA	-11.6683
▁convincente	-11.6685
▁accontenta	-11.6688
eredità	-11.669
ic	-11.67
▁detiene	-11.6701
isolamento	-11.6703
▁coordinatore	-11.6706
▁attentato	-11.6707
▁compie	-11.6712
▁azienda	-11.6713
▁costiera	-11.6719
▁sfiducia	-11.6721
▁attira	-11.6721
▁violare	-11.6722
▁Sinistra	-11.6733
▁figlio	-11.6735
▁ricostruire	-11.6737
▁complicata	-11.6738
▁apportate	-11.6739
▁Barón	-11.674
▁incredibile	-11.6747
▁rinnovato	-11.6748
▁tribuna	-11.6752
▁consolidata	-11.6756
▁scarse	-11.6756
▁seggi	-11.6758
▁ridicolo	-11.676
▁divieti	-11.676
▁spreco	-11.676
▁ordini	-11.676
▁tossici	-11.676
tutto	-11.6763
▁elaborate	-11.6766
▁provocano	-11.6767
▁IV	-11.6767
▁emargina	-11.677
uromediterraneo	-11.6771
▁installa	-11.6776
▁paradisi	-11.678
▁chieda	-11.678
▁Ja	-11.6782
▁venne	-11.6782
▁Nuova	-11.6786
▁giochi	-11.6791
▁procedendo	-11.6793
▁britanniche	-11.68
▁ravvicinamento	-11.6801
▁imballaggi	-11.6806
▁incentrata	-11.681
▁segnato	-11.681
▁Cha	-11.6812
▁finito	-11.6816
ak	-11.6817
▁costrette	-11.682
▁proficuo	-11.682
▁ruoli	-11.682
▁sancisce	-11.682
▁contenente	-11.682
▁ipotizza	-11.682
▁Algeria	-11.682
▁prestata	-11.6833
▁enfasi	-11.6834
▁espone	-11.6837
83	-11.684
▁Chiaramente	-11.684
▁LIFE	-11.684
▁incertezze	-11.684
▁ridistribuzione	-11.684
▁finalizzata	-11.684
▁lavoratrici	-11.684
▁progettazione	-11.6843
▁indicata	-11.6846
▁raccomandato	-11.685
▁finisce	-11.6852
▁individuo	-11.6853
▁debita	-11.6855
▁ammissibili	-11.6858
intolleranza	-11.686
▁abitudini	-11.686
▁ambiziose	-11.686
▁innovativo	-11.686
▁restituzioni	-11.686
▁risiedono	-11.686
▁suddetta	-11.686
▁compimento	-11.686
▁sensato	-11.686
▁ponte	-11.686
▁accettiamo	-11.6863
▁suscitare	-11.6867
▁colto	-11.6868
▁identificazione	-11.687
▁compromette	-11.6872
▁affrontano	-11.6876
▁mantenuta	-11.688
▁violenti	-11.688
▁turba	-11.688
▁dolore	-11.688
▁abbandonato	-11.688
▁risenti	-11.688
▁insegnamenti	-11.6882
▁700	-11.6886
▁razionali	-11.6888
▁degno	-11.689
AT	-11.6896
▁arrestati	-11.69
▁fascicolo	-11.69
▁femminili	-11.69
▁scendere	-11.6902
▁altera	-11.6903
▁interpretare	-11.6903
▁geni	-11.6904
/2005	-11.6908
▁discuteremo	-11.691
▁accusato	-11.6916
▁misurare	-11.6918
▁comprensibili	-11.692
▁deploro	-11.692
▁respinti	-11.692
▁salvo	-11.692
▁violato	-11.6921
iter	-11.6921
ammontare	-11.6922
chè	-11.6923
verso	-11.6929
zionali	-11.693
front	-11.6931
▁riso	-11.6931
▁ferrovia	-11.6933
▁Ru	-11.694
▁omicidi	-11.694
▁Bangemann	-11.694
▁giungono	-11.694
▁finalizzate	-11.694
▁aggiuntivo	-11.6941
blo	-11.6951
▁costosi	-11.6956
estremismo	-11.696
▁varo	-11.696
▁lentamente	-11.6961
▁legno	-11.6963
▁2001/	-11.6965
uf	-11.6966
▁curare	-11.6966
▁sfruttato	-11.6971
bel	-11.6974
▁dinamismo	-11.6981
▁manutenzione	-11.6981
▁sintonia	-11.6981
▁deliberatamente	-11.6981
▁annovera	-11.6982
▁ottimismo	-11.6989
▁pan	-11.6997
▁eliminato	-11.6999
▁pregiudicare	-11.7
▁trafficanti	-11.7001
▁assistendo	-11.7002
▁agendo	-11.7002
▁rivolgermi	-11.7003
▁incentiva	-11.7005
ordinamento	-11.7017
▁preoccuparsi	-11.7019
aprile	-11.7019
▁concilia	-11.7021
▁torture	-11.7021
▁allorché	-11.7021
▁polacca	-11.7021
▁trascorsi	-11.7021
ó	-11.7022
▁andata	-11.7023
▁favorisca	-11.7024
▁separatamente	-11.7025
▁facesse	-11.7027
▁scorie	-11.7027
▁rendano	-11.7028
▁We	-11.7033
▁Liberali	-11.704
▁Evidentemente	-11.7042
▁Recentemente	-11.7042
▁liquidità	-11.7042
▁punire	-11.7043
▁Quinto	-11.7043
▁simbolico	-11.7045
utile	-11.7054
▁domenica	-11.7062
▁iracheni	-11.7062
▁ragazze	-11.7062
▁torto	-11.7062
▁Nessun	-11.7062
▁forestali	-11.7064
▁52	-11.7065
unque	-11.7067
▁assenso	-11.7069
▁Dell	-11.707
progressivamente	-11.7071
Russia	-11.7081
▁sinceri	-11.7081
▁convivenza	-11.7082
▁limitrofi	-11.7082
▁nocciolo	-11.7082
▁persecuzioni	-11.7082
▁prevedibile	-11.7082
▁astenuti	-11.7082
▁legname	-11.7082
▁denunciato	-11.7083
▁sentiamo	-11.7083
▁riconsiderare	-11.7083
▁sopprimere	-11.7083
▁drammatico	-11.7083
▁salariali	-11.7085
▁postale	-11.7088
▁indicate	-11.709
▁seguirà	-11.7091
▁obbligatori	-11.7097
▁soddisfano	-11.7101
▁attore	-11.7101
▁Ricordiamo	-11.7103
▁banchi	-11.7103
▁riconosco	-11.7107
attacco	-11.711
▁interi	-11.7118
accoglienza	-11.7122
▁congiunte	-11.7123
▁squadre	-11.7123
▁qualitativo	-11.7123
▁biologici	-11.7124
▁rinazionalizz	-11.7125
93	-11.7128
▁abitazioni	-11.7128
▁riunificazione	-11.7129
▁intendere	-11.7132
▁cela	-11.7134
▁riman	-11.7138
▁equivalente	-11.714
▁farle	-11.7142
▁banco	-11.7144
▁distribuire	-11.7144
▁interculturale	-11.7144
▁pulizia	-11.7144
▁riflettono	-11.7144
▁gara	-11.7144
▁corona	-11.7145
▁espressioni	-11.7146
▁copia	-11.7147
▁limitando	-11.7149
▁giustificate	-11.715
▁pesantemente	-11.7153
▁amministra	-11.7157
▁create	-11.7159
▁convenzionali	-11.7165
▁rafforzerà	-11.7165
▁redatta	-11.7165
▁quesiti	-11.7165
nel	-11.7175
▁riscontrato	-11.7178
▁riusci	-11.7179
▁importazione	-11.718
▁assorbi	-11.7183
incarico	-11.7184
▁biglietti	-11.7185
▁restituzione	-11.7185
▁ricostituzione	-11.7185
▁salvataggio	-11.7185
▁massiccio	-11.7191
▁partita	-11.7195
▁eccellenza	-11.7199
▁calcola	-11.7201
▁Pensiamo	-11.7206
▁tragedie	-11.7206
▁calma	-11.7206
▁spari	-11.7207
▁porgo	-11.7208
▁Pensa	-11.7208
atori	-11.7208
insediamento	-11.7211
▁opzione	-11.7218
▁basti	-11.7219
▁morto	-11.7219
▁effettua	-11.7224
▁emittenti	-11.7227
▁gioia	-11.7227
azzardo	-11.7227
assetto	-11.7232
▁provengo	-11.7233
▁legittimazione	-11.7235
▁ricevano	-11.7238
▁menzionate	-11.7239
▁collegata	-11.7244
uroparlamentari	-11.7248
ü	-11.7248
▁aeromobili	-11.7248
▁ridimensiona	-11.7248
▁atomica	-11.7248
▁inserite	-11.7248
▁Latina	-11.7248
▁direzioni	-11.7249
vert	-11.7256
▁correre	-11.726
▁votando	-11.7261
▁complimento	-11.7268
▁costruito	-11.7268
▁indubbio	-11.7268
▁intervenga	-11.7268
▁associarmi	-11.727
▁vantaggioso	-11.7272
▁orgogliosi	-11.7272
▁secondaria	-11.7273
nazionale	-11.7273
▁svoltasi	-11.7274
▁esercitano	-11.728
▁Ciad	-11.7281
metri	-11.7282
▁perfetta	-11.7285
▁Ar	-11.7287
▁spagnole	-11.7289
▁finalizzato	-11.729
▁conservatore	-11.729
▁metodologia	-11.7291
▁destina	-11.7291
▁Intendo	-11.7291
▁soddisfatte	-11.7292
▁quo	-11.7293
▁disprezzo	-11.731
▁farmaceutica	-11.731
▁vola	-11.7313
▁Tor	-11.7318
▁ricche	-11.7323
▁frequente	-11.7327
argomentazione	-11.733
▁ingiusto	-11.7331
▁violenta	-11.7331
▁accise	-11.7331
▁collegato	-11.7342
▁codifica	-11.7349
▁arco	-11.7352
▁Crespo	-11.7352
▁Qualcuno	-11.7352
▁inserisce	-11.7352
▁Sempre	-11.7352
▁Avremmo	-11.7352
▁lacuna	-11.7353
▁descrizione	-11.7354
▁neutralità	-11.7354
▁globalizzato	-11.7354
▁annunciare	-11.7355
▁negoziali	-11.7357
logo	-11.7358
▁occhio	-11.7362
▁guardiamo	-11.7363
autunno	-11.7372
▁Considero	-11.7373
▁Firenze	-11.7373
▁Jacques	-11.7373
▁arduo	-11.7373
▁rinnovamento	-11.7374
spir	-11.7375
▁controverso	-11.7381
▁protezioni	-11.7382
▁interpretato	-11.7389
▁abbraccia	-11.7389
▁Attravers	-11.7394
▁Deploro	-11.7394
▁slovacca	-11.7394
▁improvvisamente	-11.7394
▁false	-11.7394
▁donazione	-11.7394
▁vergognoso	-11.7395
▁salario	-11.7401
▁sol	-11.7407
▁esservi	-11.7411
▁Barrot	-11.7415
▁Quartetto	-11.7415
▁baronessa	-11.7415
▁costruttori	-11.7415
▁trasposizione	-11.7415
▁tariffarie	-11.7424
utilizzazione	-11.7424
▁apporto	-11.7427
08	-11.7431
▁gestita	-11.7431
▁provocati	-11.7435
▁Sottolineo	-11.7437
▁conformarsi	-11.7437
▁agisce	-11.7437
▁Guard	-11.7437
▁rammenta	-11.744
▁prepararsi	-11.7443
▁originariamente	-11.7444
▁minimamente	-11.7455
▁causate	-11.7456
incenerimento	-11.7458
▁McCreevy	-11.7458
▁contrabbando	-11.7458
▁definendo	-11.7458
▁islamici	-11.7458
▁accolte	-11.7458
▁commemora	-11.7458
▁temono	-11.7458
▁diplomatiche	-11.7458
▁51	-11.746
▁attuando	-11.7461
▁coordina	-11.7464
▁danneggiare	-11.7468
▁mole	-11.7468
▁intere	-11.7469
▁autoritari	-11.747
▁condoglianze	-11.7479
▁preziosi	-11.7479
▁socioeconomico	-11.7479
▁riconversione	-11.7479
▁bandiere	-11.748
▁vicende	-11.748
▁instaura	-11.7481
▁protestare	-11.7485
▁sovrani	-11.7485
ved	-11.7494
impianto	-11.7499
▁rafforzi	-11.75
▁comparabili	-11.7501
▁tarda	-11.7501
▁Annan	-11.7502
▁isola	-11.7503
mmer	-11.7503
▁VI	-11.7504
▁replica	-11.7504
Q	-11.7507
▁giocare	-11.7507
▁rare	-11.7508
▁saggia	-11.7508
▁recepire	-11.7509
▁unisco	-11.751
Artico	-11.7511
▁tenutosi	-11.7511
85	-11.7515
▁intermedi	-11.7521
▁Plenaria	-11.7522
▁satellite	-11.7522
▁franchi	-11.7522
▁conquiste	-11.7522
▁produca	-11.7524
▁Colg	-11.7525
▁educazione	-11.7527
▁minorile	-11.753
▁mantener	-11.7535
instabilità	-11.7542
▁Sharon	-11.7543
▁biotecnologia	-11.7543
▁franchezza	-11.7543
▁preliminari	-11.7543
▁sentimento	-11.7543
▁parimenti	-11.7545
mission	-11.7546
▁sentitamente	-11.7546
▁consistenti	-11.7549
▁anidri	-11.755
EM	-11.7553
▁acquisto	-11.7557
▁resoconto	-11.7565
▁curda	-11.7565
▁Indonesia	-11.7582
▁preparata	-11.7583
▁affianca	-11.7586
▁temporanei	-11.7586
▁scarico	-11.7586
▁Obiettivi	-11.7586
▁esercitate	-11.7587
attesa	-11.7587
▁incentra	-11.7589
▁fallire	-11.759
▁devastanti	-11.7591
▁cambiata	-11.7595
mbe	-11.7603
▁ottemperare	-11.7604
▁svolgersi	-11.7607
▁avanz	-11.7607
▁difetto	-11.7608
▁Za	-11.7609
▁puniti	-11.7609
▁scuso	-11.7612
▁scrivere	-11.7616
▁emigra	-11.7623
▁dannosi	-11.7625
▁53	-11.7625
(1)	-11.7626
▁riafferma	-11.7627
▁vende	-11.7628
allarme	-11.7629
▁Venezuela	-11.7629
▁fusioni	-11.7629
▁insoddisfacente	-11.7629
▁tradursi	-11.7629
▁pezzi	-11.7632
Per	-11.7634
▁elaborando	-11.7636
▁Port	-11.7637
▁Ufficio	-11.7637
▁odio	-11.7639
▁unilaterali	-11.7642
▁gestiti	-11.7646
▁ritirato	-11.7651
▁costituiscano	-11.7651
▁pubblicitari	-11.7651
▁Approvo	-11.7651
▁risulterà	-11.7651
▁unilateralmente	-11.7651
▁approd	-11.7651
▁Autorità	-11.7653
▁sappiano	-11.7656
▁verificatisi	-11.766
▁gestori	-11.766
ugu	-11.7668
▁pronunciata	-11.7669
erano	-11.767
▁aiutato	-11.7671
▁confido	-11.7673
▁quarant	-11.7675
▁rappresentate	-11.7676
▁innesca	-11.7677
▁aiutarli	-11.7678
▁raccomando	-11.768
ggiare	-11.7684
▁veterinario	-11.7686
▁saggio	-11.7692
▁bloccato	-11.7693
▁netti	-11.7694
▁deposita	-11.7694
▁distrutto	-11.7694
▁storiche	-11.7694
▁infrazioni	-11.7694
▁carente	-11.7695
▁esaustiva	-11.7696
▁sottovalutare	-11.7697
▁siffatto	-11.7699
invasione	-11.77
89	-11.77
▁stamani	-11.77
▁prosegue	-11.7704
▁originario	-11.7705
duce	-11.7713
▁settoriale	-11.7714
gh	-11.7715
Algeria	-11.7716
▁Merkel	-11.7716
▁Sfortunatamente	-11.7716
▁irachena	-11.7716
▁italiane	-11.7716
4-04	-11.7716
▁lentezza	-11.7717
▁patente	-11.7717
▁aziendale	-11.7721
▁54	-11.7721
▁incoraggi	-11.7722
▁esiti	-11.7723
▁umilia	-11.7724
▁miglia	-11.7725
▁stipendi	-11.7727
ampio	-11.7727
▁riproduzione	-11.7738
▁impronte	-11.7738
▁ottime	-11.7738
SPG	-11.7739
▁integralmente	-11.7739
▁metalli	-11.7739
▁tariffari	-11.7745
▁sentirsi	-11.7746
cera	-11.7746
▁iniziata	-11.7748
▁assumerà	-11.7751
▁impiegate	-11.7756
▁invitati	-11.7757
▁Moldavia	-11.776
▁atteggiamenti	-11.776
▁religioni	-11.776
▁vedremo	-11.776
▁comodo	-11.776
▁cotone	-11.776
▁rifugio	-11.7761
▁pensionistico	-11.7761
▁Piano	-11.7762
▁liberare	-11.7764
▁chiese	-11.7764
▁inadeguate	-11.7767
▁assegna	-11.777
▁deciderà	-11.777
▁indugio	-11.7771
▁Basta	-11.7772
▁Casa	-11.7774
▁strutturato	-11.7775
acquacoltura	-11.778
abbandono	-11.7781
▁applausi	-11.7782
▁ragazzi	-11.7782
▁terrestri	-11.7782
▁reperire	-11.7786
▁unirsi	-11.7786
▁Dis	-11.7788
venendo	-11.7788
▁Pen	-11.7789
▁distrugge	-11.779
▁perpetrati	-11.7792
▁mancare	-11.7792
▁appartene	-11.7794
▁800	-11.7801
▁avvia	-11.7803
▁Caraibi	-11.7804
▁José	-11.7804
▁Talvolta	-11.7804
▁unitario	-11.7806
13	-11.7808
▁contribuiscano	-11.7811
▁indugi	-11.7815
OP	-11.7818
▁contribuirebbe	-11.782
▁impegnate	-11.7824
▁DAPHNE	-11.7826
▁Malmström	-11.7826
▁dogma	-11.7826
▁innovativa	-11.7826
▁israeliana	-11.7826
▁modulazione	-11.7826
▁promuovono	-11.7826
▁Bonino	-11.7826
▁derive	-11.7826
▁negozia	-11.7828
▁prevalentemente	-11.7828
▁Rossa	-11.7828
▁usano	-11.783
▁perdono	-11.7834
ust	-11.7837
▁sottolinearlo	-11.7842
▁ipocrisia	-11.7843
▁esaminate	-11.7844
▁gr	-11.7847
▁duraturo	-11.7848
▁scandali	-11.7848
▁scolastico	-11.7848
▁sanzione	-11.7848
▁rimediare	-11.7849
▁rispondono	-11.786
▁rinviata	-11.786
alla	-11.7865
▁finanziata	-11.787
▁carceri	-11.787
▁cristiane	-11.787
▁riparazione	-11.787
▁rotte	-11.787
▁normalizzazione	-11.7873
▁usando	-11.7873
▁volesse	-11.7874
▁abroga	-11.7876
▁riservare	-11.7887
▁proventi	-11.7891
▁Delors	-11.7892
▁Eurojust	-11.7892
▁avvenuti	-11.7892
▁preventivo	-11.7892
▁Attendo	-11.7892
▁esportatori	-11.7894
▁facilità	-11.7895
▁divisa	-11.7896
▁imperativo	-11.7897
mite	-11.7899
▁concentrazioni	-11.7899
▁uscita	-11.7902
▁quotidiani	-11.7914
▁ripetuto	-11.7914
▁inganna	-11.7914
▁protetto	-11.7915
▁Prendo	-11.7918
▁sacrifica	-11.7919
▁consola	-11.7922
▁commettere	-11.7924
tch	-11.7924
▁incoraggiamento	-11.7932
▁rammentare	-11.7933
▁effettive	-11.7936
▁meridionali	-11.7937
▁suddette	-11.7937
▁tunnel	-11.7937
▁perduto	-11.7938
▁ritorna	-11.7941
▁ringrazia	-11.7944
▁indagare	-11.7947
▁descrivere	-11.7947
▁consiglia	-11.7948
pedi	-11.795
▁delusi	-11.7953
▁occupata	-11.7955
▁federali	-11.7956
▁Arafat	-11.7959
▁Azzorre	-11.7959
▁imprimere	-11.7959
▁Siviglia	-11.7959
▁argomentazione	-11.7962
▁praticabile	-11.7963
▁nutrono	-11.7965
▁fatica	-11.7967
▁migliorerà	-11.7967
▁Europeo	-11.797
▁imponendo	-11.7971
▁infrastruttura	-11.7972
▁valorizzare	-11.7973
▁sfrutta	-11.798
▁elezione	-11.798
▁Fontaine	-11.7981
▁IND	-11.7981
▁John	-11.7981
▁Obama	-11.7981
▁cosmetici	-11.7981
▁chiusi	-11.7981
zzazioni	-11.7984
▁costosa	-11.7984
▁austerità	-11.7988
▁aumentati	-11.7992
▁nascere	-11.7996
▁votiamo	-11.7997
▁rispettosa	-11.8002
insegna	-11.8002
▁stimato	-11.8003
▁ministeri	-11.8003
▁Wogau	-11.8004
▁rimborsa	-11.8004
▁rigido	-11.8004
▁Herman	-11.8005
▁contesti	-11.8006
▁controllato	-11.8007
▁contrattuali	-11.8007
▁persegue	-11.8007
▁stabilisca	-11.8008
▁trascurato	-11.8009
▁registrata	-11.8015
▁impegnando	-11.8017
▁tratterebbe	-11.8017
je	-11.8022
SP	-11.8025
▁specialisti	-11.8025
▁spunti	-11.8026
▁Potrei	-11.8049
▁archivi	-11.8049
▁fitosanitari	-11.8049
▁resistere	-11.8049
▁Robert	-11.8049
▁2014	-11.8051
▁compra	-11.8053
▁negoziatori	-11.8056
▁sfondo	-11.806
▁trattamenti	-11.8065
▁ottempera	-11.807
▁Appoggiamo	-11.8071
▁Prestige	-11.8071
▁assoggetta	-11.8071
▁cliente	-11.8071
▁correlate	-11.8071
▁David	-11.8073
emissione	-11.8074
▁restanti	-11.8077
▁mediatore	-11.8078
▁1-	-11.8092
▁Bangladesh	-11.8094
▁cristiana	-11.8094
▁ucciso	-11.8094
▁task	-11.8095
▁burocratica	-11.8096
▁prof	-11.8101
han	-11.8111
DEM	-11.8112
▁passe	-11.8113
▁passaporti	-11.8117
▁prematuro	-11.8117
▁quantitativo	-11.8117
▁restrizione	-11.8117
▁sconfitta	-11.8117
▁padre	-11.8117
▁occorrerebbe	-11.8121
mprenditorialità	-11.8129
▁Rio	-11.813
▁nati	-11.8134
zziamo	-11.8137
INI	-11.8137
▁fattibile	-11.8138
▁presieduto	-11.8139
▁famoso	-11.8139
▁corrispondenza	-11.8143
▁farvi	-11.8143
ct	-11.8143
▁Cox	-11.815
vu	-11.8151
oliva	-11.8152
▁fondatori	-11.8154
▁formulati	-11.8157
▁intendeva	-11.8159
▁provare	-11.8161
▁Spe	-11.8161
q	-11.8162
▁racconta	-11.8162
▁cioccolato	-11.8162
▁realistici	-11.8164
errore	-11.8164
▁rivelano	-11.8165
▁dipendente	-11.8167
▁fermi	-11.8167
▁violati	-11.8168
▁motto	-11.817
▁causando	-11.8177
▁Organizzazione	-11.8181
rcene	-11.8183
▁visibili	-11.8183
democratici	-11.8184
▁ipocrita	-11.8185
▁schema	-11.8185
evasione	-11.8188
▁armonizzato	-11.8193
▁progressista	-11.8197
iano	-11.8198
▁minare	-11.8202
▁Mandelson	-11.8208
▁annuo	-11.8208
▁prosecuzione	-11.8208
▁transatlantica	-11.8208
▁festeggia	-11.8208
coli	-11.8209
▁certificati	-11.8213
▁Viene	-11.8215
▁15.00	-11.8219
▁indichi	-11.822
dotto	-11.8224
▁specula	-11.8225
sono	-11.8226
▁elementari	-11.8231
▁fiume	-11.8231
▁restrittiva	-11.8231
rmoni	-11.8232
▁Volevo	-11.8233
▁contano	-11.8236
▁trasformarsi	-11.8237
▁Berg	-11.8237
▁riformatori	-11.8238
▁mobile	-11.8239
▁spostare	-11.8242
▁organizzate	-11.8247
▁regolamentata	-11.8248
cert	-11.825
▁onorare	-11.8252
▁jugoslava	-11.8254
▁rallegriamo	-11.8254
▁esenzioni	-11.8254
▁congratulandomi	-11.8254
▁decessi	-11.8255
▁concordate	-11.8255
▁praticare	-11.8256
▁verifichi	-11.8261
▁fondamentalismo	-11.8264
nzo	-11.8264
▁cipriota	-11.8267
▁ovviare	-11.8268
▁sessant	-11.8273
▁confederale	-11.8277
▁riducono	-11.8277
▁seguono	-11.8277
▁Tenendo	-11.8277
▁malaria	-11.8279
▁diversifica	-11.828
▁svolgano	-11.8282
▁tecnicamente	-11.8283
▁incapacità	-11.8285
▁prevedendo	-11.8296
▁arretr	-11.83
▁biomassa	-11.83
▁caloroso	-11.83
▁constatiamo	-11.83
adattamento	-11.8301
▁significare	-11.8301
▁viaggiatori	-11.8301
▁concordata	-11.8308
▁edificio	-11.8308
▁rappresentino	-11.8309
▁colgo	-11.8311
anima	-11.8314
94	-11.8314
▁Belgrado	-11.8323
▁Cerchiamo	-11.8323
▁Lulling	-11.8323
▁Medina	-11.8323
▁condivida	-11.8323
▁prudente	-11.8323
▁scozzese	-11.8323
▁spunto	-11.8323
▁venticinque	-11.8323
annuncio	-11.8324
elettorato	-11.8327
▁accompagnamento	-11.8328
▁conversione	-11.8337
▁56	-11.8337
▁FMI	-11.8337
ny	-11.8342
▁gigante	-11.8346
▁decentramento	-11.8346
▁imparziale	-11.8346
▁proponga	-11.8346
▁coperti	-11.8346
▁proteine	-11.8346
▁rallentamento	-11.8349
▁visitare	-11.8349
▁provato	-11.8359
▁assunzione	-11.8361
pong	-11.8366
▁Colonia	-11.837
▁Indubbiamente	-11.837
▁custode	-11.837
▁promossa	-11.837
▁sostenitore	-11.837
▁missili	-11.837
Se	-11.8372
astensione	-11.8372
91	-11.8373
BG	-11.8375
▁verificate	-11.8375
▁trovati	-11.8379
ovest	-11.8384
▁lasciamo	-11.8385
aspettativa	-11.8388
▁Byrne	-11.8393
▁Passando	-11.8393
▁moderazione	-11.8393
▁rovescia	-11.8393
▁propositi	-11.8393
▁venuti	-11.8393
▁spiacevole	-11.8393
▁ordinamenti	-11.8395
7-0	-11.8396
▁presenteremo	-11.84
▁elaborati	-11.84
▁esclusivo	-11.8401
▁eliminando	-11.8401
▁intenti	-11.8402
▁rifiutano	-11.8413
▁Velzen	-11.8416
▁gravidanza	-11.8416
▁innegabile	-11.8416
▁produttive	-11.8416
▁puntuale	-11.8416
▁García	-11.8416
▁continenti	-11.8416
▁percezione	-11.8417
▁bande	-11.8421
▁renderebbe	-11.8423
▁separata	-11.8424
▁collocazione	-11.8427
▁esisteva	-11.8428
▁approvi	-11.8432
▁ormoni	-11.8433
▁cala	-11.8439
▁Galizia	-11.844
▁elenchi	-11.844
▁grossi	-11.844
Avorio	-11.844
assoluta	-11.8441
▁radice	-11.8441
▁morire	-11.8442
▁drasticamente	-11.8443
▁embargo	-11.8443
▁casse	-11.8448
▁osservatore	-11.8454
▁AIDS	-11.8456
scrivo	-11.8461
▁Mulder	-11.8463
▁costruttive	-11.8463
▁escluse	-11.8463
affidabilità	-11.8464
▁raddoppiare	-11.8465
▁conseguenti	-11.8468
▁confrontarsi	-11.847
▁equilibri	-11.8475
▁prega	-11.8479
▁esprimono	-11.8482
▁delineare	-11.8487
▁Mauritania	-11.8487
▁Nielson	-11.8487
▁riformula	-11.8487
▁quantomeno	-11.8487
▁svantaggiati	-11.8488
▁vitali	-11.8489
▁orientali	-11.8493
▁aggira	-11.8495
▁aspettarci	-11.8497
▁registrate	-11.8498
▁razza	-11.8498
ON	-11.8501
▁rimette	-11.8504
▁associato	-11.8505
▁dimostrati	-11.8508
▁neutrali	-11.8509
▁ambedue	-11.851
▁geografico	-11.851
▁olimpici	-11.851
▁restituire	-11.851
▁CIA	-11.851
▁suddivisione	-11.851
▁vaglio	-11.851
▁generosità	-11.8511
▁liberalizzare	-11.8514
▁sconvol	-11.8517
▁ostaggio	-11.8518
▁inquadra	-11.852
▁significhi	-11.8534
▁interpella	-11.8534
▁raramente	-11.8534
▁atrocità	-11.8534
▁camion	-11.8534
▁includa	-11.8534
caseari	-11.8538
▁Applausi	-11.8547
▁umanità	-11.8553
▁parto	-11.8556
indebitamento	-11.8558
▁fisiche	-11.8558
▁nucleo	-11.8558
▁ritenuta	-11.8558
▁asiatici	-11.8558
▁ragionamento	-11.8558
▁accento	-11.8558
▁adottino	-11.8562
▁armonizzate	-11.8563
▁radioattivi	-11.8568
▁importare	-11.8579
▁rigidi	-11.858
▁viceversa	-11.8581
▁Intendiamo	-11.8581
▁piaga	-11.8581
▁permangono	-11.8581
▁sentiti	-11.8582
orientale	-11.8582
▁ettari	-11.8583
avvenire	-11.8584
▁approviamo	-11.8584
▁term	-11.8585
▁force	-11.8586
▁nutriamo	-11.8588
by	-11.8592
▁concepito	-11.8605
▁concorrenziale	-11.8605
▁esaurito	-11.8605
▁israeliane	-11.8605
▁riaprire	-11.8605
stan	-11.8608
▁generato	-11.861
▁scrive	-11.8611
▁svolgeranno	-11.8619
▁causata	-11.862
▁cicli	-11.8625
▁domestici	-11.8629
▁eccedenze	-11.8629
▁pollame	-11.8629
▁ristretto	-11.8629
▁salmone	-11.8629
▁frustrazione	-11.8632
▁intermediari	-11.8635
▁provvisorio	-11.8636
▁Tri	-11.8638
▁precisazione	-11.8647
▁delegati	-11.8649
voglia	-11.8651
▁delicate	-11.8652
▁impedisca	-11.8653
▁satellitare	-11.8653
▁trasversale	-11.8653
▁Evans	-11.8653
▁circolo	-11.8658
▁Pu	-11.866
▁inchiesta	-11.866
▁stipula	-11.866
illusione	-11.8663
▁spende	-11.8671
▁indiretta	-11.8672
▁venivano	-11.8674
▁Entrambe	-11.8677
▁Entrambi	-11.8677
▁impazienza	-11.8677
▁modesti	-11.8677
▁vedute	-11.8677
▁fautori	-11.8677
▁ecologiche	-11.8677
▁entrati	-11.8678
▁giudicato	-11.8679
▁continuando	-11.8679
▁provocando	-11.8687
▁preoccup	-11.8695
▁presentarsi	-11.8695
Uzbekistan	-11.8701
ricongiungimento	-11.8701
▁Facciamo	-11.8701
▁Sovietica	-11.8701
▁ceco	-11.8703
come	-11.8704
▁incidere	-11.8707
▁Alle	-11.8707
▁segui	-11.8707
95	-11.8713
▁57	-11.8715
dra	-11.8715
the	-11.8716
▁parlava	-11.8717
▁massacro	-11.8725
▁protocolli	-11.8725
▁opposti	-11.8725
▁regge	-11.8725
▁scetticismo	-11.8726
▁finalizzati	-11.8726
▁fieri	-11.8728
▁creerebbe	-11.873
▁rimangano	-11.873
▁Europe	-11.8739
▁nato	-11.8741
▁concentrando	-11.8746
ambasciatore	-11.8749
ä	-11.8749
▁Burundi	-11.8749
▁Cardiff	-11.8749
▁giornale	-11.8749
▁incapace	-11.8749
▁Kyi	-11.8749
▁propugna	-11.8749
▁basilari	-11.8749
▁fattura	-11.8749
▁illumina	-11.8749
▁miliare	-11.8749
▁salda	-11.8749
▁reitera	-11.8749
▁vanifica	-11.8749
▁arrivo	-11.8754
sposta	-11.8759
▁trattandosi	-11.8759
▁direttivo	-11.8763
▁mandare	-11.8767
▁iscrivere	-11.8772
rosi	-11.8772
=	-11.8773
▁biometrici	-11.8773
▁prevedibili	-11.8773
▁software	-11.8773
▁troveranno	-11.8773
▁asiatico	-11.8773
▁borse	-11.8774
▁Langen	-11.8775
▁previa	-11.8777
48	-11.8778
▁130	-11.878
▁temporaneamente	-11.878
▁Quella	-11.8781
▁prorogare	-11.8781
▁superata	-11.8783
▁vasti	-11.8784
▁grandissima	-11.8786
▁succedendo	-11.8794
▁boschi	-11.8796
▁licenza	-11.8798
▁biologiche	-11.8798
▁Nobel	-11.8798
▁persuadere	-11.8799
misura	-11.88
▁cessazione	-11.88
▁climatica	-11.8803
▁riceverà	-11.8809
▁contingente	-11.8822
▁dispiega	-11.8822
▁utilizzi	-11.8822
▁drammatiche	-11.8823
▁riunisce	-11.8824
Y	-11.8824
este	-11.8824
af	-11.8825
▁minoritarie	-11.8826
▁volevano	-11.8827
legge	-11.883
▁oppongo	-11.883
▁fila	-11.8831
adeguatezza	-11.8832
▁geo	-11.8834
afta	-11.8835
▁lotte	-11.8836
▁85	-11.884
▁minacciano	-11.8841
▁ostacolano	-11.8842
▁Oostlander	-11.8846
▁impedendo	-11.8846
▁reclami	-11.8846
▁risolte	-11.8846
▁degrada	-11.8846
▁soffermerò	-11.8847
▁trilogo	-11.8847
▁statistica	-11.8849
▁isolamento	-11.8852
▁consultati	-11.8859
scritti	-11.8868
Associazione	-11.8871
abitudine	-11.8871
▁incarichi	-11.8871
▁sleali	-11.8871
▁profondità	-11.8872
▁largamente	-11.8875
▁scoraggia	-11.8878
▁Manca	-11.8879
▁rinnovata	-11.8879
vale	-11.8879
oc	-11.888
▁mandati	-11.8881
▁esser	-11.8882
▁seguite	-11.8887
▁approfondimento	-11.8889
RA	-11.8895
▁proceduto	-11.8895
▁svariate	-11.8895
▁crolla	-11.8895
▁correlati	-11.8895
▁agiscono	-11.8896
▁araba	-11.8896
▁aprendo	-11.8896
▁volevamo	-11.8901
▁divenga	-11.8903
ide	-11.8904
ping	-11.8909
scritta	-11.8917
delocalizzazioni	-11.8917
▁nemico	-11.892
▁importatori	-11.8926
▁bastano	-11.8926
▁Suu	-11.8929
▁dannose	-11.8937
▁perpetra	-11.894
▁stanzia	-11.8942
▁cofinanzia	-11.8943
▁Ordine	-11.8945
▁disperazione	-11.8945
▁gettito	-11.8945
▁Sistema	-11.8945
▁protette	-11.8945
▁peculiarità	-11.8945
▁renderlo	-11.8947
▁contrattuale	-11.8949
geni	-11.895
▁avvocato	-11.8953
▁costanti	-11.8961
Non	-11.8962
▁prontamente	-11.8964
▁comportarsi	-11.8967
▁pagano	-11.8967
▁Bourlanges	-11.8969
▁pacifici	-11.8969
▁modesta	-11.8969
▁concordati	-11.8971
ennesimo	-11.8971
▁perseguimento	-11.8972
▁consentirci	-11.8972
▁revocare	-11.8974
▁riassumere	-11.8979
▁stipulato	-11.8982
▁attimo	-11.8984
ngue	-11.8984
2003)	-11.8993
▁inviata	-11.8994
▁Ankara	-11.8994
▁Baronessa	-11.8994
▁Continueremo	-11.8994
▁Giochi	-11.8994
▁automatico	-11.8994
▁terapie	-11.8994
▁calcoli	-11.8994
▁canale	-11.8997
▁Estonia	-11.9
▁oggettiva	-11.9004
▁anticipato	-11.9005
deboli	-11.9015
▁riaffermare	-11.9018
rbo	-11.9018
▁battuta	-11.9019
▁compiuta	-11.9019
▁donazioni	-11.9019
▁esaminerà	-11.9019
▁pragmatico	-11.9019
▁attinenti	-11.9019
▁invenzioni	-11.9019
interessa	-11.9022
▁reinserimento	-11.9022
▁monetarie	-11.9028
▁fili	-11.9043
Obiettiv	-11.9044
▁dignitoso	-11.9044
▁medesimi	-11.9044
▁imponga	-11.9044
▁udito	-11.9044
▁ostilità	-11.9044
5-04	-11.9045
▁comparti	-11.9046
▁esposizione	-11.9052
▁salutare	-11.9057
▁presti	-11.906
33	-11.9069
▁Coelho	-11.9069
▁Rothley	-11.9069
▁esprimiamo	-11.9069
▁lungimirante	-11.9069
▁magistratura	-11.9069
▁cap	-11.9069
▁Karas	-11.9069
▁intacca	-11.907
▁valuti	-11.9071
▁sfruttando	-11.9071
▁ogniqualvolta	-11.9071
elevato	-11.9071
▁International	-11.9072
▁insicurezza	-11.9076
della	-11.9089
desertificazione	-11.9094
▁corrisponda	-11.9094
▁inopportuno	-11.9094
▁risulterebbe	-11.9094
▁tacere	-11.9094
▁rapide	-11.9094
▁acquisita	-11.9094
▁inciso	-11.9095
caseario	-11.9096
▁designazione	-11.9097
▁dicevo	-11.9097
▁progressivo	-11.9098
▁confermano	-11.9098
▁fornitore	-11.9103
▁abbassare	-11.9107
▁emendare	-11.9111
due	-11.9112
▁eventualità	-11.9115
▁Florenz	-11.9119
▁bisognerà	-11.9119
▁fiumi	-11.9119
▁ultra	-11.9119
▁condizionalità	-11.9119
▁relega	-11.9119
▁originari	-11.9119
▁pausa	-11.912
urgente	-11.9121
▁Comunico	-11.9123
▁agevolazioni	-11.9124
▁Voi	-11.9125
46	-11.9125
▁raggiunga	-11.9128
bur	-11.9128
▁mod	-11.9129
▁inserimento	-11.913
199	-11.9131
▁sala	-11.9136
▁serbo	-11.9136
▁Cionondimeno	-11.9144
▁González	-11.9144
▁Riconosco	-11.9144
▁assurda	-11.9144
▁disordini	-11.9144
▁medesime	-11.9144
▁trasformi	-11.9144
▁Sierra	-11.9144
▁rivaluta	-11.9144
▁definisca	-11.9144
▁lieve	-11.9144
▁vigile	-11.9144
▁voluta	-11.9144
▁drammatici	-11.9145
organismo	-11.9148
▁transitorie	-11.9149
▁ordinamento	-11.9151
▁accusati	-11.9152
▁batteri	-11.9152
▁obbligare	-11.9152
▁siglato	-11.9155
▁Aung	-11.9158
▁realizzi	-11.9162
▁sottolineano	-11.9163
▁renderla	-11.9165
▁Fer	-11.9167
▁ricicla	-11.9168
▁inaugur	-11.9169
▁affliggono	-11.9169
▁discariche	-11.9169
▁scrupolo	-11.9169
▁uccelli	-11.9169
▁povero	-11.9169
▁Forum	-11.917
▁vaste	-11.9178
▁pluriennali	-11.9194
▁riteneva	-11.9194
▁qualitativi	-11.9194
▁dittature	-11.9194
▁piazza	-11.9195
▁versioni	-11.9195
▁suicidi	-11.9196
▁Alzheimer	-11.92
▁dottor	-11.9202
delocalizzazione	-11.9207
▁finisca	-11.9207
▁fl	-11.9215
EP	-11.9216
▁falsifica	-11.9219
▁Altrettanto	-11.922
▁sinergia	-11.922
▁ferite	-11.922
▁divenuta	-11.922
▁diventeranno	-11.922
▁etichette	-11.922
▁saccheggi	-11.922
▁sottolinei	-11.922
regola	-11.922
▁generalizzata	-11.9223
nanzi	-11.9232
▁impedir	-11.9237
▁aspettarsi	-11.9237
▁individuati	-11.9241
▁garante	-11.9244
▁audiovisivi	-11.9245
▁avverte	-11.9245
▁immediati	-11.9245
▁tralascia	-11.9245
▁nocive	-11.9245
▁rivisto	-11.9245
▁caldamente	-11.9246
▁ripristina	-11.9247
▁boschivi	-11.9249
▁farla	-11.9251
▁prefissati	-11.9253
▁vulnerabilità	-11.9253
▁atteso	-11.9255
▁aiutarci	-11.9255
▁terroristica	-11.9257
▁frustr	-11.9257
▁totalitari	-11.9258
▁incoraggianti	-11.9259
gor	-11.9263
▁lasciati	-11.9267
▁costruendo	-11.927
▁troika	-11.927
▁Disponiamo	-11.927
▁cortesia	-11.9271
▁concesse	-11.9271
▁assumano	-11.9273
insorgere	-11.9273
▁rivendicazioni	-11.9274
▁Nessuna	-11.9281
▁63	-11.9287
▁Vedo	-11.929
▁priori	-11.9294
▁Tenuto	-11.9296
interferenza	-11.9296
▁autonome	-11.9296
▁talebani	-11.9296
▁prolungare	-11.9301
▁riduca	-11.9302
▁evitato	-11.9303
▁approvando	-11.9304
▁stampo	-11.931
▁monte	-11.9311
▁Erika	-11.9314
▁perseguiti	-11.9316
▁statistico	-11.9317
▁Spazio	-11.9322
▁astenersi	-11.9322
▁protagonista	-11.9322
▁concorde	-11.9322
▁mutamento	-11.9326
▁tracciare	-11.9327
▁aiutando	-11.9335
ring	-11.9339
▁analizzato	-11.934
▁ampliata	-11.9344
▁appella	-11.9347
▁otterremo	-11.9347
apparato	-11.9347
▁sovranazionale	-11.9347
▁spostamento	-11.9351
▁delineato	-11.9356
▁esula	-11.9363
aglio	-11.9372
Gioventù	-11.9373
▁espande	-11.9373
▁greche	-11.9373
▁permessi	-11.9373
▁tempestività	-11.9373
har	-11.9375
▁ammontano	-11.9379
▁bello	-11.938
▁restando	-11.938
▁esortato	-11.939
▁verifichino	-11.9391
sch	-11.9395
▁importantissima	-11.9395
▁alluvioni	-11.9399
▁depositi	-11.9399
▁introiti	-11.9399
▁process	-11.9402
▁conducendo	-11.9405
▁formalità	-11.9407
▁vantaggiosa	-11.941
▁isolato	-11.9413
▁approfondite	-11.9414
Un	-11.9417
▁confermata	-11.9418
▁avvale	-11.9418
▁generosa	-11.9424
▁intrapresi	-11.9424
▁sapremo	-11.9424
▁Ripeto	-11.9424
▁vicine	-11.9425
▁cenno	-11.9425
▁decade	-11.9425
▁boccia	-11.9426
▁lavorative	-11.9426
▁generici	-11.9427
▁lasciata	-11.9427
uba	-11.9428
▁ottimista	-11.9428
islam	-11.9428
▁intensa	-11.9433
▁finiscono	-11.9433
▁cara	-11.9438
▁imminente	-11.9443
Plath	-11.945
▁Ruanda	-11.945
▁sostentamento	-11.945
▁apprezziamo	-11.9451
estinzione	-11.9451
▁spetti	-11.9455
▁obbligato	-11.9458
▁peggiorare	-11.9459
▁stabilendo	-11.9462
▁desiderare	-11.9466
▁Juncker	-11.9476
▁incaricata	-11.9476
▁interviene	-11.9476
▁petrolifere	-11.9476
▁vorranno	-11.9476
▁anziane	-11.9476
▁estate	-11.9478
▁58	-11.948
▁chiamate	-11.948
▁fabbricazione	-11.9484
▁medi	-11.9486
▁assumerci	-11.9488
logica	-11.9489
▁innalzare	-11.9489
▁inviati	-11.9492
▁minacciati	-11.9495
▁moltissime	-11.9495
▁XX	-11.9496
▁offrir	-11.9498
▁valutati	-11.95
▁rispondendo	-11.9501
▁ritardare	-11.9501
▁benzina	-11.9502
▁verbali	-11.9502
▁finanza	-11.9502
▁falso	-11.9502
▁onesto	-11.9503
▁Atene	-11.9503
▁sommato	-11.9505
▁regolarità	-11.9508
▁Kar	-11.951
▁istituto	-11.9517
intensificazione	-11.9519
▁coi	-11.952
▁manda	-11.9524
▁confondere	-11.9524
organi	-11.9525
▁remunera	-11.9525
▁incarcera	-11.9526
▁reciproci	-11.9527
▁ampliato	-11.9528
tradizionalmente	-11.9529
▁Randzio	-11.9529
▁Yemen	-11.9529
▁idrico	-11.9529
▁istruzioni	-11.9529
▁Parliamo	-11.9529
▁compensazioni	-11.9532
24	-11.9535
▁audit	-11.9538
▁lavorazione	-11.954
▁svoltosi	-11.954
alcool	-11.9543
▁basare	-11.9543
▁intraprende	-11.9545
▁conquistare	-11.9547
appe	-11.9548
ennale	-11.9548
Behrendt	-11.9555
afflusso	-11.9555
▁austriaci	-11.9555
▁proporzione	-11.9555
▁sosterremo	-11.9555
▁ragionevolmente	-11.9555
▁passate	-11.9558
34	-11.9561
▁fossimo	-11.9561
▁capisce	-11.9564
▁Giustizia	-11.9566
spetta	-11.9569
▁penalizzare	-11.9569
▁Pres	-11.9572
▁99	-11.9572
▁emenda	-11.9579
media	-11.958
UCLAF	-11.9581
utotrasportatori	-11.9581
▁Schreyer	-11.9581
▁giudico	-11.9581
▁sinonimo	-11.9581
▁inutilmente	-11.9581
▁confisca	-11.9581
▁apparire	-11.9583
▁fiori	-11.9583
Signor	-11.9585
USA	-11.9587
▁avviando	-11.959
▁metterà	-11.959
▁conduca	-11.9591
▁rafforzate	-11.9592
▁Basti	-11.9594
▁condivise	-11.9607
▁incompatibile	-11.9607
▁sprechi	-11.9607
▁Risulta	-11.9607
▁coniuga	-11.9607
amianto	-11.9607
▁statu	-11.9609
esistente	-11.961
▁versare	-11.9612
▁inquietudine	-11.9613
▁portate	-11.9614
asta	-11.9618
▁dovevano	-11.962
▁bis	-11.9622
▁Ya	-11.9627
▁parlarne	-11.9628
▁metro	-11.9631
▁Nutro	-11.9634
▁illecito	-11.9634
▁dichiarati	-11.9634
▁cambierà	-11.9635
6-00	-11.9651
▁sigla	-11.9652
▁compete	-11.9659
▁Bösch	-11.966
▁Concordiamo	-11.966
▁condurrà	-11.966
▁piede	-11.966
▁emesso	-11.9661
mal	-11.9663
aggiornamento	-11.9664
▁integrità	-11.9666
▁urne	-11.9667
▁recupera	-11.9669
▁attese	-11.9672
▁mettiamo	-11.9673
▁affront	-11.9674
▁obbligazioni	-11.9674
▁ingerenza	-11.9674
▁tranquilli	-11.9685
▁bombarda	-11.9686
▁suprema	-11.9686
▁Nabucco	-11.9687
▁dubito	-11.9687
▁scomparire	-11.9687
▁spostamenti	-11.9689
▁scarsità	-11.9689
▁stimoli	-11.9689
▁pronunciare	-11.9694
iana	-11.9694
▁adatti	-11.9695
▁ripeta	-11.9697
▁matrimonio	-11.9698
▁porci	-11.9698
▁colpe	-11.9709
▁averlo	-11.9711
▁arrestato	-11.9713
▁assicuro	-11.9713
▁entreranno	-11.9713
▁flagello	-11.9713
▁ricevute	-11.9713
▁otterrà	-11.9713
▁lobbisti	-11.9714
▁Ku	-11.9722
TA	-11.9723
▁chiederei	-11.9724
▁avvicinamento	-11.9732
▁Dico	-11.9734
▁Aggiungo	-11.974
▁sembrerebbe	-11.974
▁Rimane	-11.974
▁macroeconomica	-11.974
▁invertire	-11.974
▁appropriati	-11.974
▁Tanto	-11.9742
infrazione	-11.9744
incirca	-11.9747
▁tappeto	-11.975
▁giustificati	-11.9751
▁lavoriamo	-11.9758
▁pregiudizio	-11.9759
▁uccide	-11.976
▁cominci	-11.9765
▁riunito	-11.9765
▁Berès	-11.9767
▁Chirac	-11.9767
▁Seattle	-11.9767
▁Wynn	-11.9767
▁discutibile	-11.9767
▁munizioni	-11.9767
▁slogan	-11.9767
▁duplica	-11.9767
▁sofferto	-11.9767
▁spirale	-11.9767
▁assegnazione	-11.9767
▁macro	-11.9769
controproducente	-11.9769
▁collettività	-11.9771
▁manipolazione	-11.9771
▁Vista	-11.9778
▁perpetrate	-11.9778
▁minacciata	-11.9779
▁toccare	-11.9792
▁Quasi	-11.9793
▁SWIFT	-11.9793
▁cercherò	-11.9793
▁handicap	-11.9793
▁scolastici	-11.9793
▁tenacia	-11.9793
▁allegati	-11.9794
▁ringraziarlo	-11.9796
appartenenza	-11.9798
▁integrale	-11.9806
arch	-11.9812
▁gestite	-11.9813
▁marine	-11.9815
▁muovendo	-11.9817
bert	-11.9817
▁adegua	-11.982
grafia	-11.982
Democratico	-11.982
▁costruita	-11.982
▁figure	-11.982
▁tossiche	-11.982
▁vincitori	-11.982
▁vulnerabile	-11.982
▁alimentazione	-11.9843
▁consolidato	-11.9844
▁divulga	-11.9844
orizzonte	-11.9847
▁fulcro	-11.9847
▁ritenendo	-11.9847
▁ucraino	-11.9847
▁tavola	-11.9847
▁connesso	-11.9848
▁favoriscono	-11.9848
▁riusciranno	-11.985
▁stabilimenti	-11.9851
elevata	-11.9852
▁verificando	-11.9859
▁realizzando	-11.9859
▁precisazioni	-11.9862
▁esordire	-11.9862
▁Anno	-11.9868
offensiva	-11.9874
▁Dimas	-11.9874
omicidio	-11.9874
▁problematico	-11.9876
▁andiamo	-11.9879
▁66	-11.988
▁valutata	-11.9884
foni	-11.9884
▁prosegua	-11.9889
▁incentrato	-11.9889
▁concordano	-11.989
▁sollecitato	-11.9891
▁seppur	-11.9893
▁individuate	-11.9896
utili	-11.9897
▁guardi	-11.9897
▁combinato	-11.99
▁vaga	-11.9901
▁antifrode	-11.9901
▁traggono	-11.9901
▁disperata	-11.9901
▁Castro	-11.9903
▁sorgere	-11.9903
▁solitamente	-11.9903
▁diviso	-11.9905
▁eredi	-11.9907
▁quanta	-11.9909
letto	-11.991
▁assorbimento	-11.9911
▁evolve	-11.9911
▁cessa	-11.9915
▁devia	-11.992
avvicin	-11.9922
▁accenna	-11.9926
▁abbattere	-11.9927
▁pagati	-11.9928
▁illeciti	-11.9929
▁nuoce	-11.9929
▁tedesche	-11.9929
▁macchine	-11.9929
▁spiana	-11.993
▁divulgazione	-11.9932
▁anticipata	-11.9932
▁temporale	-11.9937
▁disastrose	-11.994
▁vento	-11.9941
▁distingue	-11.9948
centrate	-11.995
obesità	-11.9956
▁Rübig	-11.9956
▁Singapore	-11.9956
▁focalizza	-11.9956
▁mutuo	-11.9956
▁conviene	-11.9956
99	-11.9957
affermare	-11.9958
▁mostri	-11.9958
▁specializzati	-11.9958
▁generalizzate	-11.9958
▁straordinarie	-11.9962
▁averne	-11.9964
23	-11.9968
▁vinto	-11.997
▁investe	-11.997
▁rischiamo	-11.9971
▁annunciata	-11.9974
partiti	-11.9981
▁pretende	-11.9982
▁rientro	-11.9983
▁pulite	-11.9983
▁allarmanti	-11.9983
▁orgoglioso	-11.9985
▁permane	-11.9985
▁cinema	-11.9985
AL	-11.9986
▁episodio	-11.9986
▁minacciato	-11.9989
▁coordinate	-11.9997
iamoci	-11.9999
▁commercia	-11.9999
▁Galles	-12.0011
▁club	-12.0011
▁definiscono	-12.0011
▁Green	-12.0011
▁divenuto	-12.0011
▁insomma	-12.0011
▁grassi	-12.0011
▁modernizzare	-12.0012
▁Avendo	-12.0012
ingegneria	-12.0015
▁intensamente	-12.0015
efficiente	-12.0016
▁ricrea	-12.0016
▁fondamenti	-12.0017
▁pazza	-12.002
▁aumentate	-12.0023
COS	-12.0024
▁preoccuparci	-12.0026
▁semplificata	-12.0029
▁Bali	-12.0029
evidente	-12.0034
▁Sterckx	-12.0038
▁Titley	-12.0038
▁trainante	-12.0038
▁errato	-12.0038
▁discende	-12.0038
▁rabbia	-12.0038
▁severo	-12.0038
▁brillante	-12.004
▁commercianti	-12.0041
▁2050	-12.0042
ecosistema	-12.0042
trarre	-12.0043
▁alleato	-12.0043
▁rilasciate	-12.0044
▁avvicinarsi	-12.0048
▁coglie	-12.0049
▁discuterà	-12.0049
▁rimpatri	-12.0054
▁apprezzare	-12.0057
▁riservati	-12.0064
▁decidono	-12.0066
▁esperto	-12.0066
▁connessa	-12.0066
▁subisce	-12.0067
▁minerari	-12.0067
▁patate	-12.0067
▁suggerisco	-12.0071
▁ascoltando	-12.0073
▁terroristico	-12.0077
▁antiuomo	-12.0086
27	-12.0087
▁occuperà	-12.0093
▁procinto	-12.0093
▁decimo	-12.0093
▁giudizi	-12.0093
IT	-12.0094
▁testimonianza	-12.0096
sviluppo	-12.0099
▁automobilisti	-12.01
IN	-12.0106
▁matrimoni	-12.0109
▁massimali	-12.0111
26	-12.0114
▁consulenti	-12.0121
▁disattivazione	-12.0121
▁zolfo	-12.0121
Arabia	-12.0121
duciamo	-12.0121
▁rotazione	-12.0121
▁ovini	-12.0121
▁dentro	-12.0123
▁annua	-12.0125
▁ondata	-12.0125
▁analogamente	-12.0128
▁trasferiti	-12.0129
▁lasciar	-12.0129
▁equivalenti	-12.013
▁confrontare	-12.0131
▁ispirato	-12.0134
sson	-12.0143
▁comprendiamo	-12.0149
▁demografici	-12.0149
▁preferenziale	-12.0149
▁venduti	-12.0149
▁optato	-12.015
▁impianto	-12.015
▁costose	-12.0151
▁accurata	-12.0151
▁bocca	-12.0152
▁gradito	-12.0155
▁visitatori	-12.0164
▁coraggioso	-12.0166
▁appoggi	-12.0167
▁orientato	-12.0171
▁profondi	-12.0176
▁CECA	-12.0177
▁congiunti	-12.0177
▁divergenza	-12.0177
▁raccolte	-12.0177
▁rotaia	-12.0177
▁tempestivo	-12.0177
▁bombardamenti	-12.0178
▁manchi	-12.0178
▁decisivi	-12.0184
▁esprimermi	-12.0185
▁condannata	-12.0186
▁informativo	-12.0193
▁Ortega	-12.0204
▁coinvolga	-12.0204
▁rimarranno	-12.0204
▁uniforma	-12.0205
▁stupir	-12.0205
▁stabiliscono	-12.0206
▁assetto	-12.0207
▁congelamento	-12.0208
OCM	-12.021
estradizione	-12.021
▁audiovisivo	-12.0212
▁62	-12.0213
▁ispezione	-12.0216
▁attenuare	-12.0221
▁toni	-12.0223
▁neutrale	-12.0232
▁preferisce	-12.0232
▁rifugiato	-12.0232
▁vedrà	-12.0232
Ossezia	-12.0233
▁straordinari	-12.0235
▁sollev	-12.024
▁concentrata	-12.0245
saccoppiamento	-12.0249
▁Paul	-12.0253
▁totali	-12.0258
▁Rocard	-12.0261
▁adotteremo	-12.0261
▁concomitanza	-12.0261
▁dissenso	-12.0261
▁ideologica	-12.0261
▁linguistico	-12.0261
▁superano	-12.0263
▁ringraziamo	-12.0265
▁informarvi	-12.0265
▁accuratamente	-12.0265
▁cariche	-12.0266
▁gravano	-12.027
▁tent	-12.0271
▁Gra	-12.0276
▁dose	-12.0278
▁ride	-12.0282
▁colma	-12.0282
▁replicare	-12.0284
▁reperi	-12.0284
▁fragili	-12.0287
▁ottengono	-12.0289
▁scrutinio	-12.0289
▁SOCRATES	-12.0289
▁controllati	-12.029
▁considerarsi	-12.0291
▁but	-12.0291
▁concorrenziali	-12.0293
▁firmata	-12.0293
▁climatiche	-12.0294
▁110	-12.0295
Indonesia	-12.0295
▁disagio	-12.0296
▁andava	-12.0296
▁96	-12.0297
▁ottimisti	-12.03
bru	-12.0303
▁estradizione	-12.0311
▁Ford	-12.0312
36	-12.0313
▁accettate	-12.0314
artificio	-12.0317
▁Cashman	-12.0317
▁Chris	-12.0317
▁intervenuta	-12.0317
▁selvaggi	-12.0317
▁avvenendo	-12.0317
▁Insomma	-12.0317
▁2000-2006	-12.0317
▁autorevole	-12.0318
ning	-12.0318
▁sottrarsi	-12.0319
▁generalizzato	-12.0321
▁adottiamo	-12.0323
▁Vole	-12.0324
▁beneficiato	-12.0324
▁indennizzo	-12.0325
▁esami	-12.0337
▁strana	-12.0337
▁veloce	-12.0341
▁rimandare	-12.0343
▁traduca	-12.0345
▁biotecnologie	-12.0345
▁compiute	-12.0345
▁cordoglio	-12.0345
▁tessuti	-12.0345
▁sponde	-12.0345
▁Intende	-12.0346
▁torni	-12.0347
rop	-12.0348
▁assemblea	-12.0353
▁stabilizza	-12.0354
▁riesamina	-12.0356
erba	-12.0368
▁controversi	-12.0369
agricoltore	-12.0374
▁Cisgiordania	-12.0374
▁Wallis	-12.0374
▁parlerò	-12.0374
▁repubblica	-12.0374
▁pulito	-12.0374
▁spingono	-12.0374
▁dissocia	-12.0374
▁distinta	-12.0375
▁Anziché	-12.0375
▁ottimizzare	-12.0375
▁Diversi	-12.0377
▁dettagliati	-12.0378
▁orientare	-12.0379
ipocrisia	-12.038
▁succederà	-12.0384
identi	-12.0386
▁ignorando	-12.0397
▁Vigo	-12.0398
▁variano	-12.04
▁gerarchia	-12.0402
▁multilinguismo	-12.0402
▁negligenza	-12.0402
▁trasmessa	-12.0402
▁troppa	-12.0402
▁dotazioni	-12.0402
▁fiore	-12.0403
▁sottoscritti	-12.0405
▁dimostrino	-12.041
▁Emiciclo	-12.0413
▁invitando	-12.0418
▁minacciate	-12.0418
37	-12.0426
▁separato	-12.0428
eccedenza	-12.0431
▁Blokland	-12.0431
▁Convengo	-12.0431
▁autostrade	-12.0431
▁imperialisti	-12.0431
▁piombo	-12.0431
▁predecessore	-12.0431
▁televisivi	-12.0431
▁plauso	-12.0431
▁miniere	-12.0431
▁socioeconomica	-12.0431
▁diviene	-12.0431
▁speculazioni	-12.0434
terconnessione	-12.0434
▁letteralmente	-12.0434
▁implicano	-12.0438
▁contropartita	-12.0439
▁arroga	-12.0444
▁importato	-12.0449
ñ	-12.0459
▁incaricati	-12.0459
▁sensata	-12.0459
▁Oslo	-12.0459
▁disputa	-12.0459
▁segretario	-12.046
▁barbarie	-12.0463
▁porrà	-12.0466
▁perdura	-12.0468
▁spostarsi	-12.0469
▁riescano	-12.0474
▁sbagliate	-12.0481
attivi	-12.0486
▁Verhofstadt	-12.0488
▁cercheremo	-12.0488
▁improbabile	-12.0488
▁paradossale	-12.0488
▁produrrà	-12.0488
▁armonia	-12.0488
▁accetto	-12.0488
Relatore	-12.0488
▁rafforzati	-12.0492
41	-12.0493
▁contrastanti	-12.0495
▁professionalità	-12.0497
eremmo	-12.0503
▁trasformando	-12.0512
▁fondarsi	-12.0513
▁falsi	-12.0515
▁mantenute	-12.0517
▁emergenze	-12.0521
▁muovere	-12.0525
▁affidata	-12.0526
▁preda	-12.0533
▁Hans	-12.0541
▁Gil	-12.0541
fferenziazione	-12.0542
▁incapaci	-12.0544
▁Almunia	-12.0546
▁aeroportuali	-12.0546
▁aggressioni	-12.0546
▁arriverà	-12.0546
▁dottrina	-12.0546
▁presume	-12.0546
▁spontanea	-12.0546
▁tuteli	-12.0546
▁allevamenti	-12.0546
▁dilemma	-12.0546
▁deplorare	-12.0547
▁finita	-12.0547
▁andate	-12.0549
▁oltretutto	-12.055
benefici	-12.0553
▁inviti	-12.0553
▁Altre	-12.0553
▁nominati	-12.0556
▁nomine	-12.0558
▁smantellare	-12.0561
▁legittimamente	-12.0563
▁Pat	-12.0572
altare	-12.0575
ospedale	-12.0575
▁INTERREG	-12.0575
▁accenno	-12.0575
▁coppie	-12.0575
▁origini	-12.0575
▁revisioni	-12.0575
▁ucraini	-12.0575
▁svaluta	-12.0575
▁inchieste	-12.0575
▁ebrei	-12.0575
▁testé	-12.0578
▁iniziando	-12.0578
▁armato	-12.0579
▁lecito	-12.058
▁mono	-12.0588
▁appartengo	-12.0588
▁viaggia	-12.0593
▁ricambio	-12.0604
▁teorica	-12.0604
▁trasmesse	-12.0604
▁minerali	-12.0604
▁contraenti	-12.0604
élite	-12.0604
▁dotate	-12.0604
▁Paese	-12.0605
▁null	-12.0617
▁Daul	-12.0619
▁affermava	-12.0625
▁scoraggiare	-12.0625
▁applichino	-12.0632
▁Broek	-12.0633
▁condanniamo	-12.0633
▁riluttanza	-12.0633
▁ripetute	-12.0633
▁trasmissibili	-12.0633
▁logistica	-12.0633
▁acustico	-12.0633
▁reinsediamento	-12.0635
▁percorsi	-12.0635
▁migliorano	-12.0645
44	-12.0647
▁bancaria	-12.0651
▁funge	-12.0654
▁Carl	-12.0654
▁esaminati	-12.0658
▁applicarsi	-12.0658
esplosione	-12.0662
▁Nulla	-12.0662
▁brucia	-12.0662
▁compenso	-12.0662
▁concepita	-12.0662
▁includono	-12.0662
▁slovacco	-12.0662
▁stilare	-12.0662
▁apparecchi	-12.0664
▁prestatori	-12.0674
▁137	-12.0674
ghiamo	-12.0676
posizioni	-12.0677
indifferenza	-12.0692
▁11.30.	-12.0692
▁Nepal	-12.0692
▁continentale	-12.0692
▁dignitosa	-12.0692
▁piattaforme	-12.0692
▁Špidla	-12.0692
▁dialoghi	-12.0692
▁sposa	-12.0694
▁optare	-12.0694
▁proporzionale	-12.0695
▁abbandono	-12.0696
▁Kh	-12.0699
▁stanziate	-12.0704
▁debbo	-12.0705
▁immobili	-12.0706
▁farine	-12.0709
▁sottolineata	-12.0714
▁misurazione	-12.0716
▁sincera	-12.0717
▁orgoglio	-12.0718
▁Hautala	-12.0721
▁contenimento	-12.0721
▁marginale	-12.0721
▁cattive	-12.0721
▁grosse	-12.0721
▁Parlando	-12.0721
▁km	-12.0721
▁Sapete	-12.0721
▁piega	-12.0721
▁maschera	-12.0722
▁sessioni	-12.0722
▁coltivazioni	-12.0727
▁annuncio	-12.0728
▁navigabili	-12.073
▁salto	-12.073
▁valorizzazione	-12.0731
giustizia	-12.0732
▁riuscite	-12.0736
versione	-12.0737
▁egual	-12.0742
▁pianificare	-12.075
▁presiedere	-12.075
▁cervelli	-12.0751
▁denominazioni	-12.0751
▁teatro	-12.0751
▁coperto	-12.0751
▁discuta	-12.0751
▁fallimenti	-12.0751
▁Entro	-12.0751
▁General	-12.0751
▁contrasti	-12.0751
▁colore	-12.0751
ker	-12.0754
▁rafforzano	-12.0755
▁derivare	-12.0757
▁includendo	-12.0759
▁103	-12.0762
▁naviga	-12.0763
▁Romano	-12.0764
▁riceva	-12.0764
▁burocrati	-12.0765
▁insistenza	-12.0765
▁dannoso	-12.0768
▁concentrato	-12.0775
ETA	-12.0779
▁comparsa	-12.078
▁costruttivi	-12.078
▁difensore	-12.078
▁macellazione	-12.078
▁previdenziali	-12.078
esattezza	-12.078
▁nordici	-12.0782
▁tornate	-12.0784
▁contemplare	-12.0786
▁pelle	-12.0787
europeo	-12.0787
▁Leone	-12.0788
▁21.00	-12.0793
▁stipendio	-12.0796
▁desiderato	-12.0802
▁Lannoye	-12.081
▁compongono	-12.081
▁massacri	-12.081
▁controparte	-12.081
▁Leinen	-12.081
▁nemici	-12.081
ão	-12.0811
▁debolezze	-12.0811
infinito	-12.0812
▁osservanza	-12.0822
ologici	-12.0836
idrogeno	-12.084
▁Baringdorf	-12.084
▁ciononostante	-12.084
▁possibilmente	-12.084
▁presumibilmente	-12.084
▁scrupoli	-12.084
▁avvengono	-12.084
▁volatilità	-12.084
▁serba	-12.0842
▁eletta	-12.0842
▁Jav	-12.0848
▁Act	-12.0848
▁sopportare	-12.0853
▁mangiare	-12.0856
utente	-12.0862
▁1999/	-12.0866
▁informatica	-12.0867
▁Voto	-12.0868
▁erogato	-12.0868
▁barriera	-12.0869
▁deforestazione	-12.0869
▁violente	-12.0869
▁cubano	-12.0869
▁attui	-12.0869
▁alcoliche	-12.087
.-(	-12.087
▁agro	-12.0873
▁comprenderà	-12.0873
▁mucca	-12.0874
▁mero	-12.0875
▁rilasciati	-12.0876
▁ovvia	-12.0876
▁quinta	-12.0877
zzeremo	-12.0878
▁fornirci	-12.0878
▁rispondo	-12.0883
▁fascia	-12.0884
scrizione	-12.0885
▁regolamentato	-12.0888
▁Noto	-12.0898
ausilio	-12.0899
▁attenerci	-12.0899
▁conducono	-12.0899
▁diossina	-12.0899
▁farmaceutiche	-12.0899
Pro	-12.09
▁informali	-12.0901
▁seguiranno	-12.0902
▁apprezzabile	-12.0903
▁realizzabile	-12.0904
ddis	-12.0904
her	-12.0906
▁sfrutt	-12.0909
▁correnti	-12.0909
▁frena	-12.0912
▁appoggiata	-12.0913
▁Capo	-12.0915
▁unanimemente	-12.0917
▁deteriora	-12.0928
▁Giordania	-12.0929
▁Mitchell	-12.0929
▁Praga	-12.0929
▁imputati	-12.0929
▁ottenuta	-12.0929
▁preceduta	-12.0929
▁sconfiggere	-12.0929
▁decentralizz	-12.0929
▁ospite	-12.0929
▁strette	-12.0929
▁giocatori	-12.0932
▁adoperando	-12.0932
▁turistico	-12.0933
▁promettente	-12.0935
scritte	-12.0935
▁correzioni	-12.0937
edificio	-12.0938
▁coordinatori	-12.094
▁volontariamente	-12.0943
▁rischiare	-12.0946
▁aggiornato	-12.095
▁associata	-12.095
▁vago	-12.0955
instaurazione	-12.0956
▁capri	-12.0957
▁bersaglio	-12.096
▁collettive	-12.096
▁nitrati	-12.096
▁risaputo	-12.096
▁supporta	-12.096
▁disturbi	-12.096
▁Invitiamo	-12.096
evolmente	-12.0961
▁osserv	-12.0965
▁rilasciata	-12.0966
▁macchia	-12.0966
▁armonizzata	-12.0966
▁porvi	-12.0969
▁chiarisce	-12.097
▁porteranno	-12.0971
▁razionalizz	-12.0976
regolamentazioni	-12.0977
▁succedere	-12.0981
▁tentano	-12.0981
▁privilegiare	-12.0989
▁67	-12.099
▁Significa	-12.099
▁Kaliningrad	-12.099
▁discriminatorio	-12.099
▁distributori	-12.099
▁guadagni	-12.099
▁composti	-12.099
▁uova	-12.099
▁paralizza	-12.099
▁Ju	-12.0991
considera	-12.0993
▁località	-12.0995
▁provvede	-12.0997
▁attribuiamo	-12.0998
▁favorirà	-12.0998
▁migliorati	-12.0999
▁amicizia	-12.1002
▁aggiungono	-12.1004
rintracciabilità	-12.1006
▁gravissimo	-12.1011
▁garantite	-12.1011
43	-12.1012
impegn	-12.1019
▁direttori	-12.1019
▁Graefe	-12.102
▁Saudita	-12.102
▁incisiva	-12.102
▁respingiamo	-12.102
▁inoltra	-12.102
▁filiera	-12.1021
▁dicasi	-12.1028
iscrizione	-12.1031
▁tregua	-12.1033
▁acquistano	-12.1035
▁manifestanti	-12.1036
▁accumulato	-12.1036
▁indicando	-12.1045
▁duri	-12.1046
▁fida	-12.1047
▁coinvolgendo	-12.1048
▁veloci	-12.1049
▁accingiamo	-12.105
▁affligge	-12.105
▁combattuto	-12.105
▁giapponese	-12.105
▁interlocutore	-12.105
▁iugoslava	-12.105
▁orizzontali	-12.105
▁pieni	-12.105
/2007	-12.1051
▁propaga	-12.1051
▁ordinaria	-12.1053
▁scenari	-12.1058
▁Fe	-12.1058
enfasi	-12.1059
▁convengo	-12.1062
pprofonditamente	-12.1064
▁concentrati	-12.1065
▁autorizzate	-12.1069
pensa	-12.107
▁finirà	-12.1076
▁introdur	-12.1076
▁ricordi	-12.1078
▁attenua	-12.108
▁Round	-12.1081
▁rimprovera	-12.1081
▁sintetizza	-12.1081
metta	-12.1082
▁tranquillamente	-12.1083
▁portafoglio	-12.1087
▁uccidere	-12.1088
▁rappresentiamo	-12.1094
▁irrita	-12.1094
▁denominatore	-12.1095
mann	-12.1097
▁ispirazione	-12.11
▁sfruttano	-12.1104
lf	-12.1106
š	-12.1111
▁avvantaggia	-12.1111
▁crudele	-12.1111
▁presunti	-12.1111
▁fisico	-12.1112
▁Valencia	-12.1112
▁esaminiamo	-12.1114
▁passione	-12.112
indennità	-12.112
più	-12.1126
▁impossibili	-12.1127
án	-12.1128
▁cambiando	-12.1128
▁OCM	-12.1136
seguendo	-12.1138
▁moda	-12.1141
▁Lamfalussy	-12.1142
▁ritenuti	-12.1142
▁tibetani	-12.1142
▁Chiesa	-12.1142
▁traffici	-12.1142
▁Pri	-12.1151
▁cartelli	-12.1159
▁miele	-12.1162
▁superfici	-12.1163
▁accettazione	-12.1168
▁cercherà	-12.1173
▁errata	-12.1173
▁incroci	-12.1173
▁pneumatici	-12.1173
▁prelievo	-12.1173
immensa	-12.1173
▁rimozione	-12.1173
▁Elles	-12.1173
avvento	-12.1173
▁transeuropea	-12.1173
▁sfortunatamente	-12.1173
▁sussistenza	-12.1177
entusiasmo	-12.1181
effettivo	-12.1181
▁compare	-12.1182
▁idonei	-12.1183
▁preparatoria	-12.119
▁viaggiano	-12.1192
▁partecipino	-12.1199
▁GATT	-12.1204
▁affinchè	-12.1204
▁sbloccare	-12.1204
▁Cairo	-12.1204
▁ricorsi	-12.1204
▁piacevole	-12.1204
▁Dalai	-12.1205
▁miracolo	-12.1207
▁altrui	-12.1207
▁coincidenza	-12.1208
▁distinte	-12.1208
▁telefonia	-12.1208
mut	-12.1212
Erika	-12.1212
ficare	-12.1216
nella	-12.1216
▁ammissibilità	-12.1224
▁commette	-12.1228
▁aggiungendo	-12.1229
▁Rompuy	-12.1235
▁esclusa	-12.1235
▁marginali	-12.1235
▁sovietico	-12.1235
impotenza	-12.1235
▁attingere	-12.1235
▁multinazionale	-12.1235
ida	-12.1236
▁dimezza	-12.1237
▁congratularci	-12.124
▁Considerat	-12.1254
▁qualificato	-12.1261
▁Bowis	-12.1266
▁Collins	-12.1266
▁Feira	-12.1266
▁Kashmir	-12.1266
▁densità	-12.1266
▁pensionabile	-12.1266
▁ribasso	-12.1266
▁sapranno	-12.1266
▁testimone	-12.1266
▁differente	-12.1266
▁saluto	-12.1266
▁famosa	-12.1266
▁aviaria	-12.1266
▁alcolici	-12.1266
Burton	-12.1268
▁assicurata	-12.1271
▁saggi	-12.1271
Europe	-12.1276
▁consentir	-12.1282
▁tradotto	-12.1284
▁fauna	-12.1286
▁Attendiamo	-12.1297
▁Aznar	-12.1297
▁suscettibili	-12.1297
▁esacerba	-12.1297
▁Parimenti	-12.1297
▁focolai	-12.1297
▁ripartire	-12.1297
▁antiterrorismo	-12.1297
▁Rappresentante	-12.13
inasprimento	-12.1301
▁confida	-12.1301
▁contrassegn	-12.1304
▁dimostrazioni	-12.1313
▁rivolgendo	-12.1315
Le	-12.1315
esatta	-12.1318
▁operando	-12.1327
2005	-12.1328
▁Effettivamente	-12.1328
▁Gebhardt	-12.1328
▁sussista	-12.1328
▁allargare	-12.1328
▁controllate	-12.1329
▁lunghezza	-12.1331
rresponsabilità	-12.1332
ottemperanza	-12.1335
▁spingersi	-12.1342
▁interferi	-12.1342
▁sfruttate	-12.1344
▁Andre	-12.1345
▁solidi	-12.1346
▁comprare	-12.1355
▁design	-12.1355
▁68	-12.1359
▁afta	-12.1359
▁ferme	-12.1359
escalation	-12.136
▁contraffatti	-12.136
▁rumeni	-12.136
▁temperatura	-12.136
▁perpetua	-12.136
▁conteneva	-12.136
▁socioeconomiche	-12.136
▁incidono	-12.136
▁dispetto	-12.136
erosione	-12.136
▁cieca	-12.136
▁aprir	-12.1363
gruppo	-12.1366
▁Euratom	-12.137
▁versati	-12.137
▁indicativo	-12.137
▁ridare	-12.137
▁imbocca	-12.1373
destra	-12.1385
▁Jan	-12.1385
▁brevettabilità	-12.1391
▁frequenta	-12.1391
▁ottenendo	-12.1391
▁rumeno	-12.1391
▁trasmessi	-12.1391
▁vuote	-12.1391
▁dissidenti	-12.1391
▁elabori	-12.1391
▁Croce	-12.1391
▁tributa	-12.1391
▁17.30	-12.1391
▁Proponiamo	-12.1391
▁Theato	-12.1392
intervista	-12.1393
▁realistiche	-12.1394
▁59	-12.1395
multilateralismo	-12.1398
▁procederà	-12.14
▁perfezionare	-12.1408
▁rivoluzionari	-12.1412
▁corrispondere	-12.1412
▁fedele	-12.1416
▁valenza	-12.1419
▁liquida	-12.1419
▁vaccina	-12.142
▁singolare	-12.1422
inverno	-12.1423
▁Parallelamente	-12.1423
▁rincresce	-12.1423
▁collasso	-12.1423
▁indulg	-12.1423
▁sosta	-12.1423
▁congestione	-12.143
▁olio	-12.143
▁varato	-12.1434
▁emendata	-12.1435
▁accettando	-12.1442
CO	-12.1447
infrastrutturali	-12.145
▁poniamo	-12.1451
▁candid	-12.1453
▁Groenlandia	-12.1454
▁McKenna	-12.1454
▁indifferente	-12.1454
▁inglesi	-12.1454
interdipendenza	-12.1454
▁salve	-12.1454
▁abbina	-12.1459
▁obiezione	-12.1466
▁deleteri	-12.1467
▁esenta	-12.1468
▁tipico	-12.1474
▁tappe	-12.1475
▁accennare	-12.1475
▁impegnativo	-12.1476
Ue	-12.1477
▁gratuita	-12.1481
▁West	-12.1482
▁FAO	-12.1486
▁Savary	-12.1486
▁mainstreaming	-12.1486
▁panorama	-12.1486
▁respingo	-12.1486
▁tabù	-12.1486
Agricoltura	-12.1486
▁rivestire	-12.1486
▁cominciando	-12.1486
▁diventate	-12.1488
▁scambiare	-12.1502
[...]
