<pad>	0
<s>	0
</s>	0
<unk>	0
▁the	-2.78311
,	-3.07877
.	-3.38484
▁of	-3.45919
▁to	-3.53563
▁and	-3.69608
▁in	-3.94726
▁that	-4.18734
▁a	-4.22106
▁is	-4.2258
▁for	-4.61866
▁I	-4.62777
▁on	-4.74899
s	-4.83641
▁be	-4.84583
▁this	-4.85467
▁we	-4.89258
▁are	-5.0394
▁have	-5.08734
▁it	-5.09011
▁not	-5.1358
▁with	-5.20183
▁as	-5.2066
▁which	-5.23492
▁European	-5.27436
▁The	-5.37063
▁will	-5.39145
▁by	-5.40395
-	-5.42498
▁has	-5.51762
'	-5.61743
▁Mr	-5.67531
▁Commission	-5.78474
▁an	-5.82299
▁at	-5.83134
▁would	-5.8375
▁also	-5.85233
▁all	-5.8959
▁should	-5.89598
▁President	-5.93021
▁-	-5.93378
▁from	-5.94461
▁We	-5.96228
▁our	-5.97348
▁must	-5.98003
▁but	-6.03085
▁been	-6.06361
▁Union	-6.1175
▁Parliament	-6.16014
▁It	-6.17044
▁you	-6.18232
▁can	-6.19284
▁was	-6.23464
▁Member	-6.2359
▁more	-6.24814
▁report	-6.26185
▁or	-6.2705
▁States	-6.28437
▁its	-6.30553
▁their	-6.3192
▁do	-6.3246
▁Council	-6.32918
▁like	-6.33236
▁there	-6.33841
▁very	-6.37345
▁Europe	-6.38707
▁In	-6.41223
▁This	-6.41317
▁these	-6.43553
▁EU	-6.44116
▁they	-6.4576
▁one	-6.46962
▁(	-6.49774
▁countries	-6.50139
▁so	-6.53006
▁who	-6.5379
▁about	-6.56724
▁other	-6.57001
)	-6.5744
▁what	-6.58256
▁need	-6.58305
▁us	-6.59342
▁important	-6.63799
▁people	-6.64964
▁my	-6.65185
▁only	-6.66562
▁new	-6.67271
:	-6.67501
▁time	-6.68108
▁policy	-6.69376
ing	-6.7117
▁because	-6.71376
▁if	-6.72039
▁no	-6.74944
▁up	-6.79472
▁am	-6.80352
▁support	-6.81375
▁out	-6.81777
▁now	-6.82389
▁such	-6.83265
?	-6.84192
▁take	-6.8617
▁make	-6.86307
▁into	-6.88315
▁between	-6.89196
▁work	-6.89509
▁those	-6.89515
▁rights	-6.95649
▁therefore	-6.96528
▁when	-6.96742
▁some	-6.97749
▁any	-6.99013
▁being	-6.99379
▁political	-7.01836
▁them	-7.01949
▁made	-7.02637
▁were	-7.03572
▁way	-7.04658
▁economic	-7.05056
▁than	-7.05364
▁Commissioner	-7.0582
▁believe	-7.05986
;	-7.06036
ed	-7.06485
▁say	-7.10277
▁proposal	-7.1168
▁many	-7.12782
▁against	-7.12914
▁fact	-7.13136
▁first	-7.15463
▁debate	-7.16852
▁market	-7.16934
▁social	-7.17312
▁	-7.19283
▁That	-7.20181
▁think	-7.20286
▁development	-7.22673
▁issue	-7.22813
▁Committee	-7.23013
▁just	-7.23031
▁well	-7.23203
▁point	-7.23871
▁order	-7.25434
▁years	-7.25771
▁human	-7.25781
’	-7.26163
▁situation	-7.27301
▁right	-7.27709
▁future	-7.2811
▁question	-7.28641
▁two	-7.29183
▁'	-7.2922
▁cannot	-7.29455
▁country	-7.29469
▁citizens	-7.29722
▁want	-7.30552
▁here	-7.30687
▁same	-7.31211
▁even	-7.31305
▁does	-7.31309
▁possible	-7.31677
▁had	-7.31754
▁measures	-7.31892
▁As	-7.32097
▁part	-7.33694
▁could	-7.34343
▁public	-7.34593
▁said	-7.35644
▁most	-7.35913
▁today	-7.35995
▁agreement	-7.36806
▁me	-7.37052
▁much	-7.37778
▁clear	-7.3791
▁national	-7.38398
▁where	-7.38479
▁already	-7.38862
▁good	-7.38871
▁financial	-7.39653
▁too	-7.40485
▁over	-7.40676
▁vote	-7.41629
▁within	-7.41694
▁–	-7.41994
▁know	-7.43007
▁still	-7.43098
▁year	-7.43748
▁how	-7.44123
▁under	-7.44664
▁There	-7.44721
▁particular	-7.44794
▁use	-7.44892
▁common	-7.44983
▁However	-7.45092
▁both	-7.45339
▁see	-7.45412
▁Mrs	-7.46618
▁course	-7.47883
▁cooperation	-7.47889
▁view	-7.48087
▁Community	-7.48657
▁world	-7.49331
▁hope	-7.49383
▁your	-7.49755
ly	-7.50533
▁level	-7.50792
▁international	-7.50941
▁system	-7.5104
▁ensure	-7.51193
▁taken	-7.51343
▁own	-7.51514
▁case	-7.52102
▁area	-7.5291
▁able	-7.53592
▁his	-7.54362
▁place	-7.5495
▁why	-7.56991
▁process	-7.57095
▁put	-7.57626
▁energy	-7.57691
▁rapporteur	-7.57843
d	-7.57889
▁number	-7.59365
▁last	-7.59574
▁problem	-7.59997
▁means	-7.60035
▁may	-7.60062
▁information	-7.60153
▁action	-7.60595
▁then	-7.6085
▁example	-7.60878
▁gentlemen	-7.61604
▁without	-7.62541
▁through	-7.62993
▁directive	-7.63948
▁however	-7.64337
▁he	-7.64539
▁House	-7.6499
▁If	-7.65087
▁problems	-7.65563
▁Madam	-7.67605
▁end	-7.68105
▁necessary	-7.68217
▁particularly	-7.68255
▁budget	-7.68297
▁long	-7.68664
▁A	-7.68754
▁protection	-7.68989
▁s	-7.69053
▁give	-7.69281
▁great	-7.69695
▁before	-7.70468
▁issues	-7.71152
▁respect	-7.71259
▁resolution	-7.71464
▁far	-7.71814
▁security	-7.7218
▁regard	-7.72275
▁given	-7.72282
▁law	-7.72366
▁legal	-7.72665
▁position	-7.72671
▁areas	-7.73243
▁Treaty	-7.73993
▁matter	-7.74373
▁Group	-7.7535
▁women	-7.76557
▁thank	-7.77219
▁sector	-7.7737
▁whether	-7.77837
▁ladies	-7.78301
▁decision	-7.7835
▁again	-7.78472
▁amendments	-7.7887
▁set	-7.78974
▁favour	-7.79107
▁role	-7.79961
▁United	-7.80286
▁further	-7.80687
▁programme	-7.80911
▁since	-7.81259
▁behalf	-7.8208
▁proposals	-7.82618
▁terms	-7.82824
▁basis	-7.82961
▁trade	-7.84088
▁certain	-7.84259
▁Members	-7.84285
▁next	-7.84634
▁services	-7.8493
▁aid	-7.855
▁done	-7.85583
▁crisis	-7.85897
▁rules	-7.86156
▁come	-7.86295
▁health	-7.86566
▁framework	-7.8738
▁legislation	-7.87767
▁adopted	-7.87874
▁help	-7.87905
▁agree	-7.87969
▁better	-7.88091
▁different	-7.88417
in	-7.8917
▁present	-7.89561
▁continue	-7.92202
▁change	-7.92395
▁opinion	-7.92604
▁needs	-7.92765
▁What	-7.92906
▁For	-7.93897
▁institutions	-7.9414
▁progress	-7.94317
▁But	-7.94329
▁ask	-7.94344
▁wish	-7.95746
▁after	-7.95854
▁result	-7.97077
▁concerned	-7.97084
▁group	-7.97372
▁forward	-7.97952
▁going	-7.98013
▁State	-7.98594
▁welcome	-7.98597
▁working	-7.98795
▁three	-7.98993
▁whole	-7.99166
▁towards	-7.99594
▁voted	-7.99916
▁few	-8.00097
▁approach	-8.00769
▁something	-8.0137
▁principle	-8.02096
▁go	-8.02757
▁current	-8.03648
▁subject	-8.03669
▁resources	-8.03833
▁conditions	-8.04027
▁including	-8.05573
▁importance	-8.0639
▁specific	-8.06413
▁proposed	-8.06439
e	-8.06534
▁Presidency	-8.06912
▁opportunity	-8.07024
▁million	-8.07066
▁provide	-8.07467
▁really	-8.07601
▁employment	-8.07726
▁authorities	-8.07831
▁increase	-8.08067
▁did	-8.08162
▁transport	-8.08168
▁shall	-8.08181
▁second	-8.08257
▁account	-8.08286
▁state	-8.08711
▁policies	-8.08844
▁together	-8.08895
▁used	-8.09105
▁On	-8.09166
▁especially	-8.09861
▁regulation	-8.09935
▁every	-8.10209
▁during	-8.10443
▁industry	-8.10564
▁down	-8.10719
m	-8.1072
▁general	-8.10935
▁find	-8.11372
▁high	-8.117
▁strategy	-8.11903
▁clearly	-8.12188
▁become	-8.12617
▁third	-8.12796
▁safety	-8.12805
▁negotiations	-8.13093
▁environmental	-8.13137
▁greater	-8.13275
▁itself	-8.13451
▁responsibility	-8.13588
▁another	-8.13592
▁least	-8.14126
▁serious	-8.14351
▁quite	-8.14576
▁products	-8.14579
▁research	-8.15033
▁small	-8.15428
▁rather	-8.15757
▁reason	-8.17227
▁They	-8.17276
▁No	-8.17288
al	-8.18497
▁call	-8.18571
▁real	-8.18627
▁always	-8.18782
▁fundamental	-8.18835
▁access	-8.19037
▁democracy	-8.19071
▁essential	-8.19376
▁difficult	-8.19411
▁effective	-8.19455
▁attention	-8.19597
▁making	-8.19903
▁achieve	-8.20286
▁These	-8.20443
▁once	-8.205
▁freedom	-8.20744
▁deal	-8.20918
▁regions	-8.20955
▁At	-8.21608
▁interests	-8.22005
▁things	-8.22097
▁society	-8.2214
▁implementation	-8.22275
▁major	-8.22283
▁based	-8.2242
▁taking	-8.22448
▁.	-8.22614
▁internal	-8.22652
▁economy	-8.22818
▁hand	-8.23514
▁environment	-8.24056
▁get	-8.2409
▁efforts	-8.24209
▁democratic	-8.24265
▁various	-8.24752
▁back	-8.25025
▁money	-8.25287
▁positive	-8.25689
▁government	-8.25727
▁large	-8.25966
▁free	-8.26261
▁each	-8.26413
▁words	-8.27594
▁yet	-8.28169
▁points	-8.28331
▁while	-8.28681
▁allow	-8.28821
er	-8.29913
▁procedure	-8.2996
▁committee	-8.29961
▁So	-8.30083
▁region	-8.30238
▁look	-8.3047
▁competition	-8.30479
▁consider	-8.30653
▁funds	-8.30696
▁single	-8.30769
▁less	-8.30908
▁step	-8.30928
▁involved	-8.31029
▁full	-8.31443
▁workers	-8.31657
▁growth	-8.31716
▁control	-8.32426
▁concerns	-8.32689
▁having	-8.32727
▁children	-8.32814
▁Affairs	-8.33045
▁Government	-8.33259
▁reform	-8.33746
▁power	-8.3397
▁companies	-8.3405
▁EUR	-8.34334
▁quality	-8.34843
▁objectives	-8.35667
▁best	-8.35721
▁interest	-8.35847
▁Lisbon	-8.35964
▁food	-8.36041
▁peace	-8.3607
▁solution	-8.36391
▁global	-8.36441
▁fully	-8.36522
▁programmes	-8.36899
▁her	-8.37115
▁majority	-8.37318
▁amendment	-8.37569
▁standards	-8.37628
▁agreements	-8.38021
/	-8.38194
t	-8.38227
▁often	-8.38525
▁dialogue	-8.3863
▁certainly	-8.38716
▁following	-8.39221
▁simply	-8.39252
▁production	-8.3952
▁recent	-8.39755
y	-8.39831
▁agricultural	-8.39933
▁concern	-8.40124
▁force	-8.40411
▁bring	-8.40468
▁decisions	-8.40522
▁Turkey	-8.41049
▁text	-8.41089
▁aware	-8.41212
▁main	-8.41236
▁extremely	-8.41269
▁context	-8.41292
▁accept	-8.41535
▁relations	-8.41556
se	-8.42027
▁To	-8.42279
▁create	-8.42481
▁groups	-8.43109
▁initiative	-8.43505
▁ago	-8.43779
▁risk	-8.44007
▁life	-8.4417
▁period	-8.44267
▁objective	-8.44561
▁fight	-8.44965
▁actually	-8.4505
▁form	-8.45239
▁developing	-8.45314
▁might	-8.45755
▁improve	-8.46154
▁mentioned	-8.46645
▁available	-8.46697
▁enlargement	-8.47171
▁jobs	-8.47356
▁regional	-8.47359
▁states	-8.47467
▁Court	-8.47471
▁start	-8.47677
▁Let	-8.47774
▁climate	-8.47933
▁non	-8.4798
▁appropriate	-8.48021
▁indeed	-8.48051
▁Article	-8.48325
▁impact	-8.48418
▁questions	-8.48939
▁open	-8.49252
▁meeting	-8.49311
▁Finally	-8.49466
▁currently	-8.49603
▁And	-8.49605
▁field	-8.49625
▁Russia	-8.49988
▁concerning	-8.50061
▁results	-8.50129
▁understand	-8.51018
▁education	-8.51125
▁data	-8.51483
!	-8.51989
▁responsible	-8.52103
▁consumers	-8.52302
▁You	-8.52429
▁key	-8.52614
▁1	-8.52752
▁writing	-8.52948
▁let	-8.53068
▁management	-8.53571
▁others	-8.53583
▁themselves	-8.53764
▁months	-8.53778
▁euro	-8.54446
▁re	-8.54713
▁needed	-8.54756
▁thing	-8.55374
▁doing	-8.55395
▁With	-8.55821
▁cases	-8.5584
▁members	-8.55926
▁systems	-8.56345
n	-8.56611
▁principles	-8.56967
▁individual	-8.56997
▁compromise	-8.57243
▁day	-8.57248
▁tax	-8.57535
▁reasons	-8.57577
▁enough	-8.57578
▁matters	-8.57618
▁kind	-8.57864
▁projects	-8.59805
▁lack	-8.59812
▁parties	-8.59816
▁costs	-8.59852
▁longer	-8.60218
▁promote	-8.60342
▁achieved	-8.60612
▁local	-8.60644
▁feel	-8.60772
▁though	-8.60816
▁Convention	-8.6088
▁funding	-8.61045
▁special	-8.6105
▁among	-8.61119
▁activities	-8.61283
▁regards	-8.61345
▁idea	-8.61718
▁plan	-8.61766
▁priority	-8.61853
▁commitment	-8.62156
A	-8.6233
▁joint	-8.62564
▁draft	-8.62616
▁aim	-8.6273
▁significant	-8.62758
▁although	-8.63262
▁past	-8.63416
▁labour	-8.63419
▁true	-8.63487
▁congratulate	-8.63505
▁act	-8.63662
▁line	-8.63683
▁due	-8.63923
▁little	-8.64177
a	-8.64449
▁mean	-8.64477
▁excellent	-8.64742
▁sustainable	-8.64883
▁sure	-8.64923
▁prevent	-8.65198
▁provided	-8.65231
▁legislative	-8.65302
▁governments	-8.65416
▁effect	-8.65484
▁My	-8.65507
▁strong	-8.65576
▁nothing	-8.65681
▁final	-8.65806
▁Amendment	-8.65957
▁perhaps	-8.65982
▁Directive	-8.66174
▁C	-8.66175
▁young	-8.66421
▁lead	-8.66825
▁guarantee	-8.66998
▁include	-8.67089
▁nuclear	-8.67475
▁solidarity	-8.68357
▁above	-8.68842
▁moment	-8.68869
▁reports	-8.68874
▁play	-8.69253
▁project	-8.69288
▁regarding	-8.69296
▁Rights	-8.6937
▁remain	-8.69677
▁aspects	-8.69738
▁agenda	-8.69883
▁agreed	-8.69883
▁pay	-8.6994
▁markets	-8.70173
▁integration	-8.70429
Office	-8.70479
▁transparency	-8.70545
▁seen	-8.70918
▁consumer	-8.71078
r	-8.71265
▁several	-8.71338
▁addition	-8.7175
▁foreign	-8.72296
▁response	-8.72399
▁benefit	-8.72442
▁contribution	-8.72626
▁relation	-8.72657
▁Our	-8.72666
▁civil	-8.72884
▁apply	-8.73407
▁population	-8.73541
▁short	-8.73603
▁comes	-8.74065
▁upon	-8.74079
▁business	-8.74254
▁tomorrow	-8.74259
▁makes	-8.74526
▁speak	-8.74648
▁discussion	-8.74889
▁share	-8.75067
▁actions	-8.7509
▁communication	-8.75163
▁technical	-8.75238
▁move	-8.75507
▁Therefore	-8.75735
▁Secondly	-8.76122
▁terrorism	-8.76285
▁practice	-8.76326
▁values	-8.76419
▁answer	-8.76524
▁000	-8.76694
▁investment	-8.76847
▁him	-8.77032
▁One	-8.77043
▁provisions	-8.77272
▁seems	-8.77339
▁criteria	-8.77402
term	-8.77493
▁pleased	-8.77542
▁existing	-8.77598
▁colleagues	-8.77823
▁voting	-8.77991
DE	-8.78451
▁elections	-8.78532
▁stability	-8.79006
▁war	-8.79143
▁changes	-8.79282
▁procedures	-8.79381
▁China	-8.79572
▁accession	-8.80024
▁ourselves	-8.80125
▁soon	-8.80463
▁assistance	-8.80486
▁poverty	-8.80636
▁violence	-8.8073
▁‘	-8.80776
▁mind	-8.80978
▁creation	-8.81011
▁cohesion	-8.81022
es	-8.81111
▁adopt	-8.81173
▁express	-8.81241
▁crucial	-8.81272
▁develop	-8.81323
▁basic	-8.81487
▁until	-8.81503
▁service	-8.81513
▁Minister	-8.81722
▁success	-8.81965
▁everyone	-8.82052
▁never	-8.82104
▁off	-8.82312
▁carried	-8.82341
▁protect	-8.82591
▁sense	-8.82947
▁consequences	-8.83094
▁saying	-8.83428
▁regulations	-8.83433
▁asked	-8.83598
▁draw	-8.83794
▁equal	-8.83952
▁term	-8.83952
▁tabled	-8.84173
▁increased	-8.84208
▁reduce	-8.84213
▁increasing	-8.84422
▁farmers	-8.84463
▁balance	-8.84506
▁application	-8.84592
▁relating	-8.84643
▁statement	-8.84863
▁training	-8.84906
▁military	-8.84925
▁organisations	-8.8508
▁cultural	-8.85089
▁show	-8.85166
▁close	-8.85205
▁namely	-8.85259
▁held	-8.85366
c	-8.8549
▁de	-8.8563
▁fishing	-8.85641
▁rule	-8.85965
▁requirements	-8.86215
▁request	-8.86234
▁cost	-8.86288
▁UN	-8.86358
▁item	-8.86418
▁required	-8.86424
▁job	-8.86799
▁All	-8.8684
▁everything	-8.86951
▁value	-8.87321
▁meet	-8.87331
▁thus	-8.87511
▁Thank	-8.87658
▁instruments	-8.87718
▁presented	-8.87726
▁opportunities	-8.87899
▁face	-8.87975
▁stage	-8.88279
▁throughout	-8.88744
▁closed	-8.89099
▁When	-8.8921
b	-8.89258
▁nature	-8.89899
▁either	-8.8995
▁week	-8.90035
▁priorities	-8.90464
▁times	-8.90619
▁mention	-8.90679
▁keep	-8.90908
▁called	-8.90943
▁around	-8.91199
▁demand	-8.91316
ers	-8.91665
▁budgetary	-8.9184
▁community	-8.92072
▁initiatives	-8.92076
▁Fund	-8.92526
▁tell	-8.9258
▁external	-8.92593
▁she	-8.92717
▁road	-8.92976
▁Party	-8.92992
▁package	-8.93031
▁direction	-8.93058
▁decided	-8.93066
▁water	-8.93091
▁movement	-8.93118
▁pressure	-8.93258
▁across	-8.93626
▁instrument	-8.93647
▁address	-8.93708
▁conflict	-8.9387
▁reached	-8.94048
▁potential	-8.94062
▁task	-8.9453
▁10	-8.94649
▁prepared	-8.94986
▁expressed	-8.94991
▁previous	-8.95041
▁monitoring	-8.95126
▁five	-8.95195
▁waste	-8.9528
▁review	-8.95334
re	-8.95351
▁raised	-8.95572
▁using	-8.95696
▁illegal	-8.95798
▁conclusion	-8.95876
▁effort	-8.95889
▁talking	-8.95982
▁four	-8.95993
or	-8.96021
▁justice	-8.96189
▁establish	-8.96572
▁reading	-8.96633
▁powers	-8.96646
▁fisheries	-8.96697
▁medium	-8.96752
▁implement	-8.96768
▁implemented	-8.96838
▁challenges	-8.96863
▁doubt	-8.96985
▁light	-8.97196
▁billion	-8.97352
2	-8.97437
▁fair	-8.97451
▁focus	-8.97493
▁private	-8.97512
▁experience	-8.9762
▁fellow	-8.98034
▁included	-8.98075
▁try	-8.98178
▁vital	-8.98261
▁Ireland	-8.98312
▁immigration	-8.98632
▁partners	-8.98834
▁quickly	-8.98934
▁borders	-8.99007
▁crime	-8.99033
▁reduction	-8.99131
▁enable	-8.99222
▁victims	-8.99248
▁levels	-8.9934
▁ever	-8.9939
▁absolutely	-8.99392
▁established	-8.99705
▁presidency	-9.00136
▁outside	-9.0028
▁recently	-9.0035
▁talk	-9.00647
▁coming	-9.00705
▁agriculture	-9.00733
▁French	-9.00762
▁reality	-9.00898
▁Development	-9.00933
l	-9.01174
▁12	-9.01458
▁supported	-9.01471
▁price	-9.01564
▁amount	-9.01701
▁effects	-9.01764
o	-9.01917
▁Conference	-9.02096
▁sectors	-9.02104
▁p	-9.02234
▁completely	-9.02675
▁20	-9.02864
▁found	-9.0289
▁France	-9.02952
▁structural	-9.03054
▁live	-9.03231
▁brought	-9.03317
▁note	-9.03398
▁thanks	-9.03494
▁reach	-9.03566
▁treatment	-9.03674
▁giving	-9.03977
▁emissions	-9.04064
g	-9.04251
▁left	-9.04332
▁businesses	-9.04411
▁encourage	-9.04653
▁direct	-9.04831
▁finally	-9.04856
▁unemployment	-9.04894
▁cause	-9.05004
▁motion	-9.05011
▁B	-9.05095
▁extent	-9.05206
▁2	-9.0525
▁reforms	-9.05347
▁possibility	-9.05535
▁applied	-9.05655
▁document	-9.05667
▁additional	-9.05695
▁model	-9.05733
▁prices	-9.05835
▁coordination	-9.0591
▁stress	-9.06063
▁December	-9.06075
▁cross	-9.06422
▁took	-9.06469
▁received	-9.06509
▁along	-9.06549
▁ensuring	-9.06587
▁follow	-9.06754
▁heard	-9.06771
▁representatives	-9.06879
▁approved	-9.07081
▁Nations	-9.07087
▁G	-9.07134
▁air	-9.07287
▁S	-9.07294
▁almost	-9.07362
▁natural	-9.07399
▁US	-9.07409
▁Republic	-9.07437
▁15	-9.07472
▁care	-9.07525
▁Firstly	-9.07548
▁relevant	-9.07696
▁competitiveness	-9.07886
▁away	-9.07947
▁living	-9.08002
▁Africa	-9.08029
▁discussed	-9.08069
▁strengthen	-9.08081
▁avoid	-9.0816
▁behind	-9.08186
▁list	-9.08192
▁assessment	-9.08243
▁creating	-9.08326
▁Furthermore	-9.0834
▁practical	-9.0867
▁adoption	-9.08988
▁confidence	-9.0902
▁offer	-9.09093
▁East	-9.09366
▁Bank	-9.09611
▁add	-9.09648
▁turn	-9.09838
▁unacceptable	-9.09999
▁events	-9.1013
▁men	-9.10333
▁He	-9.10486
▁lot	-9.10513
▁discussions	-9.10752
▁begin	-9.10829
▁guidelines	-9.1087
▁expect	-9.10943
▁proper	-9.10963
th	-9.11224
▁capacity	-9.11243
▁nor	-9.11658
▁parliamentary	-9.11851
▁discuss	-9.11853
▁per	-9.11892
▁knowledge	-9.12132
▁Of	-9.12188
▁British	-9.12197
p	-9.1227
▁remains	-9.12335
▁stop	-9.12373
▁scope	-9.12757
▁days	-9.13398
▁affected	-9.13401
▁side	-9.13582
▁rate	-9.13666
▁considered	-9.13809
▁effectively	-9.13866
▁family	-9.13954
▁humanitarian	-9.14055
▁%	-9.14065
▁aimed	-9.14161
▁six	-9.14329
▁despite	-9.14442
▁contribute	-9.1445
▁discrimination	-9.14669
▁summit	-9.14684
▁May	-9.14767
▁solutions	-9.1478
▁old	-9.14998
▁un	-9.1522
▁3	-9.15238
▁Democrats	-9.15349
▁Agreement	-9.15396
▁criminal	-9.15454
▁difficulties	-9.15568
▁asylum	-9.15642
▁precisely	-9.15698
▁First	-9.1577
▁sitting	-9.1588
▁remind	-9.15944
▁International	-9.15991
▁developed	-9.16051
▁trying	-9.16069
▁Central	-9.16123
▁takes	-9.16255
▁shown	-9.16282
able	-9.16301
▁carry	-9.1637
▁Justice	-9.16808
▁date	-9.16812
▁Economic	-9.16874
▁June	-9.16924
▁reference	-9.16973
▁efficiency	-9.17012
▁instead	-9.17109
▁combat	-9.1715
▁hard	-9.17175
▁World	-9.17344
up	-9.17491
▁message	-9.17633
▁goods	-9.1768
▁huge	-9.17796
▁connection	-9.17872
▁defence	-9.17944
▁regime	-9.17973
▁beginning	-9.18005
▁accordance	-9.18019
▁partnership	-9.18197
▁People	-9.18206
▁circumstances	-9.18224
▁active	-9.18305
▁capital	-9.18382
▁technology	-9.18582
▁improving	-9.18597
▁honourable	-9.18635
▁innovation	-9.18866
▁personal	-9.19079
▁according	-9.19082
▁culture	-9.19178
▁enterprises	-9.19183
▁committed	-9.19196
▁challenge	-9.19366
▁providing	-9.19435
▁administrative	-9.19555
▁Regulation	-9.19591
▁status	-9.1971
▁total	-9.19749
▁conclusions	-9.19853
▁created	-9.1989
▁central	-9.20046
▁consideration	-9.20084
▁Germany	-9.20093
▁allowed	-9.20251
C	-9.20259
▁goes	-9.2026
▁oil	-9.20285
▁comments	-9.20307
▁propose	-9.20323
▁minimum	-9.20576
▁self	-9.20608
▁forces	-9.20639
▁ban	-9.20643
▁return	-9.20711
▁speech	-9.20717
▁11	-9.20756
▁independent	-9.20871
▁stand	-9.2095
▁Social	-9.20967
▁purpose	-9.21164
▁half	-9.21185
▁content	-9.21327
▁rightly	-9.21441
▁duty	-9.21449
ity	-9.21527
▁death	-9.21571
▁anti	-9.21573
▁institutional	-9.21594
▁media	-9.21641
▁benefits	-9.21741
▁participation	-9.21782
▁supply	-9.21802
▁accepted	-9.21902
▁provides	-9.21906
ation	-9.2231
▁promoting	-9.22311
▁co	-9.22358
▁considerable	-9.22479
▁Policy	-9.22506
▁Now	-9.2252
▁implementing	-9.22574
▁successful	-9.22633
▁receive	-9.22711
▁lives	-9.22881
▁provision	-9.22891
▁Brussels	-9.23164
▁unfortunately	-9.23197
▁stated	-9.23306
▁colleague	-9.23427
▁rural	-9.23431
▁calls	-9.2356
▁dealing	-9.23604
▁WTO	-9.23612
st	-9.23795
i	-9.24021
▁specifically	-9.24107
▁referred	-9.24259
▁closely	-9.24284
▁forms	-9.24547
▁overall	-9.24683
▁seriously	-9.24891
▁introduction	-9.25163
▁beyond	-9.25181
▁decide	-9.25361
European	-9.2549
▁Israel	-9.25734
▁complete	-9.26063
▁happen	-9.26516
▁scientific	-9.26552
▁industrial	-9.26789
▁wanted	-9.26902
▁urgent	-9.27039
▁exchange	-9.27065
▁measure	-9.27168
▁Today	-9.27171
▁directly	-9.27178
▁"	-9.27478
▁produce	-9.27494
▁plans	-9.27518
▁maintain	-9.27584
▁Mediterranean	-9.27725
▁history	-9.2778
▁strategic	-9.27796
▁views	-9.27823
sized	-9.27887
▁Human	-9.27931
▁leave	-9.28018
▁financing	-9.28142
▁wrong	-9.28344
▁requires	-9.28437
▁Kosovo	-9.2853
▁steps	-9.28596
▁Iraq	-9.28734
▁Irish	-9.28869
▁home	-9.29107
▁equality	-9.29341
▁setting	-9.29551
▁January	-9.29875
▁expenditure	-9.29913
▁entire	-9.29969
▁event	-9.30092
▁commitments	-9.30155
▁intended	-9.30186
▁low	-9.30252
▁activity	-9.30318
▁similar	-9.30605
▁police	-9.30659
▁aspect	-9.30676
▁demands	-9.30698
▁myself	-9.30833
▁bodies	-9.30891
▁paid	-9.30896
▁sufficient	-9.30897
▁exist	-9.31077
to	-9.31083
▁party	-9.31139
▁poor	-9.31173
▁efficient	-9.31209
S	-9.31224
▁join	-9.3126
▁Constitution	-9.31346
▁German	-9.31494
▁Greece	-9.31645
▁How	-9.31715
▁Summit	-9.31781
▁ten	-9.31908
▁gas	-9.31946
▁alone	-9.31995
▁represent	-9.31997
▁competitive	-9.32166
▁respond	-9.32208
▁speaking	-9.32235
▁refer	-9.32272
▁supporting	-9.32314
▁highly	-9.32353
▁anything	-9.3264
▁properly	-9.32649
▁product	-9.32894
▁paragraph	-9.32894
▁animal	-9.3295
▁higher	-9.33018
▁conclude	-9.33077
▁rise	-9.33212
▁type	-9.33333
▁ambitious	-9.33369
▁ways	-9.33599
▁led	-9.3374
▁discussing	-9.33816
▁Although	-9.33903
▁caused	-9.33951
▁fund	-9.33963
▁border	-9.34058
The	-9.34091
▁known	-9.34202
▁limited	-9.34264
▁5	-9.34268
▁increasingly	-9.34311
▁weeks	-9.34457
▁establishing	-9.34698
▁yesterday	-9.3474
▁shows	-9.34757
ic	-9.34891
▁Unfortunately	-9.3492
▁E	-9.35119
▁study	-9.3512
▁calling	-9.35431
▁improved	-9.35447
▁whom	-9.35486
▁useful	-9.35546
border	-9.35549
▁genuine	-9.3557
▁risks	-9.35663
FR	-9.3575
▁early	-9.35769
on	-9.35831
▁achieving	-9.35845
▁authority	-9.35871
▁regret	-9.36047
▁strengthening	-9.3617
▁represents	-9.36266
▁limit	-9.36285
ness	-9.36371
▁South	-9.36441
▁Rules	-9.36454
▁reducing	-9.36518
▁Minutes	-9.36558
▁emphasise	-9.36577
▁happened	-9.36816
▁produced	-9.36902
▁obviously	-9.36989
▁annual	-9.37144
▁threat	-9.37274
▁hear	-9.37283
▁opposition	-9.37295
▁comment	-9.37323
▁producers	-9.37401
▁urge	-9.37438
▁Since	-9.37728
▁manner	-9.37729
▁aims	-9.38172
▁spirit	-9.38203
▁infrastructure	-9.38367
▁thought	-9.38398
▁require	-9.38433
▁influence	-9.38443
▁animals	-9.3854
▁statements	-9.38541
B	-9.38577
▁later	-9.38853
▁establishment	-9.38876
▁convinced	-9.38944
▁trust	-9.39017
▁March	-9.3904
▁combating	-9.39061
called	-9.39249
▁broad	-9.39294
▁outcome	-9.39317
▁currency	-9.39433
▁Security	-9.39455
▁Italy	-9.39455
▁remember	-9.39459
▁Moreover	-9.39497
▁looking	-9.39573
▁gives	-9.39592
responsibilities	-9.39686
▁25	-9.39737
▁name	-9.39751
▁damage	-9.39856
u	-9.40002
▁met	-9.40014
▁balanced	-9.40075
▁cut	-9.40252
▁Spanish	-9.40361
▁recognise	-9.40409
▁former	-9.40607
▁candidate	-9.4061
▁recognition	-9.40765
▁firstly	-9.40964
▁member	-9.40982
▁language	-9.41019
▁hold	-9.41082
▁developments	-9.4113
▁rest	-9.41165
▁conference	-9.4119
▁sometimes	-9.41298
making	-9.41371
▁concrete	-9.41511
▁elements	-9.41512
▁earlier	-9.41533
▁introduce	-9.41571
▁Foreign	-9.4164
▁concept	-9.4166
▁dangerous	-9.41664
▁analysis	-9.41747
▁monetary	-9.41749
▁entirely	-9.42045
▁comprehensive	-9.42188
an	-9.42216
▁prevention	-9.42235
▁thinking	-9.4228
▁origin	-9.42314
▁facing	-9.42329
▁contrary	-9.42351
▁acceptable	-9.42401
▁4	-9.42455
▁commercial	-9.4257
▁documents	-9.4265
▁becoming	-9.42871
▁press	-9.42945
1	-9.42985
▁introduced	-9.43074
▁word	-9.43139
▁negative	-9.43175
▁After	-9.43197
▁Nevertheless	-9.43218
6	-9.4327
▁building	-9.43315
▁Internet	-9.43415
▁pointed	-9.43525
en	-9.43595
▁relationship	-9.43678
▁reduced	-9.43748
▁consensus	-9.43787
▁Spain	-9.44006
▁American	-9.44069
▁differences	-9.44074
▁liberalisation	-9.44141
▁mandate	-9.4458
▁alternative	-9.44583
▁sources	-9.4464
no	-9.44754
▁recommendations	-9.44822
▁delegation	-9.44895
▁asking	-9.44968
▁Romania	-9.44977
▁8	-9.45044
▁flexibility	-9.45068
▁added	-9.45168
▁union	-9.4517
▁Indeed	-9.45222
▁30	-9.4526
▁forget	-9.45465
▁raise	-9.45495
▁Green	-9.45655
▁body	-9.45735
▁network	-9.45754
▁September	-9.45802
▁Environment	-9.45859
▁probably	-9.46115
▁morning	-9.46182
▁Ukraine	-9.46432
▁else	-9.46476
▁wants	-9.4677
▁ground	-9.46791
▁Some	-9.4684
▁rapporteurs	-9.46871
▁networks	-9.46935
▁sort	-9.46978
▁Italian	-9.46994
▁strongly	-9.47072
▁intervention	-9.47087
ar	-9.47093
▁America	-9.47114
▁discharge	-9.47153
▁organisation	-9.47191
▁closer	-9.47228
▁perspective	-9.47269
▁sanctions	-9.47347
▁correct	-9.47363
▁methods	-9.47468
▁laws	-9.475
▁exactly	-9.47594
▁applies	-9.47607
▁fall	-9.47975
▁chance	-9.47982
8	-9.48117
▁company	-9.48132
▁attempt	-9.48211
▁Ministers	-9.48249
▁bear	-9.48337
▁seek	-9.48447
▁staff	-9.48607
▁practices	-9.48656
it	-9.48695
▁mechanism	-9.4879
▁build	-9.48907
▁failure	-9.48908
▁opening	-9.48988
▁refugees	-9.4899
▁Paper	-9.49029
▁agencies	-9.49075
▁drawn	-9.4925
▁9	-9.49268
▁says	-9.49314
▁laid	-9.49562
▁parts	-9.49717
▁land	-9.49723
▁person	-9.49744
▁2000	-9.49791
▁age	-9.49818
▁Palestinian	-9.49891
▁governance	-9.49982
▁dealt	-9.50087
▁method	-9.50098
▁reply	-9.50143
▁MEPs	-9.50163
ism	-9.50225
▁institution	-9.50255
▁dimension	-9.50406
▁constructive	-9.50488
▁exercise	-9.5049
▁Procedure	-9.50565
▁Ladies	-9.50588
▁November	-9.50659
▁submitted	-9.5066
▁integrated	-9.50746
7	-9.5078
▁enormous	-9.50815
▁UK	-9.50917
▁read	-9.50974
▁critical	-9.51101
▁improvement	-9.51135
▁ideas	-9.512
▁fraud	-9.51346
▁obligations	-9.51387
▁targets	-9.51511
▁fear	-9.5158
▁addressed	-9.51873
▁informed	-9.51935
▁definition	-9.52
▁happy	-9.5203
▁By	-9.52138
▁Why	-9.52292
▁directives	-9.52384
▁Programme	-9.52507
▁table	-9.52591
▁managed	-9.52594
▁big	-9.5263
▁choice	-9.52698
▁burden	-9.52749
▁growing	-9.52898
▁unable	-9.52953
▁putting	-9.53011
▁complex	-9.53024
▁send	-9.53219
▁sensitive	-9.53303
▁contains	-9.53336
▁mechanisms	-9.5338
ist	-9.53411
▁consultation	-9.53452
▁run	-9.53489
5	-9.53577
▁Even	-9.53664
▁simple	-9.53717
▁13	-9.53728
▁immediately	-9.53734
▁transparent	-9.53779
▁mutual	-9.538
▁parliaments	-9.53816
▁came	-9.53881
▁14	-9.53934
▁organised	-9.53974
▁child	-9.54097
▁Middle	-9.54122
▁October	-9.54219
▁Kingdom	-9.54365
▁mainly	-9.54388
le	-9.54642
▁promotion	-9.54805
▁operation	-9.54825
▁desire	-9.54876
▁Agency	-9.54878
▁seem	-9.54883
▁sound	-9.54884
▁Russian	-9.549
▁intention	-9.54947
▁ahead	-9.54997
▁Trade	-9.55247
▁merely	-9.55265
▁rejected	-9.55272
▁understanding	-9.55305
▁Health	-9.55345
▁evidence	-9.55418
▁leaders	-9.55751
▁resolve	-9.55886
▁persons	-9.56061
▁continuing	-9.56234
▁Prime	-9.56309
▁administration	-9.56313
▁Charter	-9.56408
▁leading	-9.56457
▁Strategy	-9.56458
▁easy	-9.56607
4	-9.56688
▁defend	-9.56787
▁thousands	-9.56965
▁Turkish	-9.57033
▁signed	-9.57089
il	-9.57119
▁Euro	-9.57141
▁disaster	-9.57243
▁sea	-9.57697
▁repeat	-9.57755
▁impossible	-9.5776
▁Chamber	-9.57811
▁guarantees	-9.57906
▁fish	-9.57974
▁18	-9.58031
▁lost	-9.58191
▁technologies	-9.58291
▁Iran	-9.58377
▁cover	-9.5841
▁figures	-9.58574
▁told	-9.58729
▁Amendments	-9.58738
the	-9.58835
▁substantial	-9.58848
▁Many	-9.58955
▁elected	-9.58969
▁adequate	-9.59077
▁independence	-9.59128
▁recommendation	-9.59161
P	-9.59208
▁An	-9.59237
▁19	-9.59301
▁structure	-9.59393
▁worked	-9.59576
ri	-9.59682
▁positions	-9.59762
▁includes	-9.5979
▁totally	-9.59828
▁ought	-9.59926
▁expression	-9.60051
▁attitude	-9.60089
▁resolutions	-9.6019
▁speakers	-9.60263
isation	-9.60306
▁renewable	-9.60404
I	-9.60465
▁related	-9.60606
▁extend	-9.6069
▁payments	-9.60749
▁economies	-9.60753
▁degree	-9.60768
▁intend	-9.61
▁income	-9.61006
▁6	-9.61061
▁wishes	-9.61119
PL	-9.61174
▁instance	-9.61187
▁subsidiarity	-9.61196
▁Amsterdam	-9.61197
▁failed	-9.61266
▁trafficking	-9.61332
h	-9.61389
▁Schengen	-9.61406
▁secure	-9.61458
ive	-9.61531
▁grateful	-9.61588
▁territory	-9.61614
▁traffic	-9.61744
est	-9.61843
▁SMEs	-9.62089
▁affairs	-9.6233
3	-9.62337
▁rates	-9.62425
▁obvious	-9.62428
▁linked	-9.62551
▁families	-9.62615
▁African	-9.62656
▁membership	-9.62776
▁bringing	-9.62815
ment	-9.6284
▁Monetary	-9.62906
▁opposed	-9.62935
▁heart	-9.62975
▁treaty	-9.62995
▁involvement	-9.63019
f	-9.6309
▁tackle	-9.63174
▁North	-9.63337
▁Portugal	-9.63598
▁Thirdly	-9.6372
ur	-9.63789
▁involving	-9.63891
▁credit	-9.63935
▁actual	-9.63945
▁original	-9.64061
▁happening	-9.64096
▁2004	-9.64109
▁Cyprus	-9.64215
▁truly	-9.64269
▁goal	-9.64317
▁acts	-9.64415
▁sign	-9.64422
▁travel	-9.64423
▁e	-9.64456
▁office	-9.64593
▁highlight	-9.64596
▁Pact	-9.64647
▁getting	-9.64823
ion	-9.64846
▁Structural	-9.64916
▁faced	-9.64918
▁official	-9.64938
▁controls	-9.6494
▁immediate	-9.6497
▁tourism	-9.64999
▁forced	-9.65123
▁finance	-9.65189
▁debates	-9.65258
"	-9.65275
▁talks	-9.65447
▁plenary	-9.65541
▁protecting	-9.65629
▁advantage	-9.65701
▁recognised	-9.65743
▁ready	-9.65868
ch	-9.65909
▁greatest	-9.65997
▁enter	-9.66171
▁Poland	-9.6639
▁appeal	-9.66547
▁lines	-9.66648
▁substances	-9.66661
▁weapons	-9.66713
▁disease	-9.66784
▁drugs	-9.66844
▁Funds	-9.67196
▁election	-9.67377
▁adopting	-9.67393
▁27	-9.67398
▁starting	-9.67508
▁board	-9.67563
M	-9.67618
▁sides	-9.67627
▁followed	-9.6779
▁P	-9.67864
▁interesting	-9.67976
▁campaign	-9.68061
▁granted	-9.68132
▁bad	-9.68419
▁danger	-9.68519
▁situations	-9.68529
▁range	-9.68702
▁suffering	-9.68752
▁appear	-9.6882
▁reject	-9.68898
D	-9.69001
▁element	-9.69028
▁21	-9.69035
▁mobility	-9.69119
▁diversity	-9.69175
▁covered	-9.69242
▁seeking	-9.69285
▁July	-9.69288
▁export	-9.6933
▁conduct	-9.69341
▁round	-9.69411
▁shared	-9.69419
▁Public	-9.69515
▁late	-9.69574
▁bilateral	-9.696
▁involve	-9.69631
▁monitor	-9.69791
▁serve	-9.69867
▁evaluation	-9.6989
▁carefully	-9.70009
▁explain	-9.70026
▁comply	-9.70047
▁pollution	-9.7017
▁proposing	-9.70197
▁7	-9.70211
▁thereby	-9.70213
▁votes	-9.70231
▁safe	-9.70401
▁ability	-9.70454
▁2009	-9.70475
▁gender	-9.70483
▁competence	-9.70523
▁designed	-9.70575
▁Greek	-9.70627
el	-9.70694
▁globalisation	-9.70767
▁standard	-9.70773
▁meetings	-9.71083
▁changed	-9.71131
▁Sweden	-9.71144
as	-9.71272
▁voice	-9.71312
▁communities	-9.71375
▁detailed	-9.71401
▁vehicles	-9.71475
▁subsidies	-9.7149
▁16	-9.71496
▁judicial	-9.7155
▁criticism	-9.71891
▁Barroso	-9.72012
▁minorities	-9.72071
▁Sea	-9.72078
▁Belarus	-9.72096
▁pre	-9.72172
▁target	-9.72181
▁50	-9.72184
▁harmonisation	-9.72187
▁Nos	-9.72291
▁De	-9.72316
▁presence	-9.72361
▁detail	-9.72507
▁While	-9.72507
▁consumption	-9.72509
▁lower	-9.72535
▁Auditors	-9.72742
▁series	-9.72771
▁naturally	-9.72876
▁facilitate	-9.72954
▁committees	-9.7317
▁emphasis	-9.73282
▁structures	-9.73296
▁Swedish	-9.73329
▁spent	-9.73417
▁binding	-9.7346
▁approval	-9.73479
Applause	-9.73489
▁floor	-9.73505
▁participate	-9.73602
▁causes	-9.73836
▁delay	-9.73841
▁affect	-9.74066
▁2020	-9.74067
▁expected	-9.74109
▁consistent	-9.74281
▁hours	-9.74295
▁anyone	-9.74598
▁initial	-9.74638
▁improvements	-9.74714
de	-9.74796
▁Bulgaria	-9.74831
▁oral	-9.74864
▁2005	-9.74975
▁17	-9.7508
▁minority	-9.75085
▁car	-9.75266
▁representative	-9.75315
▁employees	-9.75318
▁rail	-9.75321
▁continues	-9.75329
▁Do	-9.75383
▁credibility	-9.75412
▁taxation	-9.75414
▁Eastern	-9.75475
▁transfer	-9.75481
▁supports	-9.75484
▁otherwise	-9.75502
▁recovery	-9.75507
▁reasonable	-9.75523
▁ACP	-9.75536
▁planning	-9.75631
▁inform	-9.75717
▁professional	-9.75904
▁ones	-9.76002
▁obtain	-9.76141
▁worth	-9.76147
▁immigrants	-9.76325
▁April	-9.76591
▁nations	-9.76655
▁Energy	-9.76744
▁amongst	-9.76805
EC	-9.76907
▁Only	-9.76913
▁obligation	-9.7696
▁limits	-9.76985
▁arms	-9.77012
▁Rule	-9.77174
▁Such	-9.77235
▁maximum	-9.77325
▁1999	-9.77398
▁factor	-9.77402
▁declaration	-9.77454
▁source	-9.77458
▁entry	-9.7757
▁gave	-9.7757
▁domestic	-9.77601
▁regulatory	-9.77758
▁banks	-9.77759
▁arrangements	-9.77896
▁Roma	-9.77957
T	-9.77972
▁rapid	-9.77977
▁terrorist	-9.78051
▁started	-9.78161
▁signal	-9.78173
▁religious	-9.7822
▁peoples	-9.78358
▁compensation	-9.78497
▁generally	-9.78601
▁easier	-9.78651
▁citizen	-9.78666
▁modern	-9.78725
▁solve	-9.78872
▁goals	-9.78883
▁neither	-9.79025
▁session	-9.79031
▁factors	-9.79072
▁Western	-9.79152
▁lies	-9.79168
▁Agriculture	-9.79399
▁politicians	-9.79411
▁manage	-9.79425
▁Those	-9.79462
▁Question	-9.7958
▁path	-9.79638
▁PPE	-9.79904
▁encouraging	-9.79964
▁Socialist	-9.80132
▁fail	-9.80227
lo	-9.80231
▁debt	-9.8026
▁Vice	-9.80263
▁attacks	-9.80368
▁Czech	-9.80437
▁Yet	-9.80438
▁freedoms	-9.80453
▁whilst	-9.80659
▁grounds	-9.80882
▁From	-9.80913
▁tobacco	-9.81104
ra	-9.81125
▁speaker	-9.81213
▁scale	-9.81216
▁post	-9.81249
▁politics	-9.81257
▁Research	-9.81263
▁permanent	-9.81305
▁continent	-9.81501
▁appears	-9.81554
▁moving	-9.81617
▁welfare	-9.81742
▁delighted	-9.81748
based	-9.82052
▁flexible	-9.82063
▁month	-9.82133
▁inclusion	-9.8216
▁compliance	-9.82235
▁respected	-9.8225
▁languages	-9.82292
PT	-9.82372
▁contributions	-9.82467
▁Market	-9.82547
▁Legal	-9.82676
▁endorse	-9.82762
▁requirement	-9.82769
▁partner	-9.82779
▁imposed	-9.83182
▁reflect	-9.83303
te	-9.83366
▁experts	-9.83377
▁constitutional	-9.83446
IT	-9.83501
▁sent	-9.83527
▁approve	-9.83632
▁maritime	-9.83749
▁man	-9.83808
▁visa	-9.83877
▁awareness	-9.83883
▁capable	-9.83914
▁link	-9.83966
▁General	-9.83982
▁restrictions	-9.8417
President	-9.8423
▁construction	-9.84241
▁firm	-9.8425
▁migration	-9.84273
▁evening	-9.84318
▁impose	-9.84418
▁separate	-9.84431
▁2003	-9.84464
▁proposes	-9.84524
▁equally	-9.84554
▁interested	-9.84716
▁Netherlands	-9.848
▁speed	-9.84816
▁guaranteed	-9.84899
▁forthcoming	-9.84965
▁century	-9.85167
▁negotiating	-9.85264
▁helping	-9.85274
▁personally	-9.85375
ul	-9.85405
▁customs	-9.85485
▁crimes	-9.85512
▁Strasbourg	-9.85563
▁safeguard	-9.85597
▁lose	-9.85604
▁placed	-9.85607
▁diseases	-9.85619
▁conflicts	-9.85778
▁trading	-9.85832
▁spending	-9.85847
▁fighting	-9.85864
▁operations	-9.85874
▁sexual	-9.859
▁payment	-9.8593
▁Copenhagen	-9.8603
▁likely	-9.86079
at	-9.86102
▁numerous	-9.86164
▁truth	-9.86205
▁learn	-9.8637
▁labelling	-9.86404
▁Baltic	-9.86566
▁Stability	-9.86567
▁Action	-9.86656
▁resolved	-9.86669
▁referendum	-9.86684
ro	-9.86784
▁NATO	-9.86973
▁purposes	-9.86979
▁demonstrate	-9.87006
▁continued	-9.87023
▁T	-9.87263
▁investments	-9.8736
▁defined	-9.87391
▁realise	-9.87416
▁allowing	-9.87427
▁scheme	-9.87433
▁existence	-9.87555
k	-9.87637
▁Europeans	-9.87727
20	-9.87796
▁Luxembourg	-9.8792
▁distribution	-9.8792
ary	-9.87998
▁examine	-9.88011
▁appropriations	-9.88089
▁pension	-9.88105
▁worse	-9.8811
▁Framework	-9.88125
▁glad	-9.88139
▁proceed	-9.88157
▁demonstrated	-9.8821
▁II	-9.88259
▁material	-9.88323
▁functioning	-9.88338
▁voluntary	-9.884
▁associated	-9.88427
▁tasks	-9.88503
5-	-9.88581
▁via	-9.88772
▁Afghanistan	-9.8881
▁base	-9.88904
▁W	-9.88979
▁Agenda	-9.89017
▁mass	-9.89055
▁passengers	-9.89064
▁peaceful	-9.8908
▁traditional	-9.89115
▁option	-9.89211
▁disasters	-9.89243
▁operate	-9.89246
▁protected	-9.89367
▁opinions	-9.89416
▁F	-9.89507
H	-9.89517
▁i	-9.89549
▁effectiveness	-9.89551
▁counter	-9.89594
▁strict	-9.89627
im	-9.89708
▁space	-9.89743
▁mission	-9.89758
▁remarks	-9.89767
▁revision	-9.89778
▁attack	-9.89788
▁letter	-9.89798
▁average	-9.89812
et	-9.89889
▁Another	-9.89917
▁written	-9.89956
▁occasions	-9.90008
mo	-9.90048
▁According	-9.90079
F	-9.90125
▁vision	-9.90129
▁New	-9.90129
▁exists	-9.9023
▁Balkans	-9.90241
▁phase	-9.90283
▁wide	-9.90361
▁contained	-9.90369
▁Ombudsman	-9.90509
▁wonder	-9.90541
▁d	-9.90621
▁operators	-9.90696
▁ultimately	-9.90737
▁assure	-9.90776
▁2002	-9.90777
▁cooperate	-9.90809
▁tried	-9.9112
la	-9.91162
▁Commissioners	-9.91375
▁Lastly	-9.91431
▁ECU	-9.91499
▁primarily	-9.91599
▁legitimate	-9.91615
▁suggest	-9.91654
▁Austria	-9.91781
▁appreciate	-9.91831
▁officials	-9.91961
▁Portuguese	-9.91989
▁technological	-9.91989
▁Not	-9.92
▁succeed	-9.92081
▁concluded	-9.92152
▁entitled	-9.92168
▁individuals	-9.92271
▁USA	-9.92387
▁High	-9.92419
▁ethnic	-9.92461
▁overcome	-9.92526
▁O	-9.92643
▁justified	-9.92645
▁brief	-9.92682
▁millions	-9.92721
ES	-9.92758
▁lay	-9.92785
▁difference	-9.92986
▁corruption	-9.93099
▁Despite	-9.93167
▁Chinese	-9.93203
▁extended	-9.93249
▁decisive	-9.93329
▁contact	-9.93348
▁dignity	-9.93383
▁M	-9.93491
▁loss	-9.93693
▁Organisation	-9.93816
ta	-9.93821
▁substance	-9.93856
▁played	-9.93859
▁Budgets	-9.94088
▁statistics	-9.94181
▁India	-9.94292
▁Dutch	-9.94323
▁involves	-9.94391
▁passed	-9.94403
▁visit	-9.94487
▁amounts	-9.94502
▁collective	-9.94524
is	-9.94596
▁allocated	-9.94627
▁nevertheless	-9.9476
▁prepare	-9.94782
▁normal	-9.94849
▁firmly	-9.94857
▁Treaties	-9.94906
▁temporary	-9.94907
▁clause	-9.94919
▁electronic	-9.95048
▁top	-9.95143
▁whatever	-9.95197
▁emergency	-9.95272
▁vulnerable	-9.95272
9	-9.95288
▁pursue	-9.95294
▁inter	-9.95362
▁violations	-9.9541
O	-9.95572
▁imports	-9.95623
▁court	-9.95661
▁Given	-9.95824
▁Financial	-9.95934
▁February	-9.95972
▁treated	-9.96028
▁got	-9.96132
us	-9.96196
▁constitution	-9.96197
ent	-9.96204
▁impression	-9.96268
▁unless	-9.96461
▁industries	-9.96564
▁abuse	-9.96749
▁Perhaps	-9.9675
▁CAP	-9.9683
▁excessive	-9.97032
▁latter	-9.97086
▁ministers	-9.97123
▁obstacles	-9.97129
▁centre	-9.97221
co	-9.97287
▁hands	-9.97297
▁please	-9.973
▁requested	-9.97307
▁trans	-9.9737
▁secondly	-9.97409
▁100	-9.97505
▁planned	-9.9754
▁property	-9.97544
▁Here	-9.97598
▁supervision	-9.9761
▁penalty	-9.9761
▁Women	-9.97763
▁Transport	-9.97798
▁extension	-9.97835
▁farming	-9.9789
▁R	-9.97967
▁exclusion	-9.98061
▁agency	-9.98137
▁fuel	-9.9814
▁somewhat	-9.98178
▁Assembly	-9.98212
▁offers	-9.98229
▁spoke	-9.98458
▁insurance	-9.98477
▁Head	-9.98477
▁CO	-9.98499
▁taxes	-9.98653
▁gain	-9.98691
▁Fundamental	-9.98818
▁highest	-9.98823
▁preventing	-9.98824
▁happens	-9.98852
ling	-9.98886
▁gone	-9.98964
▁prove	-9.99027
and	-9.9907
▁preparing	-9.99237
▁operational	-9.99291
▁examples	-9.99296
na	-9.99413
▁compared	-9.99444
▁record	-9.99463
▁undoubtedly	-9.99469
▁considering	-9.99473
▁fulfil	-9.99503
▁confirm	-9.99606
▁Israeli	-9.99616
▁quotas	-9.99619
▁behaviour	-9.9962
un	-9.99698
▁occasion	-9.99717
▁seven	-9.99724
▁spoken	-9.99754
▁knows	-9.99862
▁fishermen	-9.99888
▁constantly	-9.99891
x	-10.0016
▁relates	-10.0019
▁drawing	-10.0032
▁urgently	-10.0035
▁1998	-10.0036
▁dis	-10.004
▁applying	-10.0044
▁2001	-10.0074
▁details	-10.0078
▁pass	-10.0081
▁Because	-10.0081
v	-10.0085
▁tool	-10.009
▁processes	-10.0091
▁fiscal	-10.0097
▁NGOs	-10.0107
▁Prodi	-10.0113
▁duties	-10.012
▁introducing	-10.012
▁2007	-10.0123
▁pillar	-10.0139
▁expectations	-10.0142
▁keeping	-10.0146
▁exploitation	-10.0148
▁stronger	-10.0149
▁stocks	-10.0158
▁D	-10.016
▁announced	-10.0164
▁ratification	-10.0167
▁sensible	-10.0167
▁described	-10.0177
▁prosperity	-10.0187
▁codecision	-10.0191
▁latest	-10.0196
▁Fisheries	-10.0202
▁function	-10.0205
▁insist	-10.0207
▁proceedings	-10.0237
▁Asia	-10.0242
▁allows	-10.0245
▁Alliance	-10.0257
▁operating	-10.0261
▁strategies	-10.0261
rs	-10.0263
▁precise	-10.0264
▁confirmed	-10.0266
li	-10.0267
▁determined	-10.027
▁strengthened	-10.0287
▁Re	-10.0302
▁association	-10.0313
▁welcomed	-10.0316
▁barriers	-10.0319
▁Then	-10.0323
▁coordinated	-10.0332
ci	-10.0342
▁studies	-10.0345
NL	-10.035
▁courage	-10.0352
▁Croatia	-10.0357
ne	-10.0357
▁40	-10.0385
▁types	-10.0385
▁works	-10.0396
▁choose	-10.0396
▁submit	-10.042
▁minutes	-10.0424
▁sub	-10.043
▁assume	-10.044
▁historic	-10.0442
▁arguments	-10.0448
▁convergence	-10.0449
ia	-10.045
▁largest	-10.0451
▁kept	-10.0453
▁deliver	-10.0458
▁fine	-10.0464
▁represented	-10.0479
▁accounts	-10.048
▁clarify	-10.0481
ised	-10.0484
ma	-10.0494
▁Report	-10.0501
▁Consumer	-10.0519
▁noted	-10.0531
▁materials	-10.0554
▁conciliation	-10.0562
▁intends	-10.0563
▁debating	-10.057
▁leadership	-10.0578
ated	-10.0587
▁Employment	-10.0594
▁briefly	-10.0601
▁innovative	-10.0615
ise	-10.062
▁unfair	-10.0626
▁Protection	-10.0627
▁pro	-10.0628
▁published	-10.0639
0	-10.0643
▁shadow	-10.0644
▁coherent	-10.0646
▁equipment	-10.0656
▁largely	-10.0656
▁Budget	-10.0663
▁near	-10.0667
▁contracts	-10.0675
▁sovereignty	-10.0681
▁condemn	-10.0685
▁politically	-10.0693
▁assess	-10.0709
▁restructuring	-10.071
▁realistic	-10.0714
▁dependent	-10.0723
▁wine	-10.0731
▁condition	-10.075
▁united	-10.0752
▁maintaining	-10.0757
▁nation	-10.076
▁suffer	-10.0762
▁accidents	-10.0771
▁finding	-10.0775
▁24	-10.0783
z	-10.0786
year	-10.0789
▁transition	-10.079
ti	-10.0796
▁significantly	-10.0803
▁room	-10.081
▁Instead	-10.0817
▁urgency	-10.0817
▁advance	-10.0819
▁undertaken	-10.0827
▁willing	-10.0829
ry	-10.0829
▁enjoy	-10.083
▁follows	-10.0831
▁fields	-10.0832
▁Constitutional	-10.084
▁2006	-10.0841
▁territorial	-10.0847
▁felt	-10.0851
▁honour	-10.0858
▁amending	-10.0862
terinstitutional	-10.087
▁paper	-10.0876
▁ongoing	-10.0885
▁offered	-10.0891
▁argument	-10.0902
▁test	-10.0903
▁regular	-10.0903
▁perfectly	-10.0913
▁identity	-10.0918
▁electricity	-10.0922
General	-10.0927
▁invest	-10.0946
▁define	-10.0948
▁careful	-10.0951
▁1997	-10.0964
▁waiting	-10.0993
▁absence	-10.1003
▁wait	-10.1006
▁school	-10.1009
▁Protocol	-10.1011
▁t	-10.1013
▁universal	-10.1013
ce	-10.1025
▁stable	-10.1034
▁contain	-10.1042
▁cars	-10.1043
▁concentrate	-10.1049
▁acknowledge	-10.1049
▁vessels	-10.1052
out	-10.1054
ve	-10.1055
▁Serbia	-10.106
▁formal	-10.1062
▁determination	-10.1078
▁Ma	-10.1081
▁patients	-10.1093
▁proved	-10.1098
▁brings	-10.1098
▁difficulty	-10.1099
w	-10.1105
▁Dur	-10.1107
▁legally	-10.1109
▁understood	-10.1114
▁medical	-10.1114
▁parliament	-10.1116
▁Consequently	-10.1118
▁answers	-10.1121
▁highlighted	-10.1123
▁changing	-10.1127
▁qualified	-10.1149
▁More	-10.1157
▁amended	-10.116
▁places	-10.117
▁Hungarian	-10.1173
▁significance	-10.1183
▁head	-10.1187
sh	-10.1188
▁deficit	-10.119
▁release	-10.1204
▁Can	-10.1228
R	-10.123
▁holding	-10.1246
▁claim	-10.1248
▁neighbours	-10.125
▁disposal	-10.1252
▁figure	-10.1261
▁genuinely	-10.1264
▁driving	-10.1265
▁VAT	-10.1287
▁Control	-10.1292
▁valuable	-10.1292
▁referring	-10.1292
▁22	-10.1302
▁2008	-10.1312
▁sustainability	-10.1318
age	-10.1319
▁feed	-10.1331
▁apart	-10.1347
▁milk	-10.1353
▁meat	-10.1353
▁satisfactory	-10.1357
▁learning	-10.136
▁inadequate	-10.1365
▁Last	-10.1366
▁resulting	-10.1366
▁listen	-10.1368
▁Georgia	-10.1388
▁23	-10.1395
▁Food	-10.1406
▁Representative	-10.1419
▁absolute	-10.1423
E	-10.1425
▁Austrian	-10.1432
▁seeing	-10.1434
▁Internal	-10.1441
man	-10.1444
▁primary	-10.1459
▁daily	-10.1473
▁Cooperation	-10.1477
▁preparation	-10.1478
▁negotiation	-10.1483
▁remove	-10.1485
ate	-10.1486
▁Safety	-10.1491
ance	-10.15
▁urban	-10.1517
▁exports	-10.153
▁extra	-10.1535
▁stake	-10.1545
▁suggested	-10.155
▁moral	-10.1556
ty	-10.156
▁grant	-10.1561
▁plants	-10.1564
ut	-10.1567
▁users	-10.1579
▁built	-10.1594
▁Latin	-10.1599
▁actively	-10.1599
ntergovernmental	-10.1601
▁playing	-10.1615
▁Time	-10.1616
▁drug	-10.1619
▁Thursday	-10.1625
▁Finland	-10.163
▁waters	-10.163
G	-10.1639
▁facts	-10.164
▁neighbouring	-10.1653
▁leads	-10.1656
▁saw	-10.1667
▁depend	-10.1674
▁someone	-10.1674
▁zone	-10.1687
▁constitute	-10.1691
▁determine	-10.1693
▁television	-10.1702
▁1996	-10.1734
▁version	-10.1738
▁destruction	-10.1748
▁Once	-10.1751
▁White	-10.1753
▁bit	-10.1763
▁elsewhere	-10.1771
▁investigation	-10.1775
▁speeches	-10.178
▁deep	-10.1793
▁double	-10.18
▁Northern	-10.1808
▁identify	-10.1809
ally	-10.1814
▁friends	-10.1815
▁plant	-10.1817
▁Common	-10.1817
▁massive	-10.1818
▁code	-10.1823
▁GDP	-10.1831
▁sport	-10.1838
▁Before	-10.1845
é	-10.1849
▁wider	-10.1856
▁van	-10.1859
▁maintained	-10.1866
▁etc	-10.187
▁Greens	-10.187
▁indicated	-10.1876
▁Regional	-10.1882
▁timetable	-10.1885
▁possibly	-10.1896
▁opposite	-10.19
Christian	-10.1902
▁multilateral	-10.1914
▁medicines	-10.1915
▁Without	-10.1921
ating	-10.1922
▁H	-10.1923
▁Britain	-10.1924
▁Europol	-10.1928
▁sufficiently	-10.1932
▁previously	-10.1933
▁proportion	-10.1937
▁identified	-10.1942
▁competent	-10.1957
▁aviation	-10.1961
▁greatly	-10.1967
▁meant	-10.1968
▁satisfied	-10.197
▁Are	-10.1973
▁500	-10.1987
▁Thus	-10.1989
▁topic	-10.1992
▁transitional	-10.1993
U	-10.1994
▁spread	-10.2005
▁enforcement	-10.2013
▁check	-10.2016
▁running	-10.2018
N	-10.2019
▁societies	-10.2022
▁partly	-10.2028
▁thanking	-10.2032
▁ports	-10.2033
▁background	-10.2036
▁links	-10.2037
▁requests	-10.2037
▁obliged	-10.2037
▁tragic	-10.2045
▁uniform	-10.2049
▁considers	-10.2054
▁compulsory	-10.2056
▁interpretation	-10.2056
▁moreover	-10.2059
▁BSE	-10.2063
▁affects	-10.2063
▁strength	-10.2063
▁prisoners	-10.2064
▁possibilities	-10.2064
▁oppose	-10.2078
▁External	-10.2079
▁dynamic	-10.2079
▁West	-10.2087
▁1995	-10.2087
▁himself	-10.2088
session	-10.209
▁K	-10.2093
▁adapt	-10.2097
▁stands	-10.2099
▁stock	-10.21
▁budgets	-10.2109
▁2010	-10.2113
▁recall	-10.212
▁guaranteeing	-10.2131
▁chosen	-10.2131
▁suffered	-10.2141
▁becomes	-10.2149
▁conducted	-10.2155
▁hearing	-10.2156
00	-10.2159
▁launched	-10.2162
▁implications	-10.2165
less	-10.2182
▁rich	-10.2191
▁completed	-10.2197
▁spend	-10.22
▁front	-10.22
▁issued	-10.2218
▁carrying	-10.2218
▁intellectual	-10.2222
▁helped	-10.2224
▁species	-10.2231
▁Kyoto	-10.2246
▁afternoon	-10.226
▁reconstruction	-10.226
▁attempts	-10.2268
▁schemes	-10.2271
▁Having	-10.2289
▁deserves	-10.2294
▁extreme	-10.2303
▁gap	-10.2312
▁beings	-10.2316
▁eight	-10.2319
▁Pakistan	-10.2321
▁enhance	-10.2326
free	-10.233
▁went	-10.2333
▁debated	-10.2335
▁size	-10.2336
▁fruit	-10.2344
▁Belgian	-10.2347
▁complicated	-10.2348
▁poorest	-10.2349
ors	-10.2349
ol	-10.2351
▁Liberal	-10.2356
▁V	-10.2362
ir	-10.2382
▁definitely	-10.2383
▁sorry	-10.2389
▁patent	-10.2393
▁diplomatic	-10.2411
ising	-10.2414
▁options	-10.2415
▁surely	-10.2418
▁seeks	-10.2419
▁heavy	-10.2421
▁National	-10.243
▁Hungary	-10.2435
▁tragedy	-10.2435
▁prior	-10.2439
▁facilities	-10.244
▁worldwide	-10.246
▁ratified	-10.246
▁Bosnia	-10.2463
▁replace	-10.2468
▁addressing	-10.247
▁spite	-10.2475
ous	-10.248
▁proof	-10.2485
EL	-10.2486
▁whereby	-10.2489
▁advertising	-10.2494
▁assist	-10.2499
▁Home	-10.251
▁mistake	-10.2522
▁Nice	-10.2524
▁secret	-10.2529
▁Secretary	-10.2529
▁accident	-10.2543
COM	-10.2554
▁green	-10.2555
▁southern	-10.2559
▁wealth	-10.2581
▁relative	-10.2583
ant	-10.259
▁exception	-10.2596
RO	-10.2597
▁prospects	-10.2602
▁sugar	-10.2623
▁harmful	-10.2624
▁successfully	-10.2629
▁believes	-10.2632
ad	-10.2635
▁extensive	-10.2638
scale	-10.264
▁purely	-10.2645
▁producing	-10.2645
ting	-10.2646
▁cities	-10.2649
▁centres	-10.2649
▁sets	-10.265
▁intentions	-10.266
▁openness	-10.2664
▁constant	-10.2668
▁worst	-10.2674
▁Belgium	-10.2679
▁solely	-10.2686
▁Partnership	-10.2694
▁quote	-10.2699
▁opened	-10.2714
▁phenomenon	-10.2719
▁generation	-10.272
▁players	-10.2734
▁EC	-10.2739
▁healthy	-10.2744
▁reiterate	-10.2749
▁acting	-10.2751
▁taxpayers	-10.2753
▁governing	-10.2755
▁skills	-10.2758
02	-10.2761
economic	-10.2761
ian	-10.2766
▁tools	-10.2771
▁worrying	-10.2773
▁numbers	-10.2773
▁easily	-10.2775
▁foremost	-10.2775
▁demanding	-10.2776
▁Korea	-10.278
▁extending	-10.2783
▁hundreds	-10.279
▁unanimously	-10.2794
▁Under	-10.281
▁Will	-10.2812
▁Japan	-10.2815
▁dispute	-10.2818
related	-10.2832
vo	-10.2835
▁b	-10.2841
▁Where	-10.2845
▁multi	-10.2851
▁Nor	-10.2855
▁Socialists	-10.2857
▁correctly	-10.2858
▁stressed	-10.2865
one	-10.2866
▁Polish	-10.2882
▁Danish	-10.2882
▁pensions	-10.2883
▁depends	-10.2884
01	-10.289
▁passenger	-10.2905
▁essentially	-10.2916
▁crises	-10.2918
▁texts	-10.2921
▁profits	-10.2929
▁Both	-10.2939
▁environmentally	-10.2947
▁achievement	-10.2952
▁advice	-10.2954
▁ECB	-10.2955
▁rapidly	-10.2968
▁bound	-10.298
▁claims	-10.2986
con	-10.2992
▁proud	-10.2995
tergovernmental	-10.3
▁enabling	-10.3006
▁profit	-10.3009
▁31	-10.3016
ni	-10.3016
▁considerations	-10.3016
▁heritage	-10.3026
me	-10.3038
▁feeling	-10.3039
▁reliable	-10.3042
▁focused	-10.3048
▁bureaucracy	-10.3052
▁core	-10.3056
▁manufacturers	-10.306
▁sum	-10.306
▁thorough	-10.3063
▁considerably	-10.3069
▁Left	-10.3073
▁cuts	-10.3075
▁remaining	-10.3082
▁chairman	-10.3084
▁promised	-10.3088
▁charges	-10.3093
▁26	-10.3095
▁granting	-10.3103
▁geographical	-10.3105
▁deals	-10.3106
▁suitable	-10.3121
▁launch	-10.3121
▁decades	-10.3125
▁...	-10.3127
▁threats	-10.3134
▁Growth	-10.3136
ha	-10.3144
▁savings	-10.3148
▁refers	-10.3149
▁break	-10.3151
▁performance	-10.3152
▁Plan	-10.3158
▁Cuba	-10.3158
▁paying	-10.3171
▁slow	-10.3182
▁clarity	-10.3189
▁advantages	-10.3194
▁undertakings	-10.3195
▁powerful	-10.3206
▁certainty	-10.3209
▁favourable	-10.3213
▁encouraged	-10.3218
▁Barcelona	-10.3226
▁carbon	-10.3228
▁Does	-10.3234
▁regrettable	-10.3242
▁beef	-10.3247
▁experienced	-10.3251
▁port	-10.3253
ter	-10.3262
▁admit	-10.3263
▁reaction	-10.3264
▁stay	-10.3284
▁intervene	-10.329
▁willingness	-10.3291
▁applicable	-10.3295
am	-10.3296
▁imagine	-10.3296
▁schools	-10.3309
▁contributed	-10.3317
▁ships	-10.3321
▁declared	-10.3321
▁unnecessary	-10.3322
▁violation	-10.3329
▁emphasised	-10.3335
▁save	-10.3338
▁contract	-10.3339
▁convention	-10.3343
▁reflected	-10.3347
▁Just	-10.3349
▁wording	-10.3352
▁heading	-10.336
▁entered	-10.336
▁competences	-10.3374
▁historical	-10.3374
▁affecting	-10.3376
▁supposed	-10.3382
▁succeeded	-10.3421
▁legitimacy	-10.343
▁biggest	-10.3435
▁island	-10.3472
▁doubts	-10.3477
▁eastern	-10.3485
▁increases	-10.349
▁Rur	-10.3492
▁summer	-10.3496
▁engage	-10.3505
▁Arab	-10.3505
▁arise	-10.3507
ig	-10.3507
ful	-10.3514
ies	-10.3515
ho	-10.3528
▁hit	-10.3528
▁restore	-10.3534
▁simplification	-10.3539
▁Christian	-10.3544
▁science	-10.3545
▁removed	-10.3545
▁article	-10.3558
▁vast	-10.3567
▁whereas	-10.3567
▁retain	-10.3579
▁constitutes	-10.3579
▁commit	-10.3582
▁negotiated	-10.3588
▁reaching	-10.359
▁regarded	-10.3597
▁protocol	-10.3603
▁greenhouse	-10.3605
ities	-10.3614
▁supplementary	-10.3616
▁airlines	-10.3623
▁sake	-10.3627
▁20%	-10.3633
▁reservations	-10.3634
▁incorporated	-10.3636
▁Parliamentary	-10.3638
▁Civil	-10.3643
▁bank	-10.3648
▁communications	-10.3653
▁utmost	-10.3666
▁consequence	-10.367
▁religion	-10.3698
▁Subject	-10.3705
▁Denmark	-10.3716
ge	-10.3729
▁chain	-10.3738
▁leader	-10.3745
▁noon	-10.3746
▁Authority	-10.3749
▁firms	-10.375
▁citizenship	-10.3766
▁regulate	-10.3767
▁courts	-10.3769
um	-10.3769
▁obtained	-10.3771
▁Slovakia	-10.3772
▁buy	-10.3776
▁cancer	-10.3793
▁negotiate	-10.3795
▁healthcare	-10.3795
▁targeted	-10.3805
ine	-10.3811
▁weak	-10.3816
▁modified	-10.3817
▁fairly	-10.3822
▁Culture	-10.3822
▁deeply	-10.3829
▁boost	-10.3833
▁afraid	-10.3833
▁everybody	-10.3839
▁smaller	-10.3851
▁29	-10.3855
▁eye	-10.3862
▁piece	-10.3862
▁28	-10.3865
▁te	-10.3878
▁raising	-10.3881
▁200	-10.3884
▁eliminate	-10.3891
▁presenting	-10.3895
▁news	-10.3901
▁tests	-10.3906
▁Burma	-10.3907
▁battle	-10.3907
▁Joint	-10.3907
▁deserve	-10.3908
▁aside	-10.3911
ll	-10.392
▁clean	-10.3921
▁explanation	-10.393
▁employers	-10.3939
▁applicant	-10.3942
▁sought	-10.3943
▁Maastricht	-10.3947
▁Tourism	-10.3947
▁applications	-10.3965
wide	-10.3971
▁suggestions	-10.3972
▁excluded	-10.3973
▁fleet	-10.3995
▁south	-10.3999
▁60	-10.4
▁Over	-10.401
▁alcohol	-10.4015
ca	-10.4031
▁Association	-10.4033
▁charge	-10.4042
▁prospect	-10.4042
▁struggle	-10.4044
▁preserve	-10.4045
▁respects	-10.4051
▁liberal	-10.4056
▁necessarily	-10.4056
▁Follow	-10.4062
▁leaving	-10.4062
▁Berlin	-10.4073
▁ordinary	-10.4073
▁harm	-10.4083
▁Industry	-10.4096
▁credible	-10.4102
▁ethical	-10.4102
▁Citizens	-10.4135
▁She	-10.4144
▁treaties	-10.4149
▁incentives	-10.4157
▁combined	-10.4158
▁author	-10.416
▁bureaucratic	-10.4161
▁import	-10.4166
▁electoral	-10.4184
▁revised	-10.4186
▁mark	-10.4188
ring	-10.4191
▁meaning	-10.4193
▁yes	-10.4195
▁tonnes	-10.4208
▁jointly	-10.4211
▁settlement	-10.4222
▁examined	-10.4222
▁nationals	-10.4233
▁armed	-10.4245
▁declarations	-10.4247
▁eyes	-10.4255
▁racism	-10.426
▁terrible	-10.4272
▁amend	-10.4274
▁weight	-10.4277
▁repeatedly	-10.4277
▁complaints	-10.4292
▁transactions	-10.4295
▁Well	-10.4301
▁drafting	-10.431
▁railway	-10.4311
ot	-10.4318
▁register	-10.4326
▁shortcomings	-10.4327
▁outstanding	-10.4329
▁importantly	-10.433
▁showing	-10.4331
▁Van	-10.4339
▁surprised	-10.434
▁radical	-10.4342
▁representation	-10.4344
▁pleasure	-10.4349
▁arrest	-10.435
▁hopes	-10.4358
▁checks	-10.4371
▁marketing	-10.4375
▁familiar	-10.4378
▁stance	-10.4379
▁pact	-10.4379
▁unemployed	-10.4379
▁disabled	-10.4384
▁nearly	-10.4386
▁underline	-10.4388
▁exceptional	-10.4388
▁justify	-10.4398
▁forest	-10.4401
ke	-10.4401
▁Yugoslavia	-10.4404
id	-10.4407
▁prefer	-10.4407
▁afford	-10.4411
he	-10.4411
▁grow	-10.4422
▁shape	-10.4427
ba	-10.4434
▁reflects	-10.4434
▁declare	-10.4439
▁bearing	-10.4441
▁broader	-10.4463
▁foundations	-10.4473
▁percentage	-10.448
▁m	-10.4483
ac	-10.4483
em	-10.4486
▁undertake	-10.4486
▁trend	-10.4503
▁turned	-10.4507
Parliament	-10.4509
▁buildings	-10.4518
▁honest	-10.4521
▁hardly	-10.4524
▁creates	-10.4536
▁penalties	-10.4541
▁economically	-10.4552
▁widespread	-10.4553
▁belief	-10.4558
▁deadline	-10.4559
▁educational	-10.4566
▁resulted	-10.457
▁students	-10.4574
▁Bureau	-10.4577
▁expense	-10.4583
▁ambition	-10.4583
▁expressing	-10.4585
▁biodiversity	-10.4595
▁fewer	-10.46
▁suspended	-10.4605
▁quota	-10.4608
SV	-10.461
▁red	-10.4613
▁picture	-10.4614
▁delays	-10.4636
▁allocation	-10.4638
▁Act	-10.4643
▁undermine	-10.4658
▁inflation	-10.4662
▁coordinate	-10.4664
▁relate	-10.4664
▁count	-10.4669
▁PSE	-10.4675
▁tackling	-10.4681
▁Yes	-10.4688
▁unity	-10.4692
▁subjects	-10.4695
▁fresh	-10.4699
▁belong	-10.4704
▁Albania	-10.4709
▁L	-10.4712
▁losses	-10.4714
▁below	-10.4717
▁warmly	-10.4722
▁transatlantic	-10.4724
▁fire	-10.4726
▁restrict	-10.4733
▁repeated	-10.4739
▁c	-10.4743
▁abolition	-10.4749
▁Free	-10.475
▁War	-10.4763
▁disagree	-10.4766
▁prison	-10.4771
▁liability	-10.478
▁enhanced	-10.478
time	-10.478
▁Morocco	-10.4792
▁treat	-10.4792
▁ex	-10.4796
▁none	-10.48
nt	-10.4803
vi	-10.4804
lecommunications	-10.4806
▁drafted	-10.4822
▁lessons	-10.4824
V	-10.483
▁restricted	-10.4832
▁night	-10.4842
▁condemned	-10.4842
▁satisfaction	-10.4848
▁youth	-10.4848
▁physical	-10.4849
▁regulated	-10.4854
▁airports	-10.4866
▁freely	-10.4867
▁became	-10.4873
▁invite	-10.4874
ver	-10.4874
▁preparations	-10.4878
▁motor	-10.4892
▁unique	-10.4892
▁faith	-10.4897
▁expensive	-10.4898
▁qualifications	-10.4902
▁track	-10.4906
▁falls	-10.4908
▁category	-10.4911
▁aircraft	-10.4911
▁unfortunate	-10.4911
▁Lithuania	-10.4912
▁lasting	-10.4917
▁occurred	-10.4923
▁Gaza	-10.4936
▁withdraw	-10.4941
▁digital	-10.4942
▁city	-10.4943
▁minute	-10.4945
▁gradually	-10.4952
▁insufficient	-10.4953
do	-10.4965
▁door	-10.4966
di	-10.4966
▁army	-10.4968
▁twenty	-10.4974
▁flow	-10.4978
▁presentation	-10.498
▁explained	-10.4993
▁Clearly	-10.4993
L	-10.4994
▁widely	-10.4996
▁recommend	-10.4999
▁larger	-10.5008
▁J	-10.5009
per	-10.501
▁Islamic	-10.5013
▁demographic	-10.5018
▁distinction	-10.5019
▁raw	-10.5025
▁lie	-10.5025
▁fast	-10.5028
▁Geneva	-10.5031
▁kinds	-10.5032
▁civilian	-10.5036
▁sovereign	-10.5037
▁welcomes	-10.5037
▁Rome	-10.5044
▁ignore	-10.5055
▁English	-10.5056
▁causing	-10.5069
▁indicate	-10.5074
▁collaboration	-10.5075
▁candidates	-10.5083
▁team	-10.5086
▁Palestinians	-10.5094
▁Macedonia	-10.5095
▁EMU	-10.5101
▁periods	-10.5105
▁terrorists	-10.5118
▁informal	-10.5124
▁processing	-10.5125
▁uncertainty	-10.5127
▁covers	-10.5147
▁sphere	-10.515
▁nonetheless	-10.5152
▁push	-10.5164
▁regardless	-10.5165
▁reflection	-10.5165
▁financed	-10.5165
▁offering	-10.5171
▁outset	-10.5175
▁permit	-10.5176
▁suggestion	-10.5178
▁trial	-10.5178
▁receiving	-10.5178
▁drivers	-10.5179
▁listened	-10.5184
▁acquis	-10.5204
▁generations	-10.5215
▁elderly	-10.5217
▁ecological	-10.5218
▁parents	-10.522
▁warning	-10.5222
▁basically	-10.5225
▁Obviously	-10.523
land	-10.5242
▁procurement	-10.5243
▁undertaking	-10.5243
▁indicators	-10.5248
▁hence	-10.5251
▁collection	-10.5256
▁unanimous	-10.5257
▁protest	-10.526
▁turning	-10.5261
▁transit	-10.5263
▁severe	-10.5263
▁engaged	-10.5268
▁strike	-10.5288
led	-10.5301
▁began	-10.5303
▁blame	-10.5309
▁demonstrates	-10.5311
▁Zimbabwe	-10.5333
▁promises	-10.5334
▁comparison	-10.5341
▁tribute	-10.5341
▁banking	-10.5343
▁territories	-10.5347
▁extraordinary	-10.5347
▁observed	-10.5352
▁valid	-10.5352
▁necessity	-10.536
▁Most	-10.5381
▁shares	-10.5385
▁minister	-10.5386
▁abstained	-10.5391
▁Centre	-10.54
▁deaths	-10.5407
pe	-10.5407
▁con	-10.5408
▁beneficial	-10.5413
j	-10.5422
▁journalists	-10.5423
ag	-10.5428
▁Nonetheless	-10.5433
▁opt	-10.5436
▁killed	-10.5438
▁organise	-10.5441
▁promoted	-10.5442
▁prevented	-10.5443
▁Investment	-10.5459
▁motions	-10.5468
▁couple	-10.5469
▁frequently	-10.5469
▁reinforce	-10.5474
▁promise	-10.5475
EU	-10.5478
▁congratulations	-10.5479
▁spring	-10.5479
▁associations	-10.5486
▁supplies	-10.5486
▁reserve	-10.5488
▁populations	-10.5492
▁wage	-10.5496
▁Iraqi	-10.5508
▁pilot	-10.5513
ward	-10.5529
▁finances	-10.5547
▁occur	-10.5567
▁Office	-10.5568
▁torture	-10.5575
▁clearer	-10.5579
▁Any	-10.558
▁Also	-10.5587
ex	-10.559
▁section	-10.5595
▁viable	-10.5601
▁nobody	-10.5607
97	-10.561
ized	-10.5611
ning	-10.5611
▁contacts	-10.5613
▁marine	-10.5613
▁noise	-10.5619
level	-10.5619
▁Year	-10.5627
▁IGC	-10.564
▁revenue	-10.5642
▁react	-10.5644
▁solid	-10.5647
▁2.	-10.5654
▁rejection	-10.5657
om	-10.5658
▁sincerely	-10.5658
▁Chechnya	-10.5661
▁parallel	-10.5667
▁compatible	-10.5668
▁Second	-10.5669
▁sending	-10.5683
▁emerging	-10.5688
▁pursued	-10.569
▁Americans	-10.5695
ga	-10.571
ck	-10.5724
▁London	-10.5729
▁dumping	-10.5732
ru	-10.5742
▁arising	-10.5742
▁shortly	-10.5742
▁1990	-10.5743
▁accompanied	-10.5749
▁efficiently	-10.5762
▁mid	-10.5763
▁Every	-10.5769
ill	-10.578
▁forests	-10.578
▁accessible	-10.5785
▁moved	-10.5787
▁looked	-10.5791
▁ill	-10.5792
▁exclusively	-10.5801
▁talked	-10.5811
▁blood	-10.5822
▁friend	-10.5823
▁congratulating	-10.5825
▁troops	-10.5825
▁president	-10.5825
▁approximately	-10.583
▁Canada	-10.5832
▁vehicle	-10.5835
lu	-10.5836
▁Petitions	-10.5838
▁simplify	-10.584
▁conventions	-10.5843
ten	-10.5844
▁surveillance	-10.5845
▁Soviet	-10.5853
▁divided	-10.587
▁alongside	-10.5878
▁harmonised	-10.5884
▁OLAF	-10.5887
▁clarification	-10.5891
▁refuse	-10.59
▁fourth	-10.5901
▁occupation	-10.5904
▁keen	-10.5914
▁observation	-10.5919
▁observe	-10.5928
by	-10.5934
▁enlarged	-10.5936
▁Labour	-10.5949
ven	-10.595
▁Egypt	-10.5956
▁apparent	-10.5958
country	-10.597
▁jurisdiction	-10.597
▁murder	-10.5973
▁division	-10.5975
▁experiencing	-10.5977
▁choices	-10.5977
▁judgment	-10.5982
▁loans	-10.5984
▁Like	-10.5984
▁Objective	-10.5991
▁route	-10.5996
debate	-10.5998
▁northern	-10.5998
▁forum	-10.5999
▁Their	-10.6002
▁friendly	-10.6009
▁La	-10.6013
ard	-10.6013
va	-10.6015
ted	-10.6017
CS	-10.6021
▁disappointed	-10.6027
▁stations	-10.6029
▁strictly	-10.6044
▁Cohesion	-10.6047
▁Finnish	-10.6047
▁rising	-10.6062
▁coherence	-10.6068
po	-10.6069
ical	-10.607
▁defending	-10.6075
▁host	-10.6076
▁roads	-10.6084
▁resource	-10.6089
▁postal	-10.6089
▁Great	-10.609
▁Atlantic	-10.6098
mi	-10.61
▁consulted	-10.611
▁Education	-10.6111
▁begun	-10.6118
▁Declaration	-10.6125
ab	-10.6129
▁evident	-10.6129
▁f	-10.6132
EEC	-10.6133
▁image	-10.6146
▁mere	-10.6153
▁Otherwise	-10.6153
▁desirable	-10.6153
▁surrounding	-10.6155
ect	-10.6158
▁crops	-10.6165
▁neighbourhood	-10.6168
ng	-10.617
▁textile	-10.6175
▁statute	-10.6182
▁compete	-10.6189
▁house	-10.62
▁chemical	-10.6203
▁unions	-10.6209
▁Ba	-10.6209
▁Service	-10.621
▁unanimity	-10.6211
▁respecting	-10.6211
▁campaigns	-10.6213
▁tangible	-10.6218
▁notice	-10.6219
▁directed	-10.6223
▁conservation	-10.6261
▁sharing	-10.6263
way	-10.6264
▁design	-10.6271
▁ruling	-10.6275
pp	-10.6282
▁victim	-10.629
▁N	-10.6291
▁2011	-10.6291
▁usual	-10.6291
▁soil	-10.6303
▁drive	-10.6307
▁yourself	-10.6311
▁permitted	-10.6312
▁Your	-10.6315
▁Single	-10.6318
▁timely	-10.6319
▁threatened	-10.6323
▁procedural	-10.6326
▁Communist	-10.6326
▁threshold	-10.6326
▁coastal	-10.6327
▁connected	-10.635
be	-10.6357
▁sight	-10.6357
▁alternatives	-10.6361
Mediterranean	-10.6362
▁nine	-10.6362
▁emission	-10.6363
ts	-10.6372
▁Le	-10.6378
▁lacking	-10.6382
hi	-10.6386
▁standing	-10.6387
▁Moldova	-10.6387
ped	-10.6389
▁defining	-10.6391
▁Palestine	-10.6399
ence	-10.6403
▁excuse	-10.6406
▁joined	-10.6409
▁railways	-10.6416
▁traditions	-10.6419
▁socio	-10.6419
▁Statute	-10.642
▁controversial	-10.642
▁respective	-10.6427
▁pursuan	-10.6428
▁residence	-10.6442
▁replaced	-10.6442
▁examination	-10.6443
▁tradition	-10.6448
▁confusion	-10.6449
▁forgotten	-10.645
▁justification	-10.6455
▁refused	-10.6455
▁2000,	-10.6456
tra	-10.646
pa	-10.6461
HU	-10.6461
▁perspectives	-10.6463
▁Co	-10.6468
ial	-10.6469
▁authorisation	-10.6474
▁win	-10.6483
▁Two	-10.6486
▁contributing	-10.6494
bi	-10.6498
▁farms	-10.6498
▁worthy	-10.65
▁hoped	-10.6517
▁train	-10.6527
▁imposing	-10.653
▁dramatic	-10.6545
▁puts	-10.6557
os	-10.6558
▁Regarding	-10.656
▁acceptance	-10.6561
5-00	-10.6568
▁characteristics	-10.6569
▁Allow	-10.6569
▁categories	-10.6575
quality	-10.6579
▁migrants	-10.658
▁organizations	-10.6581
▁sit	-10.6589
▁net	-10.6599
▁1994	-10.6602
▁integrity	-10.6605
▁consequently	-10.6606
▁estimated	-10.6606
▁showed	-10.6612
▁scrutiny	-10.6612
▁Malta	-10.6619
▁subsequently	-10.6625
▁Information	-10.6627
▁equivalent	-10.6627
▁housing	-10.6627
▁50%	-10.6635
▁length	-10.664
▁north	-10.664
▁slightly	-10.6644
▁impetus	-10.6649
▁arrive	-10.6651
▁intensive	-10.6654
▁logical	-10.6655
▁underlying	-10.6657
▁ideal	-10.666
▁missing	-10.6662
▁expansion	-10.6664
▁raises	-10.6668
▁items	-10.6673
▁search	-10.6675
ure	-10.6677
▁mobile	-10.6694
▁reconciliation	-10.6694
▁helpful	-10.6695
(	-10.6696
mp	-10.6702
▁signing	-10.6706
ritten	-10.6709
▁highlights	-10.6719
▁funded	-10.6728
▁systematic	-10.674
▁perfect	-10.6742
▁observers	-10.6742
off	-10.6745
▁destroy	-10.6749
▁preventive	-10.6752
▁Defence	-10.6755
▁warm	-10.6768
▁[	-10.677
▁resumed	-10.6772
▁withdrawal	-10.6773
▁interim	-10.6786
▁card	-10.6807
▁managing	-10.6815
▁joining	-10.6825
▁Solidarity	-10.683
▁contrast	-10.683
▁achievements	-10.6842
▁destroyed	-10.6847
▁notably	-10.6855
▁g	-10.6856
▁assessments	-10.6857
▁breach	-10.6858
▁commend	-10.6859
▁Who	-10.6862
bo	-10.6864
▁approaches	-10.6875
▁banned	-10.6877
▁Dublin	-10.6892
▁integrate	-10.6894
▁thousand	-10.6897
outermost	-10.69
▁supervisory	-10.6915
▁confident	-10.6922
▁advocate	-10.693
▁agrees	-10.6938
▁violent	-10.6938
▁imported	-10.6941
▁System	-10.6945
▁judge	-10.6949
▁whatsoever	-10.6953
▁advanced	-10.6962
▁ratify	-10.6964
▁block	-10.6969
▁distributed	-10.697
▁Please	-10.6976
▁grave	-10.6976
▁Monday	-10.6976
▁losing	-10.6984
▁subsequent	-10.6986
▁chapter	-10.699
▁consent	-10.6999
ization	-10.7002
governmental	-10.7003
▁genetically	-10.7007
▁accordingly	-10.7009
▁appointment	-10.7013
▁freight	-10.7015
▁sales	-10.7018
▁covering	-10.7021
▁ambitions	-10.7023
▁restrictive	-10.7023
▁representing	-10.7024
▁birth	-10.7038
▁300	-10.7039
▁failing	-10.7043
▁inside	-10.7044
▁resistance	-10.7046
ability	-10.7049
▁envisaged	-10.7056
all	-10.7058
▁exchanges	-10.7059
▁Friday	-10.7069
▁safeguarding	-10.7074
▁sad	-10.7086
▁regularly	-10.7087
▁investors	-10.7089
▁woman	-10.7093
▁controlled	-10.7096
▁participating	-10.7101
▁Tunisia	-10.7104
▁providers	-10.7104
▁tough	-10.7107
▁universities	-10.7108
tic	-10.7113
▁Criminal	-10.7116
▁die	-10.7122
▁conviction	-10.7123
ow	-10.7128
▁solved	-10.7137
▁reported	-10.7138
▁August	-10.7148
▁discipline	-10.7156
▁sentence	-10.7158
▁exceptions	-10.7162
▁infringement	-10.7163
▁gained	-10.7165
▁hundred	-10.7179
▁preliminary	-10.7179
men	-10.7183
▁Democratic	-10.7184
▁Doha	-10.7184
▁error	-10.7187
▁mistakes	-10.7187
▁inhabitants	-10.7192
▁incorporate	-10.7197
fi	-10.7212
▁flows	-10.7215
▁fires	-10.7219
▁blind	-10.7226
▁Al	-10.7238
▁pretext	-10.7242
▁plays	-10.725
▁chemicals	-10.7251
▁eventually	-10.7252
▁Sudan	-10.7258
▁ALDE	-10.7258
▁cultures	-10.7259
▁exploit	-10.7261
▁Brazil	-10.7266
▁tolerance	-10.7274
▁decent	-10.7275
%	-10.7282
▁black	-10.7282
der	-10.7284
▁rational	-10.7293
▁absurd	-10.7297
▁executive	-10.7298
▁concentration	-10.7299
▁map	-10.73
▁wages	-10.7305
▁Similarly	-10.7306
▁fixed	-10.7309
▁mandatory	-10.7314
▁warrant	-10.7322
▁founded	-10.733
▁micro	-10.7337
▁Wednesday	-10.7346
reaching	-10.7355
▁reductions	-10.7357
ging	-10.7369
▁Lebanon	-10.737
03	-10.7372
▁decline	-10.7373
▁gross	-10.7378
▁disputes	-10.7382
▁en	-10.7385
▁pursuing	-10.7386
▁stringent	-10.7386
▁listening	-10.7401
▁shift	-10.7406
▁rely	-10.7407
▁touch	-10.742
ub	-10.7431
▁ignored	-10.7433
▁suggests	-10.7437
▁convince	-10.7438
▁ship	-10.7441
day	-10.7443
▁monitored	-10.7443
▁investigations	-10.7453
▁coal	-10.7455
▁dead	-10.7464
▁abroad	-10.7467
▁assets	-10.7467
▁abuses	-10.7469
▁stakeholders	-10.7475
▁fails	-10.7476
Rule	-10.7484
▁Ms	-10.7492
▁dangers	-10.7493
▁functions	-10.7501
▁consistency	-10.7508
▁humanity	-10.7508
▁object	-10.7508
▁surprise	-10.7511
▁delegations	-10.7513
▁popular	-10.7515
▁acknowledged	-10.7517
▁foundation	-10.7524
▁fifth	-10.7525
▁35	-10.7531
▁expertise	-10.7541
▁accountability	-10.7543
▁catch	-10.7545
▁Services	-10.7549
▁resolving	-10.7557
▁fuels	-10.7564
▁imperative	-10.7565
▁signs	-10.7568
▁2009.	-10.7569
▁infrastructures	-10.7574
▁hour	-10.7578
▁invited	-10.7588
▁Syria	-10.7594
▁older	-10.7594
op	-10.7596
▁Hence	-10.7598
▁regimes	-10.7603
▁w	-10.7604
▁Reform	-10.7605
▁10%	-10.7608
▁albeit	-10.7614
▁registration	-10.7614
▁fears	-10.7617
▁sincere	-10.7618
▁containing	-10.7621
wing	-10.7624
▁movements	-10.7631
▁actors	-10.7633
▁accepting	-10.7634
▁employed	-10.7634
line	-10.7635
▁anniversary	-10.7639
▁attend	-10.7643
▁fit	-10.7651
of	-10.7655
▁meantime	-10.7658
▁1.	-10.7664
▁den	-10.7665
▁finish	-10.7676
▁outlined	-10.7683
▁detention	-10.7688
▁accounting	-10.7692
▁Chairman	-10.7698
▁cent	-10.7704
▁furthermore	-10.7706
▁farm	-10.7712
▁modernisation	-10.7723
▁2010.	-10.7725
▁Ro	-10.7726
▁marked	-10.7728
▁Solana	-10.773
▁Patten	-10.773
vote	-10.7732
▁incentive	-10.7734
si	-10.7734
▁Liberals	-10.7749
▁proven	-10.7751
▁autonomy	-10.7755
▁falling	-10.7758
▁visited	-10.7758
▁mo	-10.776
▁liked	-10.7761
for	-10.7761
▁consolidation	-10.7763
▁Be	-10.7773
▁compromises	-10.7778
▁prime	-10.7781
▁gradual	-10.7791
▁Libya	-10.7793
▁tonight	-10.7797
▁Ashton	-10.7805
▁female	-10.7805
▁Or	-10.7808
▁Decision	-10.781
▁variety	-10.7814
▁Romanian	-10.7823
▁experiences	-10.7824
red	-10.7826
▁visible	-10.7831
▁except	-10.7838
▁cast	-10.7841
▁answered	-10.7844
▁2000.	-10.7853
▁criminals	-10.7855
▁wind	-10.7858
▁evaluate	-10.786
we	-10.7862
▁usually	-10.7862
▁criterion	-10.7873
▁Other	-10.7878
▁dossier	-10.7878
▁stages	-10.788
▁organic	-10.7882
▁collapse	-10.7884
▁di	-10.7893
▁denied	-10.7898
▁immunity	-10.7898
▁unilateral	-10.7917
▁Could	-10.7923
▁80	-10.7929
▁backing	-10.7933
▁fifteen	-10.794
ious	-10.7947
▁ch	-10.7947
▁looks	-10.7948
▁cutting	-10.7951
yes	-10.7956
▁maintenance	-10.7957
▁learned	-10.7962
▁foster	-10.7962
▁dictatorship	-10.7964
▁badly	-10.7966
▁endeavour	-10.7969
▁refugee	-10.7973
▁sympathy	-10.7975
ists	-10.7976
▁released	-10.7976
▁argue	-10.7984
sp	-10.7988
▁recognises	-10.8012
▁ceiling	-10.8015
▁feature	-10.8015
▁substantially	-10.8019
▁concludes	-10.8019
▁visas	-10.8028
▁indication	-10.8041
ants	-10.8043
▁statistical	-10.8047
▁voters	-10.8048
▁disastrous	-10.8052
▁fate	-10.8052
▁offices	-10.8054
▁Millennium	-10.806
▁Schulz	-10.806
▁essence	-10.806
▁entering	-10.8064
▁endorsed	-10.8065
▁models	-10.8067
▁book	-10.8069
▁virtually	-10.8071
▁acted	-10.8083
▁safeguards	-10.8093
▁storage	-10.8095
▁died	-10.81
▁closure	-10.8102
▁features	-10.8105
▁corresponding	-10.811
▁false	-10.8112
▁Bush	-10.8112
▁pharmaceutical	-10.8121
▁Iranian	-10.8131
▁character	-10.8137
▁productive	-10.8137
▁Scotland	-10.8138
▁inquiry	-10.8138
tion	-10.8149
▁appointed	-10.8151
▁Above	-10.8155
▁conscience	-10.8155
▁avoided	-10.816
▁assurance	-10.8163
▁productivity	-10.8164
▁adequately	-10.8165
▁ageing	-10.8175
▁renewed	-10.8176
▁examining	-10.8182
▁hopefully	-10.8187
ton	-10.8197
ak	-10.8203
▁Naturally	-10.8216
▁borne	-10.8228
▁apparently	-10.8232
▁observations	-10.8237
▁satellite	-10.8243
▁clauses	-10.8248
▁consistently	-10.8259
▁privacy	-10.826
rate	-10.8263
▁notion	-10.8264
▁sites	-10.8265
ions	-10.8266
▁devoted	-10.8266
▁cope	-10.8267
▁inspection	-10.8269
▁seat	-10.8274
▁scientists	-10.8277
▁tend	-10.8279
▁football	-10.8287
▁damaging	-10.8287
▁game	-10.8287
▁emerged	-10.8291
▁heads	-10.8292
▁adaptation	-10.8294
▁Fischler	-10.8295
min	-10.8296
▁completion	-10.8304
▁names	-10.8312
▁airport	-10.8314
discrimination	-10.8314
FI	-10.8319
▁OSCE	-10.8331
▁consultations	-10.8338
▁GMOs	-10.8345
so	-10.8349
▁everywhere	-10.8349
▁initially	-10.8356
ph	-10.8367
▁stick	-10.8372
▁tackled	-10.8374
ative	-10.838
▁Switzerland	-10.8384
▁focusing	-10.8391
▁silence	-10.8393
▁Slovenia	-10.8399
▁explanations	-10.841
▁straight	-10.8411
▁revolution	-10.8419
▁Santer	-10.842
▁la	-10.842
pro	-10.8426
▁Congo	-10.8447
▁programming	-10.8455
▁Annex	-10.8455
▁partnerships	-10.8461
▁testing	-10.8472
▁MEP	-10.8475
▁rigorous	-10.8477
▁foot	-10.848
▁1992	-10.8482
▁paragraphs	-10.8484
▁title	-10.8491
▁shipping	-10.8491
▁Liberties	-10.85
▁Verheugen	-10.85
▁struck	-10.85
▁deficits	-10.8503
▁stimulate	-10.8504
▁Whilst	-10.8527
▁EIB	-10.8537
▁arrived	-10.8552
▁sums	-10.8565
old	-10.8566
▁repression	-10.8573
▁o	-10.8578
▁consolidate	-10.8586
▁planet	-10.8587
▁minor	-10.8592
▁investigate	-10.8595
▁democratically	-10.8596
ize	-10.8597
▁attach	-10.8598
ap	-10.8603
▁sold	-10.8605
▁vocational	-10.8609
▁cheap	-10.8609
▁class	-10.8615
▁progressive	-10.8616
▁reserves	-10.8617
▁precautionary	-10.8618
▁Li	-10.8619
▁sections	-10.8625
▁leaves	-10.8629
▁dream	-10.863
▁exclusive	-10.8631
▁enshrined	-10.8637
▁accused	-10.8639
▁divide	-10.864
▁complement	-10.8649
▁explicitly	-10.8649
iv	-10.8653
▁irregularities	-10.8654
▁emphasize	-10.8658
▁distance	-10.8659
▁30%	-10.8665
▁punishment	-10.8665
friendly	-10.8665
res	-10.8671
▁recommended	-10.8676
▁seekers	-10.868
▁simplified	-10.8682
▁Ra	-10.8683
▁volume	-10.8685
▁enabled	-10.8688
▁fought	-10.8691
▁cycle	-10.8694
▁ensured	-10.87
▁expert	-10.8703
ka	-10.8705
▁Tibet	-10.8709
▁autumn	-10.8709
▁cease	-10.8732
▁translation	-10.8737
DA	-10.8738
▁disadvantaged	-10.8741
▁3.	-10.8744
▁inappropriate	-10.8745
▁reporting	-10.8749
ish	-10.875
▁fundamentally	-10.8752
▁enables	-10.8759
▁orientation	-10.8765
▁story	-10.8765
▁era	-10.8767
▁fault	-10.8774
▁sell	-10.8776
▁exemption	-10.8778
▁notes	-10.8779
▁personnel	-10.8785
▁adapted	-10.8791
▁Globalisation	-10.8793
▁U	-10.8798
▁repercussions	-10.8802
▁removal	-10.8811
▁horizontal	-10.8811
▁hazardous	-10.8812
▁desired	-10.8812
▁continuation	-10.8813
▁embargo	-10.882
▁harmonise	-10.8824
tt	-10.8828
▁Would	-10.883
▁middle	-10.883
▁speculation	-10.883
▁laying	-10.8833
▁handling	-10.8838
▁exposed	-10.8842
▁Stockholm	-10.8857
▁sex	-10.8863
SK	-10.8871
▁component	-10.8872
tro	-10.8876
▁Tampere	-10.8885
▁inequalities	-10.8895
▁deny	-10.8895
▁soldiers	-10.8913
▁fulfilled	-10.8914
▁ownership	-10.8932
▁sale	-10.8939
▁attractive	-10.8941
▁wherever	-10.8942
▁Brok	-10.8942
ner	-10.8943
▁logic	-10.8948
▁narrow	-10.8951
▁lifelong	-10.8952
ably	-10.8957
▁terror	-10.8959
▁participants	-10.8961
▁forestry	-10.8961
▁2006,	-10.8961
side	-10.8964
use	-10.8969
initiative	-10.8981
▁flights	-10.8985
▁attached	-10.899
▁fashion	-10.8997
▁innocent	-10.8998
▁transferred	-10.9003
▁strive	-10.9008
▁detriment	-10.9021
▁socially	-10.9026
▁pace	-10.9027
▁persecution	-10.9027
▁St	-10.9033
▁criticise	-10.9041
▁recognize	-10.9041
▁sports	-10.9047
▁delivered	-10.9047
▁quick	-10.9047
▁shame	-10.905
▁Mar	-10.906
▁stricter	-10.9062
▁GUE	-10.9065
▁won	-10.9066
▁dependence	-10.9066
▁sole	-10.9073
▁ideological	-10.9074
▁twice	-10.9074
▁Special	-10.9084
▁alarming	-10.909
▁initiated	-10.9107
▁democratisation	-10.9113
▁openly	-10.9116
▁inevitably	-10.9122
▁40%	-10.9142
▁perform	-10.915
▁inspections	-10.9151
▁parliamentarian	-10.9151
▁multiannual	-10.9151
▁potentially	-10.9152
▁preparatory	-10.916
▁precedent	-10.917
▁Everyone	-10.917
▁saving	-10.9171
▁mine	-10.9172
go	-10.9174
▁accurate	-10.9174
▁meets	-10.9174
▁combine	-10.9175
▁pressing	-10.9176
▁concessions	-10.9184
placing	-10.9187
NGL	-10.9189
▁80%	-10.919
king	-10.9191
▁tape	-10.9199
▁errors	-10.9199
▁2008.	-10.9202
W	-10.9206
▁2010,	-10.9208
▁hunger	-10.9209
▁Day	-10.921
▁transposition	-10.9218
▁art	-10.922
▁enterprise	-10.9226
▁obstacle	-10.9226
▁facility	-10.9228
▁recycling	-10.9228
▁2007,	-10.9231
▁principal	-10.9232
▁Algeria	-10.9233
ble	-10.9245
▁linguistic	-10.9247
▁comparable	-10.9257
▁draftsman	-10.9257
▁rating	-10.9259
▁AIDS	-10.926
udgetary	-10.926
sa	-10.9262
▁objections	-10.9266
▁appalling	-10.9267
▁race	-10.9267
▁2008,	-10.9267
▁ended	-10.9273
▁closing	-10.9276
▁donors	-10.9277
▁biofuels	-10.9281
▁70	-10.9284
▁generate	-10.9289
▁praise	-10.9291
▁practically	-10.9291
ens	-10.9299
▁presidential	-10.9306
▁internationally	-10.9307
▁2007.	-10.9307
▁wholeheartedly	-10.9307
▁differ	-10.9311
▁systematically	-10.9316
▁western	-10.9316
▁routes	-10.9318
▁intelligent	-10.932
▁lists	-10.932
▁responses	-10.9322
▁Institute	-10.9325
ler	-10.933
▁workplace	-10.9337
▁researchers	-10.9337
▁USD	-10.9339
▁modest	-10.9351
▁patient	-10.9354
▁Among	-10.9354
ALE	-10.9364
▁constraints	-10.9364
▁audit	-10.9365
▁originally	-10.9366
▁1993	-10.9374
▁Olympic	-10.9384
▁constituency	-10.9384
lic	-10.9385
▁Fourthly	-10.9386
▁adverse	-10.9388
▁Galileo	-10.9394
▁disabilities	-10.9394
▁assessing	-10.9403
▁deciding	-10.9404
▁survival	-10.9404
▁homes	-10.9406
▁Youth	-10.9407
▁foodstuffs	-10.9411
ice	-10.9412
▁incident	-10.9423
▁monopoly	-10.9423
eg	-10.9425
▁fallen	-10.9427
▁Latvia	-10.9429
▁islands	-10.944
▁Mexico	-10.9443
▁characterised	-10.9455
▁assured	-10.9457
▁cod	-10.9472
ell	-10.9475
▁appreciation	-10.9483
▁irrespective	-10.9483
▁helps	-10.9483
▁publication	-10.9491
▁remained	-10.9504
▁travelling	-10.9504
▁recorded	-10.9505
▁Con	-10.9508
▁Federal	-10.9512
employed	-10.9514
▁stopped	-10.9514
▁civilians	-10.9517
▁Timor	-10.9522
ction	-10.9528
▁broadly	-10.9528
▁n	-10.9531
▁Helsinki	-10.9532
▁convey	-10.9534
▁lesson	-10.9535
▁serves	-10.954
▁offences	-10.9543
▁findings	-10.9545
▁telling	-10.9545
▁missions	-10.955
▁producer	-10.9552
▁decade	-10.9563
▁demanded	-10.9568
▁composition	-10.9572
▁Hamas	-10.9572
▁floods	-10.9575
▁imp	-10.9578
▁owe	-10.9585
▁abortion	-10.9592
▁remit	-10.9592
▁pillars	-10.9595
ud	-10.9597
depth	-10.9605
▁stating	-10.9613
▁abandon	-10.9621
▁thoroughly	-10.9623
▁organization	-10.9624
▁label	-10.9625
com	-10.9627
▁His	-10.9631
▁wished	-10.9633
▁worried	-10.9643
▁announcement	-10.9645
▁complied	-10.9653
▁mental	-10.9653
▁automatically	-10.9653
▁guilty	-10.9653
▁consult	-10.9661
▁zero	-10.9663
▁criticised	-10.9668
▁bottom	-10.9673
▁unit	-10.9682
▁macro	-10.9683
▁Law	-10.9684
▁Estonia	-10.9687
▁Vienna	-10.9693
▁adjustment	-10.9696
▁Ho	-10.9696
▁Se	-10.9703
▁retirement	-10.9704
▁deadlines	-10.9704
▁computer	-10.9705
▁reminded	-10.9706
▁Kurdish	-10.9724
▁mis	-10.9729
▁subjected	-10.9732
▁euros	-10.9735
▁indirect	-10.9737
05	-10.9743
▁coordinating	-10.9744
son	-10.9745
▁refusal	-10.9754
▁tuna	-10.9754
▁incidents	-10.9755
▁assessed	-10.9755
▁mother	-10.9757
▁criticisms	-10.9757
▁Third	-10.9759
▁symbol	-10.9764
▁strange	-10.9765
▁pays	-10.9769
▁creative	-10.9775
▁Verts	-10.9775
▁interference	-10.9775
▁root	-10.9779
▁Resolution	-10.9785
▁Code	-10.9786
▁channels	-10.9788
▁marks	-10.979
▁Black	-10.9795
▁delicate	-10.9795
▁genocide	-10.9795
▁rid	-10.9803
▁remark	-10.9809
over	-10.9814
▁protectionism	-10.9815
▁comitology	-10.9816
▁wake	-10.9816
▁obtaining	-10.9816
▁uphold	-10.9816
end	-10.9827
▁minds	-10.9828
▁roll	-10.9836
▁atmosphere	-10.9836
▁thirdly	-10.9838
▁town	-10.984
▁unprecedented	-10.9847
▁2013	-10.9848
▁authorised	-10.985
▁everyday	-10.985
▁formally	-10.9865
▁await	-10.9867
▁camps	-10.9868
rea	-10.9881
▁bases	-10.9883
▁relief	-10.9898
▁victory	-10.9919
▁grants	-10.9925
▁facilitating	-10.9929
▁heavily	-10.994
▁empty	-10.994
▁corporate	-10.994
▁invitation	-10.995
▁v	-10.9951
▁audiovisual	-10.996
▁arrangement	-10.9965
▁HIV	-10.9971
▁scheduled	-10.9975
▁stem	-10.9977
▁topical	-10.9979
▁xenophobia	-10.9981
▁isolation	-10.9981
LT	-10.9983
▁flag	-10.9988
▁analyse	-10.9991
▁90	-10.9994
▁2004.	-10.9994
▁onto	-11.001
▁avoiding	-11.0012
▁references	-11.0014
▁withdrawn	-11.0016
▁contradiction	-11.0028
▁trouble	-11.0028
▁depth	-11.0031
▁topics	-11.0032
▁Federation	-11.0034
▁beneficiaries	-11.0034
▁federal	-11.0036
ification	-11.004
▁condemnation	-11.004
▁Asian	-11.0043
▁Saddam	-11.0044
▁remedy	-11.0044
▁publish	-11.0044
▁Jo	-11.0046
ster	-11.005
▁estimates	-11.0053
▁addresses	-11.0056
▁Baroness	-11.0065
▁2006.	-11.0066
▁transfers	-11.0068
▁clarified	-11.0076
▁demonstration	-11.0081
▁pragmatic	-11.0086
▁reviewed	-11.0089
▁Christians	-11.0091
▁generous	-11.0091
▁persuade	-11.0092
▁cr	-11.0096
▁Z	-11.01
▁vague	-11.0107
▁workforce	-11.0109
▁dear	-11.0115
und	-11.0115
▁misunderstand	-11.0118
▁privatisation	-11.0118
▁exclude	-11.0118
▁remarkable	-11.0119
▁stresses	-11.0129
las	-11.013
▁reverse	-11.0134
▁realised	-11.0141
ons	-11.0143
▁arises	-11.0144
medicinal	-11.0146
▁passing	-11.0151
▁neighbour	-11.0154
)]	-11.0156
▁posts	-11.0158
▁Guinea	-11.016
▁enforce	-11.0164
▁articles	-11.0165
▁returned	-11.018
▁moratorium	-11.0181
▁ultimate	-11.0187
▁quarter	-11.0187
ie	-11.0192
▁Hague	-11.0192
▁anywhere	-11.0195
▁contributes	-11.0196
▁arrested	-11.0197
▁banana	-11.0199
▁genetic	-11.0202
▁drop	-11.0203
ping	-11.0209
(2)	-11.021
▁pesticides	-11.0212
ou	-11.0223
▁Should	-11.0224
▁abolish	-11.0225
bu	-11.023
▁born	-11.0233
▁r	-11.0243
▁combination	-11.0246
▁diverse	-11.0246
▁2007-2013	-11.0246
▁Ukrainian	-11.0246
▁smoking	-11.0246
▁devote	-11.0249
▁wonderful	-11.0252
▁Through	-11.0256
▁integral	-11.0256
▁irresponsible	-11.0256
▁Congress	-11.0256
▁400	-11.0258
▁Me	-11.0258
ations	-11.0261
▁Madrid	-11.0267
▁indispensable	-11.0267
▁presents	-11.0269
▁wise	-11.0282
▁indicates	-11.0282
▁incomes	-11.0293
▁posed	-11.0293
▁govern	-11.0299
▁Apart	-11.0301
▁recession	-11.031
▁Ka	-11.0318
▁instability	-11.0321
▁toxic	-11.0322
▁quantity	-11.0332
ay	-11.0332
▁slaughter	-11.0334
▁describe	-11.0345
▁disadvantage	-11.0345
▁prerequisite	-11.035
▁consists	-11.035
ite	-11.035
▁telephone	-11.0353
ov	-11.0359
▁Eurostat	-11.0366
▁trends	-11.0366
nd	-11.037
▁sustained	-11.038
▁input	-11.0382
▁towns	-11.0382
▁differently	-11.0383
▁solving	-11.0388
▁disparities	-11.0397
▁Frontex	-11.0397
▁responding	-11.0399
▁dual	-11.0409
▁governed	-11.0416
▁Kinnock	-11.0418
▁phrase	-11.0418
▁livestock	-11.0419
▁radio	-11.042
▁Democrat	-11.0421
▁adding	-11.0437
▁investing	-11.0439
▁removing	-11.0451
▁emerge	-11.0455
if	-11.0456
▁affair	-11.046
▁resort	-11.0461
▁illegally	-11.0462
▁normally	-11.0468
▁cells	-11.0468
▁monopolies	-11.0473
▁witnessed	-11.048
▁exert	-11.0485
▁isolated	-11.0486
▁reinforced	-11.0492
▁identification	-11.0495
▁Monti	-11.0496
▁rare	-11.0502
▁gases	-11.0504
au	-11.0505
▁attempting	-11.0509
vis	-11.0509
▁bio	-11.051
▁Car	-11.0513
cy	-11.053
▁lowest	-11.0532
ship	-11.0536
▁survive	-11.0556
▁assembly	-11.0561
▁registered	-11.0567
▁strikes	-11.0585
▁mix	-11.0586
▁emphasises	-11.0587
state	-11.0591
▁served	-11.0593
▁Taiwan	-11.0594
▁abolished	-11.0603
▁transnational	-11.0608
▁civilisation	-11.0611
▁remote	-11.0616
▁problematic	-11.0618
▁unlike	-11.0623
▁Slovak	-11.0628
▁enjoyed	-11.0628
▁Directorate	-11.0631
▁profound	-11.0633
▁expand	-11.064
ach	-11.0642
▁Caucasus	-11.065
▁inevitable	-11.065
▁caught	-11.065
▁satisfy	-11.066
▁whenever	-11.0668
▁donor	-11.0672
istic	-11.0674
▁cattle	-11.0683
▁inequality	-11.0684
les	-11.0693
▁Democracy	-11.0695
▁dioxide	-11.0706
▁recognising	-11.0706
▁32	-11.0706
▁footing	-11.071
▁licences	-11.0715
cu	-11.0721
▁pick	-11.0732
▁pan	-11.0736
▁poorer	-11.0743
▁petition	-11.0751
▁securing	-11.0751
▁match	-11.0752
gi	-11.0754
▁symbolic	-11.0754
▁merit	-11.0755
▁enthusiasm	-11.0762
▁availability	-11.0762
▁safer	-11.0769
▁eco	-11.0778
▁believed	-11.0785
▁courageous	-11.0786
▁interventions	-11.0795
▁Perspective	-11.0807
▁manufacturing	-11.0807
ff	-11.0808
▁Against	-11.0808
▁limiting	-11.0818
▁Arctic	-11.0819
▁Quite	-11.0819
▁steel	-11.083
▁aspirations	-11.083
▁Each	-11.0831
▁publicly	-11.0832
▁purchase	-11.0837
▁Paris	-11.0841
▁appeared	-11.0842
ible	-11.0844
▁Nordic	-11.0845
▁interpreted	-11.0849
▁Nigeria	-11.0849
▁frankly	-11.0857
▁advances	-11.0864
▁scandal	-11.0864
▁2005.	-11.0867
▁chair	-11.0868
ran	-11.087
▁democracies	-11.0876
▁definitive	-11.0882
▁maybe	-11.0883
▁claimed	-11.0886
▁Prize	-11.0887
▁sectoral	-11.0887
▁preference	-11.0888
▁lend	-11.089
▁fleets	-11.0896
ns	-11.0899
▁earmarked	-11.0911
▁tremendous	-11.0916
▁Indonesia	-11.093
▁burdens	-11.0933
▁Until	-11.0933
▁CFSP	-11.0933
▁tariff	-11.0936
▁aiming	-11.095
▁swift	-11.095
▁Neighbourhood	-11.0956
▁focuses	-11.0957
▁bill	-11.0957
▁weaken	-11.0958
ick	-11.0962
▁1%	-11.0963
▁Na	-11.0963
▁elimination	-11.0967
▁quantities	-11.0967
int	-11.0968
▁encouragement	-11.0973
▁drinking	-11.0973
▁st	-11.0975
▁persist	-11.0978
▁threatening	-11.098
▁patents	-11.0981
▁Pa	-11.0984
COD	-11.0984
▁pose	-11.0989
fer	-11.0997
▁cooperative	-11.1002
▁concepts	-11.1012
▁requiring	-11.1013
▁occupied	-11.1013
▁expenses	-11.1014
▁disappointment	-11.1014
▁von	-11.1014
▁organized	-11.1015
gen	-11.1016
▁El	-11.1016
▁doors	-11.1017
ranging	-11.1018
▁alter	-11.1025
▁dairy	-11.1025
▁Montenegro	-11.1025
▁2012	-11.1038
▁warming	-11.1044
▁confirms	-11.1044
▁philosophy	-11.1048
▁repair	-11.1048
▁handled	-11.1057
▁gratitude	-11.106
▁licence	-11.1062
▁hide	-11.1084
▁relationships	-11.1085
▁Mi	-11.1087
da	-11.1092
▁messages	-11.1093
▁displaced	-11.1095
▁exploited	-11.1096
▁location	-11.1099
io	-11.11
▁biological	-11.1107
des	-11.1113
K	-11.1117
▁indirectly	-11.1124
▁concluding	-11.113
▁multinational	-11.1133
▁pointing	-11.114
▁multinationals	-11.115
▁abandoned	-11.1151
▁36	-11.1155
▁overwhelming	-11.1161
▁Martin	-11.1165
▁wall	-11.1168
▁write	-11.1177
▁reaffirm	-11.118
▁45	-11.1181
▁player	-11.1184
▁suspension	-11.1188
tu	-11.1189
▁1999.	-11.1195
▁expressly	-11.1196
▁Neither	-11.12
▁convincing	-11.12
▁veto	-11.12
▁guide	-11.1207
▁units	-11.1211
our	-11.1212
▁energies	-11.1212
▁preferred	-11.1212
▁Ar	-11.1217
á	-11.1218
▁electorate	-11.1224
▁regulating	-11.1224
ral	-11.1225
▁reproductive	-11.1226
dy	-11.1228
▁2,	-11.123
10	-11.123
▁San	-11.1232
▁delayed	-11.1234
▁destination	-11.1236
▁bar	-11.1237
▁48	-11.1244
▁foods	-11.1245
▁Yesterday	-11.1247
▁postponed	-11.1252
ide	-11.1254
▁Peace	-11.1259
▁split	-11.1271
▁conjunction	-11.1271
ned	-11.1282
▁York	-11.1283
▁suspicion	-11.1283
▁switch	-11.1295
▁Ecofin	-11.1295
▁broken	-11.1296
▁weaknesses	-11.1296
pi	-11.1296
ja	-11.1296
▁initiate	-11.1302
▁pity	-11.1316
▁Frattini	-11.1319
▁Rather	-11.1319
▁Kong	-11.1319
▁roots	-11.133
▁determining	-11.1331
▁understandable	-11.1333
▁pipeline	-11.1335
▁recital	-11.1335
▁Vi	-11.1341
▁coast	-11.1345
▁update	-11.1346
2/	-11.1351
▁Afghan	-11.1355
▁invested	-11.1355
▁wave	-11.1359
▁brutal	-11.136
tan	-11.1362
▁IMF	-11.1367
call	-11.1367
▁dedicated	-11.1368
▁positively	-11.1368
que	-11.1368
▁ho	-11.1368
relatively	-11.1373
▁formula	-11.1374
▁shortage	-11.1376
▁Adjustment	-11.1379
▁feasible	-11.1379
▁controlling	-11.1386
▁wars	-11.1389
▁Conciliation	-11.1391
▁Iceland	-11.1391
▁enforced	-11.1396
▁secondary	-11.1401
▁Sa	-11.1407
▁broadcasting	-11.141
▁supplement	-11.1411
▁judiciary	-11.1415
▁flight	-11.142
▁explicit	-11.1421
ug	-11.1422
▁charter	-11.1429
▁bi	-11.1431
▁complexity	-11.1432
▁cl	-11.1432
▁imbalances	-11.144
▁faster	-11.1444
▁transmission	-11.1451
rn	-11.1456
▁derogation	-11.1456
▁exact	-11.1458
▁communicate	-11.1458
har	-11.1458
fe	-11.1458
▁radioactive	-11.1463
▁Hong	-11.1463
▁driven	-11.1468
▁online	-11.1469
▁uses	-11.147
▁reconsider	-11.1473
▁interfere	-11.1475
▁banning	-11.1477
▁Certainly	-11.1478
▁violated	-11.1478
▁abstain	-11.1479
▁moves	-11.148
▁teachers	-11.1488
▁Chancellor	-11.1499
▁Process	-11.15
▁Relations	-11.1502
▁applaud	-11.1503
▁Bar	-11.1505
▁prompt	-11.151
▁Milosevic	-11.1511
▁pluralism	-11.1511
▁Board	-11.1512
(1)	-11.1518
▁generated	-11.1518
▁complaint	-11.1519
▁copyright	-11.1524
▁earn	-11.1525
▁Freedoms	-11.1527
▁Blair	-11.1536
▁specified	-11.1536
fully	-11.1543
▁simplifying	-11.1545
ev	-11.1546
CNS	-11.1548
▁po	-11.1558
▁employ	-11.1559
▁bold	-11.1561
▁agents	-11.1561
▁Area	-11.1562
▁selection	-11.1563
ries	-11.1566
▁escape	-11.1567
▁signals	-11.1568
30	-11.159
▁urged	-11.159
▁doctors	-11.1596
▁rejecting	-11.1601
▁150	-11.1612
accession	-11.1614
▁Cuban	-11.1619
▁deplore	-11.1619
▁preservation	-11.1621
▁spectrum	-11.1621
▁establishes	-11.1623
▁concentrated	-11.1624
▁zones	-11.1626
lt	-11.1632
▁Goals	-11.1646
▁renewal	-11.1648
qui	-11.1652
▁minors	-11.1655
▁adjustments	-11.1656
▁execution	-11.1666
▁4.	-11.1668
ator	-11.167
▁integrating	-11.1671
▁intelligence	-11.1671
▁2003.	-11.1671
▁profile	-11.1672
▁Hussein	-11.1683
ee	-11.1686
▁disappear	-11.1687
▁harmonization	-11.1695
▁traceability	-11.1696
▁white	-11.1696
▁DG	-11.1697
▁threaten	-11.1699
)).	-11.1701
▁33	-11.1704
▁Colombia	-11.1705
pos	-11.1707
▁acquired	-11.1713
▁stabilisation	-11.1722
▁kill	-11.1726
▁platform	-11.1728
▁2002.	-11.1729
▁belonging	-11.1732
▁37	-11.1735
▁east	-11.1751
▁station	-11.1754
▁administrations	-11.1756
▁Beijing	-11.1758
▁unified	-11.1758
▁deliberately	-11.1762
▁disregard	-11.1762
▁halt	-11.1762
▁demonstrations	-11.1764
du	-11.1766
▁faces	-11.177
▁supranational	-11.1771
▁deregulation	-11.1772
▁SIS	-11.1772
▁defended	-11.1775
▁bananas	-11.1775
▁analyses	-11.1777
▁Darfur	-11.1783
determination	-11.1787
▁Ex	-11.1789
▁acquire	-11.179
▁Balkan	-11.1791
&	-11.1795
▁fragile	-11.1795
▁confine	-11.1802
▁compare	-11.1802
▁Ko	-11.1807
▁cloning	-11.1808
▁implies	-11.1808
▁rescue	-11.1808
▁OECD	-11.1808
ze	-11.1815
▁feels	-11.1816
▁backed	-11.1817
▁separation	-11.182
▁prevail	-11.1821
▁sadly	-11.1829
▁entrepreneurs	-11.1833
▁promotes	-11.1833
▁Thanks	-11.1835
▁EP	-11.1845
▁enhancing	-11.1845
▁coalition	-11.1845
▁Anyone	-11.1846
nes	-11.1849
▁manoeuvre	-11.1858
▁substantive	-11.1858
▁Sever	-11.1859
q	-11.186
▁formulated	-11.1862
▁protein	-11.187
▁refrain	-11.187
▁eligible	-11.1871
▁holds	-11.1871
▁echo	-11.1873
▁display	-11.1887
▁Working	-11.1891
▁earth	-11.1896
▁Freedom	-11.1905
▁Washington	-11.1908
ack	-11.191
▁professionals	-11.1911
▁painful	-11.1913
▁reassure	-11.1916
▁runs	-11.1918
▁airline	-11.192
▁Climate	-11.1921
▁preserving	-11.1921
▁girls	-11.1926
▁censure	-11.1934
▁sheep	-11.1934
▁momentum	-11.1937
▁encourages	-11.1938
▁components	-11.194
▁continuous	-11.1941
▁medicine	-11.1943
▁tension	-11.1944
▁Communities	-11.1946
▁circulation	-11.1946
▁intolerable	-11.1946
▁venture	-11.1946
ates	-11.195
ding	-11.1954
▁Ca	-11.1958
▁mobilisation	-11.1959
▁cofinancing	-11.196
▁mines	-11.1962
▁postpone	-11.1965
▁34	-11.1969
▁ma	-11.1972
▁Danube	-11.1972
▁unsatisfactory	-11.1972
▁adhere	-11.1979
▁Forum	-11.198
▁approving	-11.1984
▁university	-11.1984
▁entails	-11.1986
▁weekend	-11.1986
▁margin	-11.199
▁suppliers	-11.1991
▁famous	-11.1997
▁Michel	-11.1997
▁Swoboda	-11.1997
▁arisen	-11.2002
▁ties	-11.2007
▁misleading	-11.2012
▁owners	-11.2015
▁consolidated	-11.2017
▁journey	-11.202
▁Di	-11.202
▁surplus	-11.2021
▁Vietnam	-11.2023
▁eliminating	-11.2023
▁fulfilling	-11.2024
▁assumption	-11.2036
▁reconcile	-11.2043
▁Communication	-11.2048
▁pensioners	-11.2054
▁salaries	-11.2061
▁intense	-11.2061
▁60%	-11.2062
▁25%	-11.2063
▁wishing	-11.2066
▁existed	-11.2067
▁deprived	-11.2067
▁residents	-11.207
▁tensions	-11.2077
▁responded	-11.2079
▁dare	-11.2085
▁Muslim	-11.2086
▁located	-11.2088
▁grown	-11.2091
▁Industrial	-11.2097
▁Director	-11.2098
▁demonstrating	-11.21
▁neutral	-11.21
▁tabling	-11.2101
▁autonomous	-11.2104
▁seas	-11.2106
▁unite	-11.2109
▁prejudice	-11.2109
4-00	-11.2113
▁Chair	-11.2113
▁advocates	-11.2117
▁Indian	-11.2125
▁Political	-11.2126
▁packaging	-11.2126
▁definite	-11.2133
▁customers	-11.2135
▁Basque	-11.2139
▁hoping	-11.2139
▁worker	-11.2141
▁entail	-11.2142
▁detrimental	-11.2147
▁toys	-11.2148
gr	-11.2151
▁Barnier	-11.2152
▁undermining	-11.2152
▁mountain	-11.2153
▁se	-11.2153
▁revealed	-11.2157
▁lawyers	-11.2157
▁Moscow	-11.2165
▁explanatory	-11.2165
▁sensitivity	-11.2165
▁derogations	-11.2172
4-01	-11.2182
▁guidance	-11.2191
ber	-11.2192
▁gets	-11.2193
ld	-11.2196
che	-11.2197
▁socialist	-11.22
▁bridge	-11.2203
▁Organization	-11.2204
▁optimistic	-11.2204
▁officially	-11.2204
▁organising	-11.2204
▁insecurity	-11.2212
▁accountable	-11.2215
▁diplomacy	-11.2217
▁macroeconomic	-11.2217
▁seats	-11.2218
▁Equality	-11.2219
▁witness	-11.222
▁Part	-11.2221
wi	-11.2226
▁Paragraph	-11.223
▁fishery	-11.223
▁swiftly	-11.2236
▁harsh	-11.2243
▁knew	-11.2256
▁blow	-11.2258
known	-11.226
▁arbitrary	-11.2269
▁Round	-11.2269
▁ministerial	-11.2269
▁watch	-11.2274
▁worthwhile	-11.2282
▁issuing	-11.2282
▁settle	-11.2292
15	-11.2296
▁offence	-11.2298
▁listed	-11.2302
▁exemptions	-11.2303
pre	-11.2311
▁judges	-11.2312
▁selling	-11.2312
▁Haiti	-11.2321
▁prostitution	-11.2322
▁subsidy	-11.2322
▁carriers	-11.2323
▁seemed	-11.2328
▁3%	-11.233
▁Regions	-11.2332
▁underlined	-11.2333
▁Dr	-11.2334
▁hypocrisy	-11.2335
▁mercury	-11.2335
▁tourist	-11.2337
▁identifying	-11.2343
▁depending	-11.2344
▁tariffs	-11.2347
▁pursuit	-11.2348
▁scene	-11.2348
▁Has	-11.2349
▁breaches	-11.2351
▁knowing	-11.2351
))	-11.2353
▁ending	-11.2354
ier	-11.2356
▁proves	-11.2358
▁reactions	-11.236
▁operates	-11.236
▁REACH	-11.2361
▁attended	-11.2362
operation	-11.2366
▁smooth	-11.2369
▁proactive	-11.2375
▁disappointing	-11.2377
▁premature	-11.2388
▁newspaper	-11.2388
▁meaningful	-11.2389
▁gaps	-11.2392
drew	-11.2396
▁interpret	-11.2405
▁caution	-11.2414
▁domain	-11.2414
▁objection	-11.2416
▁formed	-11.2422
▁counterfeiting	-11.2424
à	-11.2428
▁senior	-11.2428
▁vigilant	-11.2428
▁distortions	-11.2429
▁indications	-11.243
▁engagement	-11.2431
productive	-11.2431
▁surprising	-11.2435
▁apologise	-11.2441
▁continuity	-11.2441
▁guard	-11.2442
▁blocked	-11.2442
▁Trans	-11.2447
▁God	-11.2454
▁capacities	-11.2454
▁software	-11.2454
▁marking	-11.2455
▁partial	-11.2461
▁learnt	-11.2463
teroperability	-11.2468
▁Bolkestein	-11.2468
▁redundancies	-11.2468
▁refusing	-11.2468
▁Concerning	-11.2469
▁expresses	-11.2472
▁Christmas	-11.2481
▁scenario	-11.2482
▁career	-11.2491
▁Mo	-11.2493
▁Po	-11.2493
▁Tuesday	-11.2494
▁propaganda	-11.2494
▁tendency	-11.2494
▁moderate	-11.2495
▁compensate	-11.2503
▁earthquake	-11.2509
▁Gender	-11.2521
▁frontiers	-11.2522
izing	-11.2527
▁delivery	-11.2529
▁catastrophe	-11.2535
▁transportation	-11.2537
▁suddenly	-11.2538
▁4,	-11.2541
▁bears	-11.2545
4-02	-11.2548
▁Palacio	-11.2548
▁Lu	-11.2548
▁infringements	-11.2549
▁definitions	-11.2552
▁reforming	-11.2557
▁noticed	-11.2558
▁contradict	-11.2561
▁advocated	-11.2571
▁ra	-11.2572
▁injustice	-11.2575
▁summary	-11.2575
▁mobilise	-11.2584
za	-11.2588
▁awaiting	-11.2591
▁prohibition	-11.2592
▁College	-11.2602
▁prosecution	-11.2602
▁nationality	-11.261
▁ca	-11.2614
ger	-11.2616
▁merits	-11.2616
▁complementary	-11.2617
▁restriction	-11.262
▁li	-11.2621
od	-11.2622
▁advise	-11.2624
▁devastating	-11.2629
▁attract	-11.263
▁sooner	-11.2631
▁accepts	-11.2631
▁lengthy	-11.2634
▁distinguish	-11.2636
▁fill	-11.2636
▁handle	-11.264
▁indigenous	-11.2643
right	-11.2647
▁condemning	-11.2656
▁Poettering	-11.2657
▁Islands	-11.2657
/2006	-11.2657
▁realities	-11.2664
▁streets	-11.2665
▁Mugabe	-11.267
▁recover	-11.2675
▁eat	-11.2675
▁wholly	-11.2689
▁geared	-11.2689
ition	-11.269
▁Serbian	-11.2691
▁fruitful	-11.2692
▁frequent	-11.2692
▁tolerate	-11.2693
▁Next	-11.2698
▁textiles	-11.2699
▁super	-11.2701
regulation	-11.2702
▁bid	-11.2703
▁jeopardise	-11.2706
▁3,	-11.271
▁love	-11.2711
▁redundant	-11.2711
▁scandalous	-11.2712
▁deterioration	-11.2725
▁Bulgarian	-11.2731
mer	-11.2739
▁weapon	-11.2742
▁42	-11.2749
▁automatic	-11.2752
▁financially	-11.2754
back	-11.2756
▁judgments	-11.2757
▁undermined	-11.2764
▁structured	-11.2766
▁opponents	-11.2768
tre	-11.2772
▁38	-11.2773
▁coins	-11.2778
▁Much	-11.2781
▁successes	-11.2784
▁yield	-11.2785
▁virtue	-11.2794
ight	-11.2797
▁officers	-11.2798
▁5%	-11.2798
▁thoughts	-11.2799
▁judgement	-11.2801
▁centuries	-11.2808
▁twelve	-11.2808
disproportionate	-11.2809
▁mutually	-11.2811
▁alleged	-11.2816
▁Small	-11.2822
▁inspectors	-11.2822
▁Herzegovina	-11.2826
▁pull	-11.2827
▁ends	-11.2834
▁bigger	-11.2836
▁Un	-11.2844
cur	-11.2846
▁III	-11.2846
▁Laeken	-11.2849
▁biotechnology	-11.2849
▁Islam	-11.2856
▁Articles	-11.2858
▁constituents	-11.2859
▁reformed	-11.2859
▁organs	-11.2862
▁disability	-11.2864
▁books	-11.2866
▁permits	-11.2867
▁Albanian	-11.2872
▁mixed	-11.2874
▁academic	-11.2877
ron	-11.2877
▁Surely	-11.2891
▁contradictory	-11.2891
▁inclusive	-11.2892
▁seriousness	-11.2897
▁authors	-11.2899
ments	-11.29
▁Yugoslav	-11.2902
▁psychological	-11.2905
▁privileged	-11.2909
▁certification	-11.2919
▁costly	-11.2925
▁olive	-11.2933
▁classification	-11.2933
▁allies	-11.2934
▁theory	-11.2936
▁alliance	-11.2938
comprehensible	-11.294
▁excessively	-11.294
▁Natura	-11.2947
▁absent	-11.2947
▁acute	-11.2947
▁petitions	-11.2947
tal	-11.2948
▁predict	-11.2952
▁adapting	-11.2955
▁ECHO	-11.2961
▁finger	-11.2961
▁tested	-11.2962
▁Go	-11.2969
▁robust	-11.2975
▁transformation	-11.2978
wa	-11.2983
▁discovered	-11.2983
▁1,	-11.2989
▁conditional	-11.2991
▁film	-11.2995
▁suspend	-11.2997
▁attitudes	-11.2999
▁hitherto	-11.3003
▁evil	-11.3004
ET	-11.3009
▁expecting	-11.3013
▁assert	-11.3014
cing	-11.3019
▁5.	-11.302
▁dates	-11.302
▁resist	-11.3023
being	-11.3027
▁incompatible	-11.3031
▁stabilise	-11.3032
▁alert	-11.3033
▁k	-11.3039
▁profession	-11.3042
▁belongs	-11.3044
▁Southern	-11.3046
▁epidemic	-11.3046
▁teaching	-11.3052
▁Cotonou	-11.306
Europe	-11.3065
▁killing	-11.3066
▁Su	-11.3066
▁Finance	-11.3074
▁buying	-11.3077
▁ad	-11.3082
▁schedule	-11.3083
▁returning	-11.3088
▁modes	-11.309
▁cheaper	-11.3092
▁decrease	-11.3098
▁preferences	-11.3102
▁trialogue	-11.3103
▁continually	-11.3105
US	-11.3107
▁Conservative	-11.3109
▁shoulder	-11.3112
▁fo	-11.3114
ib	-11.3114
▁excise	-11.3117
▁proportionality	-11.3117
▁slowly	-11.3117
▁cold	-11.3119
▁wanting	-11.3127
▁Confedera	-11.3131
law	-11.3133
25	-11.3135
▁1991	-11.314
▁Fa	-11.3142
▁minimal	-11.3146
▁exceed	-11.3146
▁Norway	-11.3146
▁weakness	-11.3146
▁allowances	-11.3147
▁decommissioning	-11.3149
▁rhetoric	-11.315
makers	-11.315
▁immense	-11.3154
▁imperialist	-11.3159
own	-11.3168
▁papers	-11.3172
▁memory	-11.3174
▁user	-11.318
rt	-11.3187
▁Accordingly	-11.3197
▁vitally	-11.3202
▁restricting	-11.3203
▁70%	-11.3204
▁assent	-11.3205
▁techniques	-11.3213
▁Chernobyl	-11.3217
▁reception	-11.3218
▁transform	-11.3221
▁lo	-11.3225
▁collected	-11.3225
▁Ha	-11.3225
1999	-11.3226
▁contamination	-11.3232
▁differing	-11.3235
▁calm	-11.3241
▁Together	-11.3246
▁ridiculous	-11.3261
▁Putin	-11.3275
▁tunnel	-11.3275
▁departments	-11.3278
▁competitors	-11.3287
▁deliberations	-11.3287
3%	-11.3288
▁Sakharov	-11.329
▁liberty	-11.329
▁throw	-11.329
ever	-11.3291
▁warn	-11.3296
▁mentioning	-11.3296
▁affirm	-11.3301
▁clothing	-11.3304
▁Bo	-11.3306
▁newly	-11.331
▁Aid	-11.3317
▁recourse	-11.3319
▁Mercosur	-11.3319
▁pain	-11.332
▁43	-11.3327
▁allocate	-11.3328
▁sentences	-11.3334
▁supporters	-11.3338
99	-11.3339
▁conceal	-11.334
▁awarded	-11.3341
▁revise	-11.3343
▁charged	-11.3346
▁Fortunately	-11.3348
▁scourge	-11.3348
▁unclear	-11.3348
▁assumed	-11.3352
▁exempt	-11.3353
▁conventional	-11.3355
ile	-11.3359
▁inland	-11.3359
▁gesture	-11.3363
▁incapable	-11.3363
▁Seventh	-11.3363
ju	-11.3363
▁liberalization	-11.3363
▁wood	-11.3364
▁viewpoint	-11.3367
tur	-11.3369
▁poses	-11.3375
▁newspapers	-11.3377
▁description	-11.3377
▁drought	-11.3377
▁agreeing	-11.3382
▁Turning	-11.3392
▁ideology	-11.3392
▁fell	-11.3393
▁ingredients	-11.3393
▁feelings	-11.3396
▁frank	-11.3401
▁intent	-11.3418
▁substitute	-11.3421
▁pending	-11.3422
▁outline	-11.343
▁suit	-11.3431
ient	-11.3431
dis	-11.3435
▁cooperating	-11.3436
▁maternity	-11.3436
ological	-11.3436
den	-11.344
standing	-11.3445
▁lift	-11.3446
▁Whether	-11.3451
▁reputation	-11.3451
▁reunification	-11.3451
▁recommends	-11.3458
▁drastic	-11.3465
▁plus	-11.3482
▁severely	-11.3493
▁voices	-11.3501
▁appropriately	-11.3502
▁formulate	-11.3507
▁quantitative	-11.351
▁Jean	-11.3511
▁profitable	-11.3513
▁breaking	-11.3516
▁limitations	-11.3519
▁reinforcing	-11.3525
▁site	-11.3531
▁recognized	-11.3533
▁Equal	-11.3533
▁anybody	-11.354
▁eurozone	-11.354
▁silent	-11.354
▁finished	-11.354
▁CFP	-11.354
▁suspect	-11.3541
▁billions	-11.3546
▁aggressive	-11.3555
▁promising	-11.3555
▁qualitative	-11.3555
▁murdered	-11.3558
▁founding	-11.356
▁argued	-11.3564
▁ensures	-11.3564
▁bus	-11.3564
▁bomb	-11.3567
▁90%	-11.357
▁launching	-11.3574
▁punished	-11.3576
▁survey	-11.358
▁participated	-11.358
▁capitalist	-11.3582
▁Ad	-11.3583
▁flood	-11.3583
▁gr	-11.3584
▁Far	-11.3584
▁Euratom	-11.3585
ris	-11.3592
▁UEN	-11.36
▁Sahara	-11.3602
oc	-11.3604
war	-11.361
▁pornography	-11.3615
▁handed	-11.3618
ric	-11.3621
▁retained	-11.3623
▁artificial	-11.3624
▁fairer	-11.3627
▁viability	-11.363
▁Da	-11.3632
▁Further	-11.3645
▁Meanwhile	-11.3645
port	-11.3645
▁hearings	-11.3654
▁simpler	-11.3655
▁countryside	-11.3656
▁disarmament	-11.366
▁installations	-11.3664
▁translated	-11.3665
▁mothers	-11.3671
unt	-11.3686
▁laundering	-11.3691
▁soft	-11.3695
how	-11.3698
▁prisons	-11.3702
▁Three	-11.3705
▁fossil	-11.3705
▁liberties	-11.3705
▁1989	-11.3705
▁tens	-11.3708
▁exposure	-11.372
▁crossing	-11.3721
▁Media	-11.3723
▁insisted	-11.3723
▁manufacture	-11.3729
▁adult	-11.3732
▁forecasts	-11.3733
cal	-11.3734
▁capabilities	-11.3735
▁impunity	-11.3735
▁75	-11.3746
▁boundaries	-11.3751
▁Customs	-11.3751
▁entirety	-11.3754
▁Questions	-11.3754
▁mainstreaming	-11.3756
▁technically	-11.3765
▁MEDA	-11.3766
▁Sri	-11.3772
▁highlighting	-11.3773
▁Pro	-11.3774
▁professions	-11.3775
▁precondition	-11.3778
▁speaks	-11.378
▁Erika	-11.3782
lan	-11.3785
▁dimensions	-11.3793
▁Personally	-11.3797
▁pushing	-11.381
▁admitted	-11.3822
▁lifting	-11.3824
▁Posselt	-11.3827
▁excellence	-11.3827
/2003	-11.3828
▁hospital	-11.384
▁55	-11.3842
▁vi	-11.3843
▁activists	-11.3844
▁7.	-11.3845
▁settled	-11.3848
▁viewed	-11.3849
▁referendums	-11.385
▁Foundation	-11.3858
▁abide	-11.3858
▁secretariat	-11.3858
▁conducting	-11.3862
▁attempted	-11.3869
ria	-11.387
6%	-11.387
▁guiding	-11.3873
▁injured	-11.3873
▁likewise	-11.3873
▁ruled	-11.3875
▁mistaken	-11.3879
▁overlook	-11.388
Russia	-11.3881
han	-11.3881
▁prize	-11.3882
ek	-11.3882
▁relevance	-11.3888
▁storm	-11.3888
40	-11.3888
▁ease	-11.3891
▁deemed	-11.3892
▁commerce	-11.3893
building	-11.3894
▁guided	-11.3895
▁Cambodia	-11.39
▁dismantling	-11.3904
▁harmonising	-11.3904
▁underlines	-11.3908
▁measured	-11.3915
▁rigid	-11.3918
▁supplied	-11.3919
▁Te	-11.3924
▁cap	-11.3928
▁sees	-11.3935
▁advisory	-11.3935
▁debts	-11.3936
▁imbalance	-11.3939
Maritime	-11.3945
▁totalitarian	-11.395
ob	-11.3952
▁600	-11.3953
▁instances	-11.3955
▁confront	-11.3956
▁anticipate	-11.3961
▁entities	-11.3966
▁stood	-11.3966
▁Sport	-11.3967
month	-11.3974
▁cautious	-11.3976
cent	-11.3977
▁requesting	-11.3979
▁diversification	-11.3981
▁worry	-11.3985
▁judged	-11.3992
▁Global	-11.3996
▁distortion	-11.3996
▁opposing	-11.3997
▁nice	-11.3997
▁informing	-11.3998
▁100%	-11.3998
▁reactors	-11.4001
▁mentions	-11.4002
▁destroying	-11.4006
▁hatred	-11.4012
▁vaccination	-11.4013
ny	-11.4014
▁vary	-11.4017
▁2001.	-11.4021
▁Again	-11.4027
▁Sarkozy	-11.4028
▁Gulf	-11.4028
▁disagreement	-11.4029
▁spreading	-11.4037
▁chose	-11.4042
▁Network	-11.4044
▁Support	-11.4044
▁departure	-11.4044
▁discover	-11.4048
▁Conservatives	-11.4052
▁separately	-11.4054
▁welcoming	-11.4059
▁Good	-11.406
▁appreciated	-11.4066
▁missed	-11.4067
▁prohibited	-11.4067
▁subscribe	-11.4068
▁translate	-11.407
▁formation	-11.4072
▁Watson	-11.4075
▁conscious	-11.4075
▁guardian	-11.4075
▁lobby	-11.4078
date	-11.4079
▁extradition	-11.4107
▁precedence	-11.4107
▁unrealistic	-11.4107
▁conferences	-11.4107
▁accusations	-11.4108
▁peripheral	-11.4109
▁receives	-11.4115
▁tight	-11.4118
▁Azerbaijan	-11.4122
▁Jarzembowski	-11.4122
sur	-11.4127
96	-11.4128
▁ineffective	-11.413
▁redress	-11.4136
▁identical	-11.4138
▁Sixth	-11.4139
▁protests	-11.4141
ham	-11.4141
▁correspond	-11.4141
▁discriminatory	-11.4142
▁confronted	-11.4147
▁plain	-11.4148
▁attaches	-11.4157
rk	-11.4157
▁transposed	-11.4157
▁threatens	-11.4162
▁blocking	-11.4163
bit	-11.4165
ko	-11.4167
▁uncertain	-11.4169
▁dominant	-11.417
▁precarious	-11.417
▁altogether	-11.4186
▁duration	-11.4186
▁touched	-11.4187
az	-11.4189
▁austerity	-11.4202
▁striking	-11.4202
board	-11.421
▁thrust	-11.4217
ering	-11.422
▁sends	-11.4231
7/	-11.4232
▁airspace	-11.4233
▁independently	-11.4236
▁globalised	-11.4243
ties	-11.4247
í	-11.4249
▁England	-11.4249
▁ILO	-11.425
6/	-11.4254
▁somewhere	-11.4254
▁Innovation	-11.4265
▁exemplary	-11.4265
▁1980	-11.4266
▁communist	-11.4271
▁additives	-11.4279
▁champion	-11.4281
4-03	-11.4282
ana	-11.4285
▁globally	-11.4286
ef	-11.4291
▁typical	-11.4292
▁emphasising	-11.43
▁adjust	-11.4308
▁wrote	-11.4314
▁chapters	-11.4317
▁partially	-11.432
▁Ta	-11.432
▁racist	-11.433
▁website	-11.4331
form	-11.4332
▁contents	-11.4332
▁Slovenian	-11.4334
▁95	-11.4348
▁facto	-11.4349
▁Wallström	-11.4362
▁forcing	-11.4363
▁replacing	-11.4365
▁confined	-11.4369
▁hoc	-11.4374
ire	-11.4377
▁finds	-11.4381
▁deepening	-11.4388
▁parameters	-11.439
▁impressive	-11.4394
▁organisms	-11.4395
hold	-11.4397
gent	-11.4399
▁collect	-11.4401
▁organ	-11.4402
▁migratory	-11.4411
▁asset	-11.4416
ren	-11.4425
▁neo	-11.4427
▁panel	-11.4428
▁letters	-11.444
▁Gothenburg	-11.4443
▁legislate	-11.4443
▁pride	-11.4443
▁database	-11.4445
▁produces	-11.4451
▁attain	-11.4452
▁deposit	-11.4457
▁phenomena	-11.4459
▁master	-11.446
▁industrialised	-11.4463
▁Monitoring	-11.4476
▁replacement	-11.448
▁shameful	-11.4494
▁exercised	-11.4495
log	-11.4501
▁aquaculture	-11.4509
▁preferential	-11.4509
▁restoring	-11.4509
▁delivering	-11.4509
▁taxpayer	-11.4512
▁award	-11.4517
▁Reding	-11.4518
▁al	-11.4519
▁asks	-11.4523
▁exercising	-11.4525
▁Her	-11.4533
▁65	-11.4536
▁disappeared	-11.4536
▁visits	-11.4537
▁5,	-11.4541
▁Change	-11.4541
▁annex	-11.4548
▁sentenced	-11.4552
work	-11.4552
▁arm	-11.456
▁counterfeit	-11.4562
▁anyway	-11.4563
▁anticipated	-11.4563
▁internally	-11.4564
▁safeguarded	-11.4567
▁mostly	-11.4572
▁Korean	-11.4573
▁secured	-11.4574
▁EDF	-11.4574
▁incidentally	-11.4575
▁15%	-11.4577
▁waiver	-11.4581
2010	-11.4584
▁speedy	-11.4586
▁resume	-11.4586
▁Jerusalem	-11.4591
▁prominent	-11.4591
▁perpetrators	-11.4591
▁Somalia	-11.4591
▁currencies	-11.4607
▁plenty	-11.4607
▁forth	-11.4609
▁deliberate	-11.4619
▁Taliban	-11.4624
▁unresolved	-11.4624
▁repressive	-11.4624
▁dependency	-11.4624
▁perception	-11.4624
▁disadvantages	-11.4629
▁thinks	-11.463
▁deeper	-11.4633
▁strongest	-11.4635
▁hinder	-11.4637
▁Israelis	-11.4639
▁shut	-11.464
▁Initiative	-11.4641
▁Lomé	-11.4641
▁cultivation	-11.4641
▁paramount	-11.4641
▁relaunch	-11.4641
▁promptly	-11.4648
▁Have	-11.4664
her	-11.4674
▁inability	-11.4688
▁exceptionally	-11.4691
▁reciprocity	-11.4691
▁dark	-11.4691
▁En	-11.4694
▁luck	-11.4705
▁witnessing	-11.4706
▁cash	-11.4708
▁accompanying	-11.4709
▁theme	-11.471
▁confused	-11.4711
▁Br	-11.4714
national	-11.4715
▁linking	-11.4719
▁distort	-11.4719
ory	-11.472
▁Caribbean	-11.4724
▁equipped	-11.4724
▁Pack	-11.4725
▁processed	-11.4726
▁announce	-11.4732
▁pressures	-11.4737
▁brain	-11.4741
▁assurances	-11.4743
▁Men	-11.4743
▁6.	-11.4744
ki	-11.4746
▁vessel	-11.4746
▁250	-11.4748
07	-11.4749
aries	-11.4756
▁Nobody	-11.4758
▁purchasing	-11.4758
▁Eurojust	-11.4758
▁blue	-11.4758
▁compliment	-11.4763
▁teams	-11.4764
▁lived	-11.4766
▁salary	-11.4775
▁submitting	-11.4776
▁rape	-11.4776
▁Johannesburg	-11.4791
▁virus	-11.4791
▁privilege	-11.4792
▁mining	-11.4792
▁permission	-11.4792
▁proliferation	-11.4797
▁signatures	-11.4798
rit	-11.4799
entrepreneurship	-11.4808
▁harassment	-11.4809
▁Erasmus	-11.4809
▁Environmental	-11.4816
▁vis	-11.4823
▁deployment	-11.4826
▁complying	-11.483
▁pushed	-11.4831
▁regain	-11.4842
▁upheld	-11.4842
tar	-11.4844
▁motivated	-11.4844
▁standardisation	-11.4863
▁investigated	-11.4869
▁Approval	-11.4876
▁veterinary	-11.4876
▁spot	-11.488
▁stone	-11.4881
▁relocation	-11.4883
▁dollar	-11.4883
▁successive	-11.4886
speed	-11.4886
▁44	-11.4886
long	-11.4887
▁COM	-11.489
▁restored	-11.4892
▁duly	-11.4897
▁mouth	-11.4899
▁Oomen	-11.491
▁creativity	-11.491
▁stipulates	-11.4915
east	-11.4921
▁ratio	-11.4922
▁eliminated	-11.4926
▁Corbett	-11.4927
▁optimism	-11.4928
▁adjourned	-11.4928
▁envisage	-11.4929
▁expanding	-11.4929
RA	-11.4934
▁crop	-11.4934
▁exceeded	-11.4938
kin	-11.4942
▁Water	-11.4944
▁hypocritical	-11.4944
▁timber	-11.4944
▁affordable	-11.4947
▁commission	-11.4949
▁notification	-11.4955
▁fairness	-11.4955
▁records	-11.4956
▁inherent	-11.496
▁PHARE	-11.4962
▁John	-11.4962
▁coexistence	-11.4962
▁marginal	-11.4966
ified	-11.4968
ration	-11.4968
▁alive	-11.4969
▁screening	-11.4969
▁encounter	-11.497
class	-11.4972
▁im	-11.4975
▁benefited	-11.4978
▁copy	-11.4979
▁arrival	-11.4979
▁rigour	-11.4979
▁142)	-11.4979
▁Cor	-11.498
▁specialist	-11.4981
▁endeavours	-11.4984
▁sanction	-11.4986
▁outbreak	-11.4987
▁excess	-11.4994
▁entity	-11.4996
▁owing	-11.4996
▁curb	-11.4997
▁modernise	-11.5011
▁Besides	-11.5013
▁deficiencies	-11.5013
▁incorporating	-11.5013
▁surface	-11.5013
▁wisdom	-11.5013
▁emphatically	-11.5013
▁Very	-11.5015
▁gaining	-11.5017
▁benefiting	-11.5019
lin	-11.502
▁lacks	-11.5021
▁2%	-11.5022
▁cruel	-11.503
▁presidencies	-11.5031
▁street	-11.5038
▁servants	-11.5047
▁anxious	-11.5048
▁ASEAN	-11.5048
▁assisting	-11.5056
▁splendid	-11.5065
▁prosperous	-11.5065
▁thrown	-11.5067
▁passive	-11.5068
gue	-11.5073
▁wasted	-11.5076
▁spare	-11.5077
4%	-11.5088
▁circle	-11.509
J	-11.5092
▁occurs	-11.5096
▁applause	-11.51
▁afterwards	-11.51
▁Ferrero	-11.51
▁incorrect	-11.5112
▁gains	-11.5116
▁Nuclear	-11.5117
▁rehabilitation	-11.5117
▁navigation	-11.5118
▁Gu	-11.5118
down	-11.5118
▁managers	-11.512
7%	-11.512
▁divisions	-11.5123
liberal	-11.5127
oriented	-11.5127
▁insofar	-11.5135
▁Unless	-11.5135
▁simultaneously	-11.5137
▁opens	-11.5147
▁emergence	-11.5152
▁obligatory	-11.5153
▁utterly	-11.5156
▁boats	-11.5159
▁Pre	-11.516
▁Nothing	-11.517
▁conversion	-11.517
▁elite	-11.517
▁suggesting	-11.5177
▁weaker	-11.5178
▁Sunday	-11.5187
Ruijten	-11.5187
▁verify	-11.5187
▁complain	-11.5187
▁persistent	-11.5188
▁breast	-11.5188
▁inspired	-11.5191
ys	-11.5192
▁trials	-11.5192
▁prohibit	-11.5206
▁EGF	-11.5208
▁Anti	-11.5209
chi	-11.5218
▁appoint	-11.5219
▁alarm	-11.522
▁oppression	-11.5223
▁proportionate	-11.5224
▁unification	-11.5224
▁barrier	-11.5232
▁alike	-11.5234
▁par	-11.5238
▁updated	-11.5248
▁unlikely	-11.5249
▁br	-11.5249
▁chances	-11.5251
▁Roth	-11.5257
▁radiation	-11.5258
▁shipbuilding	-11.5258
▁machinery	-11.5258
▁innovations	-11.5263
▁confrontation	-11.5263
fa	-11.5267
win	-11.5271
hy	-11.5272
▁evaluating	-11.5276
ua	-11.5283
▁protectionist	-11.5285
looking	-11.5285
▁introduces	-11.5291
▁overcoming	-11.5293
▁cow	-11.5294
▁Dis	-11.5299
▁occupational	-11.5303
▁journalist	-11.5308
▁Annual	-11.5311
▁Vitorino	-11.5311
▁alleviate	-11.5311
▁margins	-11.5315
▁Armenia	-11.5322
▁evolution	-11.5329
▁restoration	-11.5329
Waldner	-11.5329
▁fa	-11.5332
act	-11.5338
▁Cypriot	-11.534
▁Pacific	-11.5347
▁Japanese	-11.5347
▁cornerstone	-11.5357
▁evaluated	-11.5357
▁nationalism	-11.5358
▁individually	-11.5363
▁smoke	-11.5364
▁multiple	-11.5365
▁pave	-11.5376
▁sporting	-11.5376
▁1998.	-11.5381
▁thirty	-11.5382
▁houses	-11.5384
▁tone	-11.5385
▁coverage	-11.5385
▁classes	-11.5385
▁cards	-11.539
+	-11.5395
made	-11.54
▁ethics	-11.54
▁signature	-11.5411
▁Games	-11.5418
▁neglected	-11.5425
▁da	-11.5429
▁command	-11.5436
uff	-11.5437
▁th	-11.5441
▁render	-11.5447
▁lawyer	-11.5447
ip	-11.5448
uring	-11.5449
▁cure	-11.5451
▁Guantánamo	-11.5454
▁damaged	-11.5462
sen	-11.5463
▁39	-11.5464
van	-11.5467
▁store	-11.5467
Bendit	-11.5472
▁recruitment	-11.5473
▁imprisoned	-11.5474
▁assistants	-11.5475
▁acknowledges	-11.5482
▁Sh	-11.5489
▁Cohn	-11.549
▁pricing	-11.549
▁prosecutor	-11.549
▁suicide	-11.549
▁Costa	-11.549
▁music	-11.5491
▁dramatically	-11.5491
▁120	-11.5494
▁sharp	-11.5503
▁piracy	-11.5509
▁politician	-11.552
▁Per	-11.5521
▁denounce	-11.5522
met	-11.5525
ina	-11.5525
▁Cancún	-11.5527
▁abolishing	-11.5529
▁intensify	-11.5533
are	-11.5535
▁humane	-11.5542
▁Burmese	-11.5545
▁Lukashenko	-11.5545
▁hidden	-11.5545
▁straightforward	-11.5545
▁disappearance	-11.5545
▁TV	-11.5546
▁vigorously	-11.5549
▁specify	-11.5551
▁channel	-11.5556
▁bombing	-11.556
▁League	-11.5563
▁Sometimes	-11.5563
▁dominated	-11.5567
▁selected	-11.5572
▁allegations	-11.5577
▁observer	-11.558
▁risen	-11.5581
▁Scientific	-11.5581
▁smuggling	-11.5581
▁Lo	-11.5594
▁pure	-11.5597
▁challenging	-11.56
▁Ne	-11.5601
▁flying	-11.561
▁behave	-11.5613
▁retail	-11.5617
3/	-11.5617
▁Berlusconi	-11.5618
▁ignoring	-11.5618
▁goodwill	-11.562
▁saved	-11.5635
▁Lehne	-11.5636
▁advocating	-11.5636
▁hygiene	-11.5636
▁concerted	-11.5639
nu	-11.5645
art	-11.5647
▁lifted	-11.5647
▁completing	-11.5655
▁retention	-11.5655
ya	-11.5655
▁score	-11.5655
SA	-11.5655
▁decentralised	-11.5656
▁forgetting	-11.5658
lle	-11.5661
▁democrats	-11.5668
▁beautiful	-11.5673
▁portfolio	-11.5673
▁page	-11.5675
▁perceived	-11.5676
▁reasonably	-11.5679
▁maintains	-11.5681
▁Mu	-11.5685
▁dying	-11.5692
▁accommodate	-11.571
▁horse	-11.571
▁incredibly	-11.571
▁smart	-11.571
▁unjustified	-11.571
▁Workers	-11.5711
▁700	-11.5714
▁grass	-11.5714
▁Up	-11.572
carbon	-11.5721
▁Chile	-11.5728
▁selective	-11.5729
▁river	-11.573
▁adults	-11.5732
▁decides	-11.5735
(3)	-11.5742
▁permanently	-11.5742
▁sustain	-11.5743
▁miss	-11.5744
▁weather	-11.5747
▁trained	-11.5752
▁settlements	-11.5756
▁loud	-11.576
minded	-11.5766
▁occurring	-11.5766
▁vegetables	-11.5769
▁consulting	-11.5769
▁stipulated	-11.5771
▁fees	-11.5771
▁disturbing	-11.5774
▁defeat	-11.5776
▁Progress	-11.5784
▁contempt	-11.5784
▁poultry	-11.5784
▁GSP	-11.5785
▁workable	-11.5786
▁fundamentalism	-11.5788
8%	-11.5788
▁kilometres	-11.579
▁suspected	-11.5795
8/	-11.5795
▁accelerate	-11.5798
▁fines	-11.5798
▁consolidating	-11.5803
▁breakthrough	-11.5803
▁admission	-11.5803
▁bans	-11.5812
▁Non	-11.5814
▁distinct	-11.5818
hand	-11.582
▁Thessaloniki	-11.5822
shop	-11.5825
point	-11.5826
▁celebrate	-11.5835
▁checked	-11.5837
▁assuming	-11.584
▁deadlock	-11.584
▁devices	-11.5848
▁coup	-11.5851
ear	-11.5857
▁uranium	-11.5859
▁groundwater	-11.586
▁backwards	-11.586
▁transported	-11.5861
let	-11.5864
▁800	-11.5865
cla	-11.5874
▁Tibetan	-11.5876
▁wild	-11.5878
▁Socrates	-11.5878
▁dubious	-11.5878
▁millennium	-11.5878
▁striving	-11.5878
▁imprisonment	-11.5878
▁conservative	-11.5878
▁prevents	-11.5879
▁insult	-11.5885
▁tender	-11.5892
ening	-11.5896
▁Böge	-11.5897
▁forefront	-11.5897
▁imposition	-11.5897
▁contractual	-11.5898
▁formulation	-11.5899
▁Chad	-11.59
9/	-11.5901
table	-11.5904
ang	-11.5905
▁Tak	-11.5909
▁Agricultural	-11.5916
▁frustration	-11.5916
▁postponement	-11.5918
▁codes	-11.5923
ending	-11.5927
▁draws	-11.5928
/2004	-11.5933
▁fortunately	-11.5938
▁strengthens	-11.5945
▁Ab	-11.5949
▁holiday	-11.595
ok	-11.5951
▁timing	-11.5953
▁TACIS	-11.5953
▁47	-11.5954
▁PNR	-11.5954
▁Si	-11.5958
▁provisional	-11.5959
▁hot	-11.5968
▁GM	-11.597
▁embrace	-11.5972
▁landscape	-11.5972
▁7,	-11.5987
▁havens	-11.5991
▁Harbour	-11.5991
▁unequal	-11.5992
▁approaching	-11.5994
load	-11.5995
▁explaining	-11.5996
▁harder	-11.6001
▁obstruct	-11.6004
▁punish	-11.6005
▁seize	-11.6006
▁disrupt	-11.6006
▁repeating	-11.6007
▁vegetable	-11.6008
▁conform	-11.601
▁Liikanen	-11.601
▁brave	-11.6011
active	-11.6015
▁broadcast	-11.6016
▁encountered	-11.602
▁Australia	-11.6025
▁applicants	-11.6027
▁stimulating	-11.603
▁studied	-11.603
▁reiterated	-11.603
11	-11.603
▁Work	-11.6032
▁stepping	-11.6034
▁confirmation	-11.6035
▁analysed	-11.6039
rac	-11.604
run	-11.6045
▁fatal	-11.6045
▁eve	-11.6047
▁incurred	-11.6049
▁driver	-11.605
▁cereals	-11.6053
▁preserved	-11.6066
▁gallery	-11.6068
▁architecture	-11.6068
▁window	-11.6068
▁49	-11.6076
▁contradictions	-11.6079
▁sun	-11.6082
▁comparative	-11.6087
▁competing	-11.6087
▁exporting	-11.6093
▁derived	-11.6096
sided	-11.6097
▁shocking	-11.6097
▁unambiguous	-11.6101
▁claiming	-11.6102
06	-11.6106
▁gambling	-11.6106
▁Lamy	-11.6106
▁derive	-11.6109
▁expanded	-11.6121
▁Enlargement	-11.6126
▁urging	-11.6126
▁vice	-11.6126
▁carries	-11.6126
▁meal	-11.6129
ology	-11.6134
▁legislators	-11.6135
▁Mann	-11.6136
▁underestimate	-11.6141
▁46	-11.6141
▁camp	-11.6143
▁passport	-11.6143
▁chaos	-11.6145
▁spell	-11.6145
▁submission	-11.6146
▁overview	-11.6146
gar	-11.6148
car	-11.615
▁modification	-11.6162
▁communautaire	-11.6164
▁incredible	-11.6164
▁frontier	-11.6165
▁l	-11.6169
medi	-11.6172
▁allowance	-11.6173
▁eradicate	-11.6178
▁poorly	-11.618
▁treating	-11.6183
▁counting	-11.6183
▁penal	-11.6183
▁Belarusian	-11.6186
▁catches	-11.6187
▁summits	-11.6189
▁ruin	-11.6195
▁ha	-11.6201
▁radically	-11.6201
▁ELDR	-11.6203
▁infection	-11.6203
▁Spring	-11.6203
08	-11.6213
ue	-11.6214
▁undermines	-11.6221
▁corrupt	-11.6222
▁tourists	-11.6222
▁lobbyists	-11.6223
▁centralised	-11.6227
▁pointless	-11.623
▁reserved	-11.6238
▁Opportunities	-11.6242
▁Barón	-11.6242
▁internet	-11.6242
▁liable	-11.6243
▁validity	-11.6245
2009	-11.6245
▁male	-11.6246
▁minimise	-11.6248
99)	-11.6249
cul	-11.625
▁flags	-11.6253
▁Hu	-11.6257
▁seal	-11.626
▁prevailing	-11.6261
▁Executive	-11.6261
▁replied	-11.6261
DEM	-11.6262
▁begins	-11.6264
▁Statement	-11.6269
▁weakened	-11.6276
▁quo	-11.6276
▁Rehn	-11.6281
▁compatibility	-11.6281
▁Alzheimer	-11.6281
▁2020.	-11.6288
▁Consumers	-11.6292
▁unilaterally	-11.6294
▁dictator	-11.63
▁serving	-11.6302
▁unknown	-11.6302
▁stressing	-11.6302
▁tune	-11.6303
developed	-11.6307
matic	-11.6312
terrorism	-11.6313
▁underway	-11.6317
▁Swiss	-11.632
▁replies	-11.632
▁neoliberal	-11.632
▁illness	-11.6321
▁committing	-11.6322
▁accessibility	-11.6322
▁detained	-11.6322
▁Ni	-11.6337
ai	-11.6338
▁Professor	-11.634
▁aggression	-11.634
▁mankind	-11.634
▁visibility	-11.634
▁barely	-11.6342
▁1997.	-11.6342
▁Whatever	-11.6345
▁capitalism	-11.6349
▁bloc	-11.6358
▁coincide	-11.636
▁Instrument	-11.636
▁proving	-11.636
▁slavery	-11.636
▁scarcely	-11.6363
▁enormously	-11.6366
▁deployed	-11.6367
▁Ministry	-11.6379
▁eradication	-11.6379
tech	-11.638
▁loan	-11.6381
▁sick	-11.6387
▁occupying	-11.6387
▁mergers	-11.639
2%	-11.6393
▁corrected	-11.6394
▁Madeira	-11.6399
▁quoted	-11.64
▁undemocratic	-11.64
▁illustrates	-11.6414
▁Agreements	-11.6417
▁ecosystems	-11.642
▁wines	-11.6426
▁legality	-11.6429
▁federalist	-11.6433
▁taught	-11.6439
▁rejects	-11.6441
▁X	-11.6442
▁shareholders	-11.6455
▁Bangemann	-11.6459
▁Crespo	-11.6459
▁drain	-11.6459
▁lorries	-11.6459
▁IND	-11.6459
value	-11.6472
▁41	-11.6473
▁transaction	-11.648
▁restraint	-11.6482
▁Russians	-11.6489
▁Venezuela	-11.6495
▁herself	-11.6499
▁ascertain	-11.6499
▁artists	-11.6499
▁Muslims	-11.6502
▁Com	-11.6504
▁honesty	-11.6506
▁gather	-11.6518
▁Administration	-11.6519
▁sceptical	-11.6519
▁calculated	-11.6521
establish	-11.6522
▁attacked	-11.6528
▁farmer	-11.6533
▁violate	-11.6535
▁Regulations	-11.6538
▁underpin	-11.6539
▁imminent	-11.6539
▁phasing	-11.6539
▁Robert	-11.6539
▁clarifying	-11.6539
▁appearance	-11.6542
▁flu	-11.6544
▁6,	-11.6549
▁refunds	-11.6558
▁reviewing	-11.6559
—	-11.6559
▁analysing	-11.6559
▁offensive	-11.6559
▁readiness	-11.6559
▁walk	-11.6559
▁discourage	-11.6559
▁equity	-11.6559
party	-11.6565
lve	-11.6571
▁delete	-11.6574
▁Lanka	-11.6576
▁Barrot	-11.6579
▁Scottish	-11.6579
▁distant	-11.6579
▁diet	-11.658
fire	-11.6587
▁deepen	-11.6596
▁Catholic	-11.6599
▁Quartet	-11.6599
▁roadmap	-11.6599
▁theoretical	-11.6599
▁geopolitical	-11.6599
▁coordinator	-11.6601
▁SME	-11.6601
▁convictions	-11.6601
▁Pe	-11.6603
▁dictate	-11.6605
▁sixth	-11.6613
▁y	-11.6615
▁indicating	-11.662
▁confidentiality	-11.662
▁Stand	-11.6621
▁Right	-11.6622
lia	-11.6624
▁Pi	-11.6627
▁capita	-11.6638
▁diagnosis	-11.664
▁intolerance	-11.664
▁reliability	-11.664
▁temptation	-11.664
▁Accession	-11.6641
regional	-11.6643
▁reward	-11.6645
house	-11.6655
▁doctor	-11.6658
▁estimate	-11.6659
4/	-11.6659
▁chocolate	-11.666
▁fabric	-11.666
▁patience	-11.666
▁Sadly	-11.666
▁Section	-11.6661
▁tries	-11.6662
▁quarters	-11.6671
▁imply	-11.6671
▁Angola	-11.6677
mar	-11.668
▁secrecy	-11.6681
▁exported	-11.6681
4-04	-11.6681
▁employee	-11.6683
▁trains	-11.6695
▁watching	-11.67
▁expulsion	-11.6701
▁Rwanda	-11.6701
▁extremism	-11.6701
▁pretty	-11.6701
▁readmission	-11.6701
▁countless	-11.6702
▁Everything	-11.6703
rd	-11.6708
▁proceeding	-11.6714
▁reluctant	-11.6722
lit	-11.6723
▁fathers	-11.6733
tern	-11.6735
▁voiced	-11.6737
▁Jacques	-11.6742
▁legislature	-11.6742
▁executions	-11.6751
▁realize	-11.6756
▁counterparts	-11.6756
▁misuse	-11.6758
▁2011.	-11.6763
5-04	-11.6763
▁expects	-11.6764
▁CE	-11.6765
▁coin	-11.6768
▁Air	-11.6772
):	-11.6776
▁mu	-11.6781
▁dreadful	-11.6783
▁indicative	-11.6783
▁interaction	-11.6784
▁mad	-11.6785
▁insisting	-11.6785
▁questionable	-11.6785
ker	-11.6788
og	-11.679
▁condolences	-11.6791
▁Algerian	-11.6792
▁el	-11.6792
.5%	-11.6799
sighted	-11.6802
▁commodity	-11.6804
▁eligibility	-11.6804
▁lagging	-11.6804
▁supportive	-11.6808
▁denying	-11.681
▁embryos	-11.6818
▁Florence	-11.6824
▁Which	-11.6824
▁incorporation	-11.6824
▁responsibly	-11.6824
▁forecast	-11.6828
mouth	-11.6838
▁Delegation	-11.6845
▁standpoint	-11.6846
▁persecuted	-11.6848
▁Independent	-11.6851
▁specialised	-11.6855
▁damages	-11.6856
minute	-11.6858
▁unusual	-11.686
▁honestly	-11.6864
▁Church	-11.6866
▁Kurds	-11.6866
▁methodology	-11.6867
▁preferable	-11.687
▁premium	-11.687
ifying	-11.6871
▁fly	-11.6875
▁Serbs	-11.6876
▁Ri	-11.6878
▁desperate	-11.6881
▁appeals	-11.6881
▁cotton	-11.6887
▁horror	-11.6887
▁secular	-11.6887
▁leap	-11.6887
▁passage	-11.6889
▁perpetrated	-11.689
▁council	-11.6891
▁donation	-11.6892
tes	-11.6896
▁grasp	-11.6899
SL	-11.69
▁pieces	-11.6907
▁excluding	-11.6907
▁na	-11.6909
▁antibiotics	-11.6909
▁bombs	-11.6923
▁2015	-11.6926
▁heat	-11.6926
▁discretion	-11.6928
▁embark	-11.6929
▁duplication	-11.6929
▁shop	-11.6941
▁unequivocal	-11.6944
▁intra	-11.6947
▁2013.	-11.6948
▁Technology	-11.6949
▁Bay	-11.6958
▁Pen	-11.696
▁fe	-11.6963
▁gl	-11.6965
▁trip	-11.6965
▁Cross	-11.697
▁worries	-11.697
▁biometric	-11.697
▁bitter	-11.6972
▁hospitals	-11.6974
▁possession	-11.6974
▁blocks	-11.6976
▁nowhere	-11.6978
▁collectively	-11.6981
▁turns	-11.6984
▁lastly	-11.6984
▁elect	-11.6985
▁Ethiopia	-11.6987
▁slight	-11.6989
▁Sharon	-11.6991
▁remuneration	-11.6991
▁milestone	-11.6991
▁understands	-11.6991
50	-11.6993
▁opted	-11.6997
its	-11.7007
▁concentrating	-11.7012
▁slogan	-11.7012
▁stamp	-11.7012
▁ballot	-11.7013
▁weakening	-11.7014
air	-11.7017
case	-11.7018
▁cite	-11.7029
▁Moroccan	-11.7033
▁earliest	-11.7033
▁occurrence	-11.7033
▁outlook	-11.7033
▁Management	-11.7033
▁illustrate	-11.7034
▁remembered	-11.7035
▁lending	-11.7035
▁designated	-11.7037
▁accord	-11.7039
▁migrant	-11.7039
trade	-11.7039
We	-11.7045
▁distinguished	-11.7047
intensive	-11.7047
▁List	-11.7048
▁qua	-11.7054
▁harmony	-11.7055
▁overseas	-11.7055
▁blackmail	-11.7055
▁peacekeeping	-11.7057
▁roles	-11.7057
ah	-11.7058
▁pages	-11.7061
▁shocked	-11.7063
▁tri	-11.7066
▁regulators	-11.7067
▁symbols	-11.7071
atory	-11.7071
▁flooding	-11.7072
▁Burundi	-11.7076
▁dissemination	-11.7076
▁engineering	-11.7079
▁deleted	-11.7081
▁prop	-11.7084
▁somehow	-11.7089
▁lobbying	-11.7092
▁labels	-11.7094
▁Bangladesh	-11.7097
▁Competition	-11.7097
▁ceasefire	-11.7097
▁functional	-11.7098
▁defenders	-11.7099
aw	-11.71
▁crew	-11.7103
▁growers	-11.7103
▁shipyards	-11.7108
▁detect	-11.7109
▁reveals	-11.711
▁possess	-11.7113
▁ro	-11.7114
▁corner	-11.7118
▁factories	-11.7121
gra	-11.7122
▁visiting	-11.7125
▁annually	-11.7132
▁authorise	-11.7136
lessly	-11.714
▁shaping	-11.714
▁feet	-11.7141
▁failures	-11.7146
▁impartial	-11.716
▁prudent	-11.7161
▁Malmström	-11.7161
▁honoured	-11.7162
▁disgraceful	-11.7163
til	-11.7167
▁rush	-11.7174
▁paint	-11.7174
▁fundamentalist	-11.7176
▁vigorous	-11.7177
▁explore	-11.7177
▁Business	-11.7181
▁bo	-11.7182
▁catastrophic	-11.7182
▁facilitation	-11.7182
▁harvest	-11.7182
▁somebody	-11.7182
▁mortality	-11.7183
▁Annan	-11.7183
▁consist	-11.719
▁refuses	-11.7191
▁electrical	-11.7193
▁accede	-11.7199
▁thematic	-11.72
▁revising	-11.7204
▁box	-11.7206
▁boosting	-11.7207
▁tighten	-11.7208
▁abused	-11.7214
▁52	-11.7218
▁bought	-11.7225
▁neglect	-11.7226
▁colonial	-11.7228
▁engines	-11.7236
RE	-11.7237
▁hamper	-11.7238
▁themes	-11.7239
▁sudden	-11.7241
▁councils	-11.7243
▁frame	-11.7243
▁David	-11.7247
▁McCreevy	-11.7247
▁levy	-11.7247
▁regrettably	-11.7247
▁Children	-11.7247
▁Qu	-11.7248
nce	-11.725
▁resident	-11.7255
Community	-11.7261
▁director	-11.7263
▁upper	-11.7263
▁packages	-11.7266
▁struggling	-11.7268
▁extremists	-11.7272
▁charging	-11.729
▁equitable	-11.729
▁stimulus	-11.729
▁mediation	-11.7293
▁tied	-11.7293
▁square	-11.7299
1%	-11.73
ik	-11.7305
▁collecting	-11.7306
18	-11.7307
▁drift	-11.7312
▁unreasonable	-11.7312
▁childcare	-11.7312
▁contaminated	-11.7313
▁shorter	-11.7318
empt	-11.7319
East	-11.7326
▁connections	-11.7328
head	-11.7339
▁organisational	-11.7343
▁va	-11.7344
▁polluter	-11.7345
democratic	-11.7348
▁arena	-11.7354
tle	-11.7355
▁verification	-11.7355
▁classified	-11.7356
▁capability	-11.7356
▁updating	-11.7359
▁beg	-11.7363
▁reveal	-11.7365
▁ring	-11.7365
jo	-11.7367
▁authoritarian	-11.737
▁penalise	-11.7373
▁None	-11.7375
▁Dimension	-11.7377
▁inconsistent	-11.7377
▁seminar	-11.7377
▁unlawful	-11.7377
▁institute	-11.738
▁forgive	-11.7382
]	-11.7385
▁favoured	-11.7386
ivity	-11.7387
ctor	-11.7389
▁Take	-11.7394
▁Fontaine	-11.7399
▁cancellation	-11.7399
▁investigating	-11.7399
▁weakest	-11.7402
▁warnings	-11.7404
▁ball	-11.7409
▁Bi	-11.7411
▁refuge	-11.7416
▁performed	-11.7419
▁invasion	-11.7421
▁tragedies	-11.7421
▁hesitate	-11.7421
▁forming	-11.7422
▁visitors	-11.7423
cha	-11.7424
▁plea	-11.7429
▁?	-11.743
▁protective	-11.7433
▁commendable	-11.7446
▁reacted	-11.7449
▁hostage	-11.7453
AIDS	-11.7457
▁LIFE	-11.7465
▁Poverty	-11.7465
▁WHO	-11.7465
▁congestion	-11.7465
▁poison	-11.7465
aside	-11.7465
▁grand	-11.7466
▁religions	-11.747
▁disgrace	-11.7485
▁Wogau	-11.7487
▁Yemen	-11.7487
▁choosing	-11.7487
▁engaging	-11.7487
▁nonsense	-11.7487
▁nowadays	-11.7487
▁inspiration	-11.7487
▁transferr	-11.7487
▁sacrifice	-11.7491
▁resolutely	-11.7491
▁vaccines	-11.7492
▁approached	-11.7492
▁predecessor	-11.7496
▁lesser	-11.7498
▁checking	-11.75
▁IV	-11.7502
▁reflecting	-11.7503
mail	-11.7504
▁Bonino	-11.7509
▁tuberculosis	-11.7509
▁instructions	-11.7511
▁1996.	-11.7513
▁breeding	-11.7514
▁father	-11.7519
▁influenced	-11.7519
track	-11.7525
▁Merkel	-11.7531
▁divorce	-11.7531
▁reciprocal	-11.7531
ö	-11.7531
▁misery	-11.7531
▁wheel	-11.7533
put	-11.7538
▁Cypriots	-11.7541
▁Lithuanian	-11.7548
pol	-11.755
▁sorts	-11.7553
oli	-11.7553
▁endanger	-11.7555
▁realisation	-11.7555
▁onwards	-11.7556
▁contracting	-11.7559
▁attending	-11.7564
part	-11.7566
▁Red	-11.7567
▁Seville	-11.7576
▁Obama	-11.7576
▁craft	-11.7577
▁lifestyle	-11.7578
can	-11.7581
▁traditionally	-11.759
▁devise	-11.7593
▁limitation	-11.7597
▁González	-11.7598
▁chamber	-11.7598
▁feasibility	-11.7598
press	-11.7598
▁supposedly	-11.7598
▁brand	-11.7599
▁experiments	-11.7605
decision	-11.7612
financing	-11.7612
ica	-11.7615
▁Sir	-11.7618
▁Delors	-11.7621
▁college	-11.7621
▁controversy	-11.7621
▁75%	-11.7621
▁neutrality	-11.7622
▁Georgian	-11.7625
lk	-11.7628
▁advised	-11.763
water	-11.7635
▁adds	-11.7637
ski	-11.7637
with	-11.7637
life	-11.7642
▁interconnection	-11.7643
▁foreseen	-11.7645
▁Rio	-11.7646
▁rarely	-11.7654
ast	-11.7656
▁gear	-11.7657
▁Fi	-11.7662
▁eleven	-11.7664
▁Medina	-11.7665
▁enemy	-11.7665
▁breakdown	-11.7666
▁Egyptian	-11.7667
▁51	-11.7669
▁preconditions	-11.767
▁arrests	-11.7673
ying	-11.7676
BG	-11.7677
▁cell	-11.7677
▁ultra	-11.7688
▁qualify	-11.7688
▁biomass	-11.7688
▁capture	-11.7688
gel	-11.7691
▁personality	-11.7701
▁dollars	-11.7703
▁Mon	-11.7705
▁Nepal	-11.7711
▁Cox	-11.7712
▁resignation	-11.7712
▁clubs	-11.7712
TA	-11.7713
▁factory	-11.7716
EN	-11.7721
▁student	-11.7722
yn	-11.7723
▁shock	-11.7724
▁offset	-11.7725
▁privileges	-11.7726
▁prioritise	-11.7728
▁engine	-11.7728
▁Azores	-11.7733
▁novel	-11.7733
▁uncontrolled	-11.7733
ium	-11.7742
light	-11.7744
▁overlooked	-11.7746
▁premiums	-11.7752
▁Ten	-11.7753
▁assigned	-11.7755
▁Arafat	-11.7756
▁auspices	-11.7756
▁convenience	-11.7756
▁legislator	-11.7771
▁Fe	-11.7772
ify	-11.7774
▁inhumane	-11.7781
▁negotiators	-11.7788
▁extends	-11.7789
fold	-11.7801
▁Velzen	-11.7801
▁licensing	-11.7801
▁José	-11.7801
▁slip	-11.7804
▁certificates	-11.7807
▁rebuild	-11.7812
▁villages	-11.7817
▁varied	-11.7824
▁Product	-11.7824
▁readily	-11.7825
▁starts	-11.7825
▁km	-11.7829
▁Looking	-11.7831
▁manufactured	-11.7832
▁sessions	-11.7833
▁adhered	-11.7833
▁suited	-11.7837
▁Saudi	-11.7847
▁bulk	-11.7847
▁headquarters	-11.7847
▁accorded	-11.7856
▁province	-11.7859
▁gathering	-11.7861
social	-11.7862
▁Lulling	-11.787
▁aforementioned	-11.787
▁broadband	-11.787
▁ozone	-11.787
▁149)	-11.787
▁Wall	-11.7872
▁generating	-11.7872
▁congratulated	-11.7874
▁heed	-11.7877
not	-11.7882
proliferation	-11.7885
ari	-11.7892
▁Belgrade	-11.7893
▁Jordan	-11.7893
▁abstention	-11.7893
▁arguing	-11.7893
▁atrocities	-11.7893
▁measuring	-11.7893
take	-11.7893
▁Governments	-11.7905
▁headings	-11.791
▁unconditional	-11.7911
9%	-11.7911
▁mar	-11.7914
▁2000/	-11.7915
▁Countries	-11.7916
▁Mandelson	-11.7916
▁injuries	-11.7916
▁rectify	-11.7916
▁allocating	-11.7916
▁53	-11.7918
▁Equally	-11.7924
▁displayed	-11.7932
▁defines	-11.7933
/2008	-11.7934
▁games	-11.7939
▁Voting	-11.7939
▁cluster	-11.7939
▁fragmentation	-11.7939
▁labelled	-11.794
▁credits	-11.7951
▁decisively	-11.7951
▁Applause	-11.7952
▁calculation	-11.7952
▁Tunisian	-11.7953
▁Certain	-11.7957
▁employer	-11.7957
▁Galicia	-11.7957
▁Prestige	-11.7962
▁Tribunal	-11.7962
▁combining	-11.7962
▁decree	-11.7962
▁evasion	-11.7962
▁harmonious	-11.7962
▁verdict	-11.7962
▁flat	-11.7963
▁entrusted	-11.7967
▁desperately	-11.7968
▁alia	-11.797
ert	-11.7972
▁fostering	-11.7972
7-0	-11.7975
▁deprive	-11.7981
▁54	-11.7983
▁landfill	-11.7985
▁Byrne	-11.7985
▁Uzbekistan	-11.7985
▁statutory	-11.7985
▁fan	-11.7987
▁fulfilment	-11.7989
▁reinforcement	-11.799
▁disruption	-11.7992
efficient	-11.7994
▁adopts	-11.7994
▁smoothly	-11.7995
▁finalised	-11.7998
first	-11.8001
▁dynamism	-11.8009
▁fifty	-11.8009
▁temperature	-11.8009
▁Life	-11.8009
▁Recently	-11.8014
fu	-11.8015
rum	-11.8016
▁rose	-11.8017
▁Post	-11.8022
▁birds	-11.8022
▁colour	-11.8024
▁revenues	-11.8025
hen	-11.8029
▁counts	-11.803
▁Society	-11.8032
▁obsolete	-11.8032
▁temporarily	-11.8032
▁eating	-11.8033
ey	-11.8034
▁besides	-11.8034
▁illnesses	-11.8034
ple	-11.8035
IC	-11.8036
▁exploiting	-11.8044
▁nets	-11.8047
compliance	-11.8048
omic	-11.805
▁Mauritania	-11.8052
▁Cologne	-11.8055
▁Mulder	-11.8055
▁Prosecutor	-11.8055
▁arriving	-11.8055
▁petrol	-11.8055
▁unjust	-11.8056
▁conformity	-11.8057
INI	-11.8063
development	-11.8071
ath	-11.8072
▁1.5	-11.8073
▁referenda	-11.8079
▁speculative	-11.8079
lar	-11.808
▁upset	-11.8081
GA	-11.8084
▁specifications	-11.8086
▁basin	-11.8087
▁successor	-11.8094
new	-11.8096
▁glass	-11.8102
▁Overall	-11.8103
▁EPP	-11.8104
▁deeds	-11.8104
▁interpreters	-11.8105
▁Ste	-11.8107
▁boat	-11.8109
▁Dell	-11.8111
▁correction	-11.8112
);	-11.8116
▁locally	-11.8119
▁trace	-11.812
è	-11.8126
▁influx	-11.8126
▁synergies	-11.8126
▁Kenya	-11.8126
▁tongue	-11.8126
▁dwell	-11.8126
▁admittedly	-11.8134
▁reminder	-11.8134
eep	-11.814
food	-11.8142
lon	-11.8143
▁manufacturer	-11.8144
▁acquisition	-11.815
▁don	-11.8152
hood	-11.8153
▁expectation	-11.8156
▁worsening	-11.8156
▁sheet	-11.8158
▁pollutants	-11.817
▁GNP	-11.8173
▁García	-11.8173
▁Something	-11.8173
▁reimbursement	-11.8173
▁blockade	-11.8173
▁renew	-11.8174
market	-11.8175
▁spheres	-11.818
▁civilised	-11.8183
▁130	-11.8184
▁cleaner	-11.8185
▁ECR	-11.8186
▁operator	-11.8189
▁objectively	-11.819
▁warned	-11.819
▁stretch	-11.8195
▁backdrop	-11.8197
▁beneficiary	-11.8197
▁passports	-11.8199
▁constructively	-11.8205
5/	-11.8206
▁loopholes	-11.8209
▁documentation	-11.8212
▁connect	-11.8216
tter	-11.8216
five	-11.822
▁legacy	-11.822
▁modulation	-11.822
▁Currently	-11.8223
▁Lama	-11.8225
▁unequivocally	-11.8227
▁emotional	-11.8231
▁invent	-11.8234
▁prerogatives	-11.8235
▁speeding	-11.8237
▁quiet	-11.8239
6-00	-11.824
▁concur	-11.8242
▁municipal	-11.8244
▁Chechen	-11.8244
▁Oostlander	-11.8244
▁gift	-11.8244
vert	-11.8259
▁Ge	-11.8267
▁cynical	-11.8268
▁Rothley	-11.8268
▁traders	-11.8269
▁executed	-11.827
▁Canary	-11.8271
▁fragmented	-11.8271
▁protects	-11.8278
keeping	-11.8282
In	-11.8283
▁evidently	-11.8287
▁Tomorrow	-11.8292
▁unchanged	-11.8292
▁socialists	-11.8292
▁winter	-11.8293
▁associate	-11.8294
▁Langen	-11.8295
▁images	-11.8295
▁younger	-11.8303
▁reservation	-11.8309
▁eventual	-11.8311
▁experiment	-11.8313
▁pandemic	-11.8316
▁construct	-11.8318
▁nationalist	-11.8322
▁rain	-11.8323
lli	-11.8326
▁relocations	-11.8332
▁assertion	-11.8332
▁agri	-11.834
▁slightest	-11.8341
▁polluting	-11.8341
▁condemns	-11.8345
▁dictatorships	-11.8347
▁Fourth	-11.836
▁fed	-11.8361
▁Kar	-11.8364
▁Evans	-11.8364
▁nomination	-11.8364
▁diesel	-11.8364
▁Sudanese	-11.8364
▁profitability	-11.8365
▁studying	-11.8365
▁2001/	-11.8375
▁deploy	-11.8379
▁chief	-11.8383
wo	-11.8383
▁fl	-11.8385
▁strain	-11.8385
▁Coelho	-11.8388
▁Official	-11.8388
▁lapse	-11.8388
▁outrageous	-11.8389
▁exhaustive	-11.8389
▁dropped	-11.8389
handed	-11.8392
▁skilled	-11.8397
▁improves	-11.8399
▁steer	-11.8401
▁file	-11.8401
▁shed	-11.8403
▁practise	-11.8407
▁safely	-11.841
▁CIA	-11.8413
▁Cardiff	-11.8413
▁superfluous	-11.8413
▁precious	-11.8413
▁amounting	-11.8423
▁machine	-11.843
▁Measures	-11.8437
ulation	-11.8444
▁automotive	-11.8461
▁malaria	-11.8461
▁reaches	-11.8462
▁fat	-11.8463
risk	-11.8468
cide	-11.8475
▁immigrant	-11.848
▁Fifth	-11.848
▁thresholds	-11.8484
Behrendt	-11.8486
▁Aviation	-11.8486
▁Supervisor	-11.8486
▁juncture	-11.8486
▁Combat	-11.8486
▁11.30	-11.8486
tive	-11.8486
▁edge	-11.8486
▁foreseeable	-11.8487
▁incineration	-11.8487
▁sand	-11.8491
producing	-11.8502
▁56	-11.8506
▁Bourlanges	-11.851
▁Nielson	-11.851
▁interview	-11.851
▁manifest	-11.8513
▁discriminated	-11.8515
itarian	-11.8515
▁85	-11.8517
▁modify	-11.8522
evident	-11.8527
nk	-11.8529
▁cohesive	-11.8535
▁corresponds	-11.8535
▁IT	-11.8535
▁Nobel	-11.8536
some	-11.8537
round	-11.8538
len	-11.8541
▁gathered	-11.8545
▁emphasized	-11.8548
▁respectively	-11.8553
▁unwilling	-11.8558
▁Technological	-11.8559
▁troika	-11.8559
▁undesirable	-11.8559
▁Inquiry	-11.8559
▁Kyi	-11.8559
▁endless	-11.856
▁beliefs	-11.856
dge	-11.856
▁hearts	-11.8561
▁hedge	-11.8564
▁Too	-11.8566
▁season	-11.8566
▁cigarettes	-11.8567
▁west	-11.8569
▁urges	-11.857
▁sittings	-11.8576
▁Wales	-11.8584
▁demonstrators	-11.8584
▁dilemma	-11.8584
▁vacuum	-11.8584
cor	-11.8585
FO	-11.8585
▁liquidity	-11.8585
▁insistence	-11.8585
▁modifications	-11.8586
fin	-11.8589
▁continuously	-11.8594
▁endorses	-11.8595
▁aspire	-11.8595
▁odd	-11.8603
▁destructive	-11.8608
▁dioxin	-11.8608
▁dealings	-11.8615
▁cur	-11.8617
▁reads	-11.8623
▁fur	-11.8627
▁marriage	-11.8628
cut	-11.8631
▁withdrawing	-11.8631
▁extraordinarily	-11.8633
▁spiral	-11.8633
▁shot	-11.8633
▁conflicting	-11.8636
wer	-11.8637
▁performing	-11.864
▁Indonesian	-11.864
▁reminding	-11.8641
▁forwarded	-11.8651
▁0	-11.8654
▁foresee	-11.8655
▁Sierra	-11.8658
▁boycott	-11.8658
▁giant	-11.8658
▁coincidence	-11.8658
▁Karas	-11.8659
▁penalised	-11.8664
▁tolerated	-11.8667
▁habits	-11.8669
▁principally	-11.8672
▁feeding	-11.8677
▁confuse	-11.8678
▁massacre	-11.8678
▁department	-11.8679
▁Valencia	-11.8683
▁contravene	-11.8683
▁intimidation	-11.8683
▁Former	-11.8689
set	-11.8691
▁Pat	-11.8693
lex	-11.8698
No	-11.87
▁explains	-11.8702
200	-11.8703
▁Ti	-11.8706
▁liquid	-11.8707
▁Category	-11.8708
▁hesitation	-11.8708
▁literally	-11.8708
▁breath	-11.8713
▁cited	-11.8714
▁afforded	-11.8718
▁accurately	-11.8722
▁ideals	-11.8722
▁pledge	-11.8723
▁extremist	-11.8729
▁characteristic	-11.8729
▁Du	-11.873
▁seed	-11.8732
▁subordinate	-11.8733
ez	-11.8734
OS	-11.8734
▁Armenian	-11.8742
▁trigger	-11.8749
political	-11.875
▁rulings	-11.8758
▁Schreyer	-11.8758
▁motivation	-11.8758
▁rethink	-11.8759
ude	-11.876
▁reap	-11.8764
▁corporations	-11.8765
▁enjoys	-11.8782
▁Dialogue	-11.8783
▁addiction	-11.8783
▁redistribution	-11.8783
▁securities	-11.8783
▁sulphur	-11.8783
▁Castro	-11.8783
▁1970	-11.8783
▁format	-11.8785
▁Ben	-11.8785
▁modernising	-11.8786
▁odds	-11.8788
▁gold	-11.8789
▁parental	-11.8789
▁Th	-11.8801
▁chaired	-11.8802
▁exacerbate	-11.8803
annual	-11.8805
ü	-11.8808
▁Dalai	-11.8808
▁escalation	-11.8808
▁overdue	-11.8808
▁talent	-11.8808
▁Man	-11.8811
▁holdings	-11.8814
▁Tra	-11.8818
▁named	-11.8819
▁Inter	-11.8819
balanced	-11.883
▁infected	-11.8833
▁friendship	-11.8834
▁Data	-11.8834
▁buses	-11.8836
▁ceilings	-11.8839
ily	-11.8844
▁poll	-11.8847
▁Ban	-11.8855
▁inventions	-11.8855
▁Ankara	-11.8859
▁ECOFIN	-11.8859
▁traffickers	-11.8859
▁district	-11.8859
lessness	-11.8859
95	-11.8859
▁Suu	-11.886
▁liberalising	-11.886
▁Bear	-11.8863
▁rein	-11.8865
▁accelerated	-11.8866
▁Juncker	-11.8884
▁UCLAF	-11.8884
▁yourselves	-11.8884
▁insight	-11.8887
▁accomplished	-11.8892
▁drink	-11.8894
▁wondering	-11.8896
▁renewables	-11.8899
▁continents	-11.8903
ON	-11.8904
▁discriminate	-11.8904
▁Recent	-11.8905
▁Bösch	-11.891
▁Florenz	-11.891
▁Secretariat	-11.891
▁Sustainable	-11.891
▁Basel	-11.891
▁justifies	-11.8915
nov	-11.8916
▁versions	-11.8917
▁freeze	-11.8917
▁reduces	-11.8919
raising	-11.8921
▁Che	-11.8926
commerce	-11.8927
▁wrongly	-11.8933
▁Uganda	-11.8935
▁Ultimately	-11.8935
▁ambiguous	-11.8935
▁explosive	-11.8935
▁incumbent	-11.8935
▁cancelled	-11.8935
▁keeps	-11.8939
▁balances	-11.8939
taking	-11.8954
▁virtual	-11.8955
▁transpose	-11.8956
▁equip	-11.896
▁Incidentally	-11.8961
▁Ortega	-11.8961
▁SWIFT	-11.8961
▁observing	-11.8961
▁stupid	-11.8961
▁lowering	-11.8966
▁landing	-11.8966
▁heating	-11.8976
▁Ru	-11.898
▁pat	-11.8981
▁specialists	-11.8982
▁directors	-11.8984
▁norms	-11.8984
19	-11.8984
uch	-11.8986
▁exchanging	-11.8986
▁generic	-11.8986
▁comprehensible	-11.9
▁club	-11.901
▁slave	-11.9012
▁Faced	-11.9012
▁incomplete	-11.9012
▁synergy	-11.9012
▁populated	-11.9014
▁delegated	-11.9016
▁describes	-11.902
DP	-11.9022
cra	-11.9024
aging	-11.903
financial	-11.903
▁trap	-11.9036
▁Temporary	-11.9038
▁asbestos	-11.9038
▁envoy	-11.9038
▁frozen	-11.9038
▁incidence	-11.9038
▁Athens	-11.9038
▁decoupling	-11.9038
▁imposes	-11.9039
▁fix	-11.9043
▁abandoning	-11.9043
▁beforehand	-11.9044
▁murders	-11.9046
▁summarise	-11.9059
rat	-11.906
▁bonds	-11.9061
▁inspire	-11.9061
▁quest	-11.9063
▁Canadian	-11.9064
▁tsunami	-11.9064
▁unexpected	-11.9064
▁arose	-11.9064
▁republic	-11.9065
▁profoundly	-11.9076
▁grips	-11.9078
ery	-11.908
▁Nabucco	-11.909
▁commodities	-11.909
▁dividing	-11.909
▁mitigate	-11.909
▁revive	-11.909
▁surrender	-11.909
▁famine	-11.909
▁Unlike	-11.909
like	-11.9092
▁Aung	-11.9093
▁backward	-11.9098
uck	-11.9101
▁relatives	-11.9105
plan	-11.9105
▁undergoing	-11.9106
▁peacefully	-11.911
▁ecosystem	-11.9114
▁Chapter	-11.9115
Plath	-11.9115
▁pertain	-11.9119
Herzegovina	-11.9134
▁encompass	-11.9134
ini	-11.9137
▁Sal	-11.9139
▁Randzio	-11.9142
▁acknowledging	-11.9142
▁circumvent	-11.9142
▁enforcing	-11.9142
▁routine	-11.9142
▁tribunal	-11.9142
▁frequency	-11.9142
ered	-11.9143
▁Tri	-11.9147
gy	-11.9155
▁solar	-11.9158
▁altered	-11.9161
▁ancient	-11.9168
▁churches	-11.9169
▁moments	-11.9171
AC	-11.9175
hr	-11.9176
▁operated	-11.918
▁reaffirmed	-11.9187
▁liberalise	-11.9191
▁manipulation	-11.9194
▁memorandum	-11.9194
▁observance	-11.9194
Ivoire	-11.9194
▁insists	-11.9203
fish	-11.9207
▁circles	-11.9208
▁reasoning	-11.9211
ret	-11.9213
▁varying	-11.9214
21	-11.9219
▁Daphne	-11.922
▁Guatemala	-11.922
▁unaware	-11.922
▁conferred	-11.922
▁overrid	-11.922
04	-11.9221
▁leg	-11.9229
▁Ford	-11.923
ney	-11.9238
▁supplemented	-11.9239
▁assisted	-11.9239
▁proportions	-11.9245
▁Rübig	-11.9246
▁satisfactorily	-11.9246
▁mini	-11.9247
▁stopping	-11.9249
▁liberalised	-11.9253
▁ally	-11.9259
▁electric	-11.9259
▁shortages	-11.9262
ethnic	-11.9265
▁hectares	-11.9266
▁Ja	-11.9267
▁shops	-11.9267
▁confidential	-11.9273
▁Amnesty	-11.9273
▁Likewise	-11.9273
▁Presidencies	-11.9273
▁varies	-11.9273
▁Herman	-11.9277
▁exacerbated	-11.9278
▁calculations	-11.9284
▁responds	-11.9286
elected	-11.9292
ER	-11.9294
▁Wynn	-11.9299
▁illicit	-11.9299
▁twin	-11.93
▁retaining	-11.9306
▁distorted	-11.9313
growing	-11.9318
▁blatant	-11.932
▁recommending	-11.9324
▁Six	-11.9325
▁unstable	-11.9326
14	-11.933
▁paradoxical	-11.933
▁Har	-11.9331
▁convert	-11.9332
▁questioned	-11.9334
▁impacts	-11.9335
▁usefulness	-11.9337
▁publicity	-11.9344
▁recipients	-11.9351
▁regrets	-11.9352
stitut	-11.9352
▁chicken	-11.9352
▁fraudulent	-11.9352
▁curious	-11.9353
▁bone	-11.9363
▁du	-11.9369
▁screen	-11.9369
▁Albanians	-11.9371
▁Croatian	-11.9376
▁Radical	-11.9379
▁elaborate	-11.9379
▁mutilation	-11.9379
▁Prevention	-11.9379
▁termed	-11.9381
▁metres	-11.9382
▁cry	-11.9382
▁Maybe	-11.9383
▁Force	-11.9391
▁premises	-11.9392
▁58	-11.9401
▁iron	-11.9405
▁Chirac	-11.9406
▁Sterckx	-11.9406
IS	-11.9416
▁persuaded	-11.9419
▁Adam	-11.9419
▁films	-11.9422
▁2014	-11.9424
▁fortunate	-11.9427
ala	-11.9431
▁strand	-11.9433
▁Dimas	-11.9433
▁taste	-11.9433
▁Staff	-11.9433
▁chairmen	-11.9433
▁outrage	-11.9435
▁upholding	-11.9438
▁2012.	-11.944
▁downward	-11.9445
▁adjusted	-11.9447
▁hi	-11.9448
17	-11.9449
▁knock	-11.9459
▁Cha	-11.946
▁maize	-11.946
▁recipient	-11.9461
▁referral	-11.9461
▁practised	-11.9465
▁devised	-11.9466
val	-11.9482
COS	-11.9486
▁anxiety	-11.9486
▁discrepancies	-11.9486
▁unnecessarily	-11.9486
▁illusion	-11.9488
▁para	-11.9495
▁endeavouring	-11.9498
step	-11.9498
▁relying	-11.95
▁Par	-11.9504
▁administer	-11.9505
▁enthusiastic	-11.9506
▁Bu	-11.9507
▁closest	-11.9508
rating	-11.951
sceptic	-11.9511
▁Lebanese	-11.9513
▁tendencies	-11.9513
▁racial	-11.9513
▁Lord	-11.9514
▁rice	-11.9514
▁household	-11.9515
▁cat	-11.9518
▁Bali	-11.9536
▁City	-11.954
▁Côte	-11.9541
▁exciting	-11.9541
▁explosion	-11.9541
▁undertook	-11.9541
▁grey	-11.9541
▁assassination	-11.9543
▁output	-11.9554
▁prompted	-11.956
parliamentary	-11.956
▁broaden	-11.956
upreme	-11.9563
▁Kazakhstan	-11.9568
▁Ossetia	-11.9568
▁advisable	-11.9568
▁Cashman	-11.9568
thirds	-11.9569
▁2050	-11.9569
▁publishing	-11.9572
▁seventh	-11.9576
▁corridors	-11.9579
far	-11.9587
▁Seattle	-11.9595
▁celebration	-11.9595
▁pregnant	-11.9595
▁travellers	-11.9595
▁timeframe	-11.9598
ane	-11.9598
▁dragg	-11.9599
▁sky	-11.9599
▁norm	-11.961
▁Berès	-11.9622
▁barbaric	-11.9622
▁unsustainable	-11.9623
▁importing	-11.9625
je	-11.9629
▁foreigners	-11.963
cycle	-11.9642
▁diversify	-11.965
▁unavoidable	-11.965
▁honey	-11.965
▁Vigo	-11.965
▁combated	-11.9652
▁inhuman	-11.9653
▁originating	-11.9654
▁notified	-11.9661
▁Tu	-11.9663
2002	-11.9672
tabilisation	-11.9672
16	-11.9674
ransatlantic	-11.9677
▁Singapore	-11.9677
▁shipowners	-11.9677
▁transmitted	-11.9677
▁Gra	-11.9679
▁Peter	-11.968
▁differentiated	-11.968
▁Greenland	-11.968
▁recast	-11.968
▁overturn	-11.9683
bar	-11.9691
▁tightening	-11.9693
▁resolute	-11.9699
▁summ	-11.9699
▁Eritrea	-11.9705
▁Transparency	-11.9705
▁celebrating	-11.9705
▁detainees	-11.9705
▁hierarchy	-11.9705
▁justifiable	-11.9705
▁signatories	-11.9705
▁Thailand	-11.9705
▁flagrant	-11.9705
▁Cup	-11.9706
▁unreservedly	-11.9706
▁distress	-11.9706
▁pretend	-11.972
▁intensified	-11.9732
▁shelter	-11.9732
▁Rocard	-11.9732
▁deplorable	-11.9733
▁Movement	-11.9733
▁plight	-11.9734
▁57	-11.9736
▁underestimated	-11.974
▁Arabia	-11.9742
▁Others	-11.9742
▁soul	-11.9743
specific	-11.9752
▁consume	-11.9753
▁exceeding	-11.9756
▁repatriation	-11.976
▁indicator	-11.9764
▁targeting	-11.9765
cher	-11.9766
▁110	-11.9766
▁widening	-11.9771
▁absorb	-11.9771
liness	-11.9773
▁oblige	-11.9787
▁Verhofstadt	-11.9788
▁Titley	-11.979
established	-11.9792
▁Paul	-11.9798
▁63	-11.9801
▁households	-11.9814
▁skill	-11.9814
▁Admittedly	-11.9816
▁Fifteen	-11.9816
▁optimum	-11.9816
▁Capital	-11.9816
▁angle	-11.9818
▁turnover	-11.9819
▁Ver	-11.9822
lat	-11.9822
▁phone	-11.9823
▁designation	-11.9824
▁inefficient	-11.9824
▁hunting	-11.9826
▁appealing	-11.9827
▁useless	-11.9829
ches	-11.983
▁recitals	-11.9833
▁recalled	-11.9836
Nordic	-11.9836
▁Min	-11.9839
▁supplying	-11.9841
ically	-11.9841
▁scrap	-11.9843
▁rooted	-11.9843
▁Kashmir	-11.9844
▁Sky	-11.9844
▁mature	-11.9844
▁tends	-11.9844
▁depleted	-11.9844
▁bargaining	-11.9848
▁realism	-11.9849
style	-11.985
▁illustrated	-11.985
▁commun	-11.9854
▁utter	-11.9866
▁expressions	-11.9867
▁dozens	-11.9868
▁Abkhazia	-11.9872
▁Blokland	-11.9872
▁drastically	-11.9872
▁Region	-11.9873
▁emerges	-11.9878
ene	-11.9889
▁similarly	-11.9895
pen	-11.9895
▁Gil	-11.9899
▁resumption	-11.99
▁bankruptcy	-11.99
▁takeover	-11.99
▁convicted	-11.9901
▁patterns	-11.9903
▁defer	-11.9903
▁touches	-11.9905
▁winner	-11.9908
▁tougher	-11.9909
▁protocols	-11.991
ency	-11.991
▁separated	-11.9915
▁rebuilding	-11.9918
▁accomplish	-11.992
▁Universal	-11.9928
▁balancing	-11.9928
▁pupils	-11.9928
▁stabilising	-11.9928
▁native	-11.9928
▁reintegration	-11.9929
▁denial	-11.9929
▁ETA	-11.9929
▁select	-11.9937
going	-11.9937
▁hole	-11.9942
▁optional	-11.9943
▁transformed	-11.9945
ean	-11.9948
▁solemn	-11.9956
▁calendar	-11.9956
▁feedingstuffs	-11.9956
▁overhaul	-11.9956
▁oversee	-11.9958
ili	-11.996
▁homeland	-11.996
▁tactics	-11.996
▁journeys	-11.9962
▁Institutions	-11.9974
(5)	-11.9977
▁Rompuy	-11.9984
▁confusing	-11.9984
▁esteem	-11.9984
▁outdated	-11.9984
▁unfounded	-11.9985
▁delaying	-11.9987
For	-11.9987
▁waterways	-11.9994
▁mobilised	-11.9995
▁measurement	-12.0002
▁supporter	-12.0005
sector	-12.0008
▁horizon	-12.0013
compensatory	-12.0013
▁Saturday	-12.0013
▁resettlement	-12.0013
▁factual	-12.0014
▁Out	-12.0016
▁surpluses	-12.0016
▁ticket	-12.0019
80	-12.0029
▁interpretations	-12.0035
▁Almunia	-12.0041
▁University	-12.0041
▁freezing	-12.0041
▁ICT	-12.0041
▁kick	-12.0042
▁discredit	-12.0042
▁Wallis	-12.0042
▁rests	-12.0043
▁cargo	-12.0043
▁pockets	-12.0048
cies	-12.005
▁importers	-12.0056
▁outcomes	-12.0062
▁nutrition	-12.0062
▁winners	-12.0065
▁Guarantee	-12.007
▁automobile	-12.007
▁criticising	-12.007
▁destined	-12.007
▁pertinent	-12.007
▁stories	-12.007
▁approximation	-12.007
bro	-12.007
▁Pri	-12.0073
dict	-12.0074
▁disturb	-12.0078
▁pig	-12.0083
▁park	-12.0083
rio	-12.0087
increasing	-12.0091
needed	-12.0091
▁Leonardo	-12.0099
▁deteriorating	-12.0099
▁uncertainties	-12.0099
▁Patent	-12.0099
▁deaf	-12.01
bre	-12.0103
bra	-12.0103
▁mode	-12.0103
▁seized	-12.0107
▁bathing	-12.0107
▁teach	-12.0111
▁rigorously	-12.0116
▁enrich	-12.0118
▁church	-12.0126
▁comfort	-12.0126
▁destiny	-12.0127
▁doctrine	-12.0127
▁expectancy	-12.0127
▁voluntarily	-12.0127
pping	-12.0127
▁attendance	-12.0129
▁democrat	-12.0133
lf	-12.0134
/3	-12.0148
▁dam	-12.015
▁Broek	-12.0156
▁complies	-12.0156
▁imagination	-12.0156
▁mortgage	-12.0156
script	-12.0158
lmost	-12.016
▁desertification	-12.0185
▁multilingualism	-12.0185
effective	-12.0186
▁Carl	-12.0196
▁phased	-12.0198
▁ratifying	-12.0202
cer	-12.0206
▁hopeful	-12.0209
▁pr	-12.0212
▁despair	-12.0214
▁policing	-12.0214
▁steady	-12.0214
▁brother	-12.0214
▁Val	-12.0214
▁Daul	-12.0215
▁exporters	-12.0217
▁originate	-12.022
▁bloody	-12.0224
▁infringe	-12.0227
▁wealthy	-12.0227
sharing	-12.0236
90	-12.0238
▁distribute	-12.0238
existent	-12.0239
onourable	-12.0243
▁Hautala	-12.0243
▁violating	-12.0243
▁Oslo	-12.0243
rop	-12.0249
▁confess	-12.0251
election	-12.0261
arm	-12.0262
iz	-12.0264
▁facilitated	-12.0265
▁forever	-12.0268
▁Sp	-12.0271
hour	-12.0272
▁Kaliningrad	-12.0272
▁Malaysia	-12.0272
▁Regrettably	-12.0272
▁equilibrium	-12.0272
▁harbour	-12.0272
▁vain	-12.0275
mber	-12.0282
▁hu	-12.0283
▁pet	-12.0285
▁toll	-12.0287
▁tickets	-12.0295
▁avail	-12.03
▁seafarers	-12.0301
▁vicious	-12.0302
▁zu	-12.0302
▁exile	-12.0303
▁subsidised	-12.0305
rry	-12.0309
▁village	-12.031
▁dossiers	-12.0312
▁degrees	-12.0315
▁attacking	-12.0316
▁filled	-12.032
▁crucially	-12.0321
▁ranging	-12.0321
▁recruit	-12.0322
which	-12.0323
▁suppose	-12.0326
del	-12.0328
▁Asylum	-12.0331
▁Lamfalussy	-12.0331
▁ambiguity	-12.0331
▁deforestation	-12.0331
▁indifferent	-12.0331
▁likelihood	-12.0331
▁pleasant	-12.0331
▁chronic	-12.0331
▁Based	-12.0331
▁missile	-12.0331
▁Nazi	-12.0333
▁suffers	-12.0333
▁undergo	-12.0336
▁pledged	-12.0337
▁scientifically	-12.0337
▁Y	-12.0339
▁customer	-12.0341
▁96	-12.0344
▁Child	-12.036
▁confirming	-12.0365
▁consisting	-12.0377
benefit	-12.0382
interest	-12.0382
private	-12.0382
▁rivers	-12.0388
▁irreversible	-12.039
▁jail	-12.039
▁impressed	-12.0392
▁differs	-12.0393
▁multilateralism	-12.0394
▁makers	-12.0398
▁questioning	-12.0405
▁paradox	-12.0414
▁Aznar	-12.0419
▁Baringdorf	-12.0419
▁Lannoye	-12.0419
▁catalogue	-12.0419
▁miracle	-12.0419
▁overnight	-12.0419
▁vigilance	-12.0419
▁Mitchell	-12.0419
▁unused	-12.042
▁historically	-12.0422
▁constituent	-12.0429
lay	-12.0434
▁reside	-12.0434
▁holders	-12.0434
▁expose	-12.0437
▁disregarded	-12.044
people	-12.0441
book	-12.0442
▁entrepreneurial	-12.0449
▁provocation	-12.0449
▁coach	-12.045
hu	-12.0451
▁stream	-12.0452
▁prescribed	-12.0453
▁Due	-12.0453
▁provider	-12.0457
▁qualification	-12.0459
▁outlines	-12.0461
▁embarked	-12.0461
▁representations	-12.0462
▁timescale	-12.0464
▁enact	-12.0471
▁lively	-12.0471
▁Germans	-12.0472
▁outright	-12.0473
Saharan	-12.0474
ique	-12.0478
▁extract	-12.0478
▁mobilising	-12.0479
▁intercultural	-12.0479
▁counteract	-12.048
▁Progressive	-12.048
▁refine	-12.048
ED	-12.0483
▁changeover	-12.0489
▁GMO	-12.049
▁4%	-12.0495
▁Leone	-12.0495
turn	-12.0496
post	-12.0503
▁scandals	-12.0507
▁Assistance	-12.0509
▁accommodation	-12.0509
▁baby	-12.0509
▁federation	-12.0509
▁influenza	-12.0509
▁mafia	-12.0509
▁qualities	-12.0509
▁scrutinise	-12.0509
▁oversight	-12.0509
▁contributors	-12.0509
09	-12.0512
▁Jan	-12.0517
▁benchmarks	-12.0523
zi	-12.0527
where	-12.0528
discriminatory	-12.0531
▁exerted	-12.0532
▁broker	-12.0532
▁GATT	-12.0539
▁Prague	-12.0539
▁catalyst	-12.0539
▁obesity	-12.0539
▁obscure	-12.0539
▁synthetic	-12.0539
▁laugh	-12.0539
▁preceded	-12.054
rid	-12.0548
▁ski	-12.0552
▁66	-12.0553
▁pool	-12.0557
▁envisages	-12.0557
▁prolong	-12.0561
12	-12.0564
▁ECSC	-12.0569
▁Leinen	-12.0569
▁denominator	-12.0569
▁impasse	-12.0569
▁spill	-12.0569
▁volatility	-12.0569
▁Senate	-12.0569
▁unrest	-12.0569
▁hostile	-12.0569
▁percent	-12.057
zy	-12.0571
▁allegedly	-12.058
▁progressively	-12.0587
riv	-12.0587
▁progressing	-12.0589
▁62	-12.0589
favoured	-12.0591
▁continental	-12.0595
▁headed	-12.0598
▁Graefe	-12.0599
▁Jewish	-12.0599
▁inadmissible	-12.0599
▁reluctance	-12.0599
▁inviting	-12.0599
▁passionate	-12.0599
▁tele	-12.06
▁grassroots	-12.0602
outs	-12.0624
▁Speaking	-12.0629
▁interfering	-12.0629
▁intervening	-12.0629
▁jeopardising	-12.0629
▁divergence	-12.0629
designate	-12.0629
using	-12.0631
▁myth	-12.0634
▁le	-12.0638
▁sounds	-12.0638
ough	-12.064
▁watered	-12.0643
▁occupy	-12.0647
▁donations	-12.0653
▁ENP	-12.0659
▁spur	-12.0659
▁composed	-12.066
▁educated	-12.0665
▁sacrificed	-12.0666
48	-12.0666
▁Needles	-12.0675
▁coasts	-12.0678
▁awarding	-12.0683
▁evaluations	-12.0684
55	-12.0686
nder	-12.0689
▁leak	-12.0689
▁Hopefully	-12.069
▁illustration	-12.069
▁inquiries	-12.069
▁Elles	-12.069
▁chiefly	-12.0696
▁staying	-12.0698
▁endorsement	-12.0699
▁cosmetics	-12.0701
▁meaningless	-12.071
▁resign	-12.0711
▁forge	-12.0715
cho	-12.0716
▁Animal	-12.072
▁ratings	-12.0725
▁quicker	-12.0728
45	-12.0731
▁killings	-12.0738
list	-12.0739
▁trees	-12.0741
▁son	-12.0742
▁enlarge	-12.0744
▁Cairo	-12.0751
▁collaborate	-12.0751
▁derivatives	-12.0751
▁intermediate	-12.0751
▁undeclared	-12.0751
▁Špidla	-12.0751
▁dry	-12.0754
▁standardised	-12.0757
▁communicated	-12.0764
▁Syrian	-12.0766
▁Am	-12.0769
24	-12.0776
▁print	-12.078
▁Violence	-12.0781
▁assault	-12.0781
▁brake	-12.0781
▁dedication	-12.0781
▁magnificent	-12.0781
▁repetition	-12.0781
▁fierce	-12.0781
▁confer	-12.0782
▁FYROM	-12.0782
▁grip	-12.0795
▁sacrifices	-12.0799
▁accompany	-12.08
▁Ki	-12.0803
▁plane	-12.0812
▁Collins	-12.0812
▁batteries	-12.0812
▁climatic	-12.0812
▁erosion	-12.0812
▁unhappy	-12.0812
▁Poles	-12.0812
▁marginalised	-12.0813
▁bull	-12.0813
▁naive	-12.0813
decentralisation	-12.0814
▁awful	-12.0814
▁occasionally	-12.0818
CO	-12.082
PS	-12.0822
▁ignores	-12.0825
▁gun	-12.0829
zo	-12.084
▁coordinators	-12.084
▁breaks	-12.0844
▁richest	-12.0847
▁noble	-12.085
▁accessing	-12.0852
▁fluctuations	-12.0856
avier	-12.0856
▁avert	-12.0857
▁tenth	-12.086
(4)	-12.0863
▁2.5	-12.0865
▁Argentina	-12.0874
▁GBP	-12.0874
▁Police	-12.0874
▁acceding	-12.0874
▁generosity	-12.0874
▁notwithstanding	-12.0874
▁relocate	-12.0874
Burton	-12.0877
▁350	-12.0878
▁consumed	-12.088
▁stored	-12.0883
/2007	-12.0887
human	-12.0895
▁arrange	-12.0899
▁salmon	-12.0905
▁Bowis	-12.0905
▁Duisenberg	-12.0905
▁Gebhardt	-12.0905
▁Racism	-12.0905
▁heartfelt	-12.0905
▁ignorance	-12.0905
▁improper	-12.0905
▁inclined	-12.0905
▁reconciling	-12.0905
▁Training	-12.0905
▁ashamed	-12.0905
▁Things	-12.0905
Various	-12.0905
▁Theato	-12.0905
▁rocket	-12.0905
▁Parties	-12.0906
▁depart	-12.0906
CA	-12.0911
▁universally	-12.0914
▁impede	-12.0917
▁alien	-12.0919
13	-12.092
▁motives	-12.0923
▁King	-12.0924
▁auction	-12.0924
dumping	-12.0929
nationalisation	-12.0931
▁Han	-12.0935
▁clash	-12.0935
▁Draft	-12.0936
▁comprising	-12.0936
▁intensity	-12.0936
▁joy	-12.0936
▁cyber	-12.0936
▁injury	-12.0936
▁Bonn	-12.0936
▁5.30	-12.0936
▁preventative	-12.0942
▁busy	-12.0942
▁parent	-12.0946
▁letting	-12.0949
▁forums	-12.095
▁NGO	-12.0951
rew	-12.0951
▁merger	-12.0952
personnel	-12.096
▁spouses	-12.0961
▁violates	-12.0966
▁Access	-12.0967
-2013	-12.0967
▁Experience	-12.0967
▁Pirker	-12.0967
▁Savary	-12.0967
▁Technical	-12.0967
▁indignation	-12.0967
▁annum	-12.0967
▁Specifically	-12.0968
▁59	-12.0969
▁abandonment	-12.0969
▁arranged	-12.0972
▁exit	-12.0974
▁Fifthly	-12.0974
▁sat	-12.0976
▁returns	-12.098
▁Hans	-12.0984
▁predicted	-12.0986
▁fulfils	-12.0989
open	-12.0997
▁transplant	-12.0997
▁Alexander	-12.0999
▁Recital	-12.0999
▁channelled	-12.0999
35	-12.1
▁authorising	-12.1001
▁midst	-12.1005
▁hugely	-12.1006
▁tankers	-12.1016
print	-12.1024
▁soya	-12.1024
▁Stalin	-12.1028
▁McKenna	-12.103
▁allotted	-12.103
▁populist	-12.103
▁taboo	-12.103
▁presume	-12.103
▁Warrant	-12.103
owned	-12.1032
▁conditionality	-12.1032
▁predictable	-12.1032
▁2015.	-12.1038
▁Opening	-12.1038
af	-12.1046
net	-12.1047
▁token	-12.1047
generation	-12.1048
but	-12.1049
▁Comp	-12.1053
gate	-12.1054
ute	-12.1055
▁conduc	-12.1056
▁Berg	-12.106
▁challenged	-12.1061
▁Fischer	-12.1062
▁variable	-12.1062
▁degradation	-12.1062
▁steadily	-12.1062
▁suffice	-12.1062
▁shopping	-12.1062
▁Eight	-12.1064
cum	-12.1065
nia	-12.1067
▁detected	-12.1074
▁capitals	-12.1077
▁supplier	-12.1077
▁guideline	-12.1078
▁origins	-12.1081
general	-12.1086
fall	-12.1088
ched	-12.1091
▁cancel	-12.1093
▁Arrest	-12.1093
▁Feira	-12.1093
▁Jackson	-12.1093
▁dignified	-12.1093
▁tantamount	-12.1093
▁Sch	-12.1093
▁Tax	-12.1094
▁conception	-12.11
▁anger	-12.1101
▁burning	-12.1102
pan	-12.1102
rant	-12.1103
▁height	-12.1104
▁upcoming	-12.1125
▁scoreboard	-12.1125
▁Zaire	-12.1125
▁fool	-12.1126
▁hydrogen	-12.1126
▁benchmark	-12.1129
▁globalization	-12.1135
▁prevails	-12.1135
▁richer	-12.1142
▁doubled	-12.1146
▁computers	-12.1151
92	-12.1155
▁allocations	-12.1155
▁mediator	-12.1156
sufficiency	-12.1157
▁Brittan	-12.1157
▁Ludford	-12.1157
▁Recommendation	-12.1157
▁emergencies	-12.1157
▁filter	-12.1157
▁upgrading	-12.1157
▁Four	-12.1157
▁Cold	-12.1164
▁doubtful	-12.1164
▁passes	-12.1169
▁wisely	-12.1173
hal	-12.1173
lla	-12.1174
▁distances	-12.1178
▁overly	-12.1186
▁trick	-12.1187
▁fantastic	-12.1189
▁identifies	-12.1189
▁identities	-12.1189
▁laudable	-12.1189
▁triumph	-12.1189
▁undeniable	-12.1189
▁unlimited	-12.1189
▁Throughout	-12.119
▁load	-12.119
▁extraction	-12.1191
▁attributed	-12.1193
▁sexes	-12.1194
▁passion	-12.1199
▁premise	-12.1206
nate	-12.1207
South	-12.1213
▁hydro	-12.1214
▁dominate	-12.1216
Alba	-12.1219
▁aftermath	-12.1221
▁devastated	-12.1221
▁postponing	-12.1221
▁starch	-12.1221
▁stuck	-12.1221
▁Mer	-12.1224
▁doubtless	-12.1225
tz	-12.1232
▁corrections	-12.1236
▁mainstream	-12.1242
▁140	-12.1244
credit	-12.1245
troductory	-12.1253
▁complementarity	-12.1253
▁remedies	-12.1253
▁scepticism	-12.1253
▁hiding	-12.1253
▁tear	-12.1258
▁aged	-12.1262
▁bypass	-12.1263
▁appearing	-12.1263
ich	-12.1268
▁fits	-12.1277
▁tortured	-12.1278
▁Along	-12.1279
▁reinforces	-12.1283
amp	-12.1283
▁dogma	-12.1285
▁Doyle	-12.1285
▁militarisation	-12.1285
▁tiny	-12.1285
▁contemporary	-12.1285
▁detection	-12.1286
27	-12.129
▁forcefully	-12.1296
▁triggered	-12.1296
▁feared	-12.1305
▁objects	-12.1309
▁habit	-12.131
▁panic	-12.131
▁lip	-12.1311
▁proportional	-12.1316
▁Between	-12.1318
▁absorption	-12.1318
▁admire	-12.1318
▁irrelevant	-12.1318
▁tropical	-12.1318
▁differentiation	-12.1318
▁Conduct	-12.1318
▁Haug	-12.1318
▁faithful	-12.1325
▁seeds	-12.1328
ks	-12.1335
▁78	-12.1338
working	-12.1343
catch	-12.1344
▁del	-12.1347
▁Competitiveness	-12.135
▁sleep	-12.135
▁contend	-12.135
▁Particularly	-12.1354
▁deter	-12.1357
▁Young	-12.1359
▁prevailed	-12.1372
▁scenarios	-12.138
▁ASEM	-12.1383
▁Eurodac	-12.1383
▁Functioning	-12.1383
▁logistics	-12.1383
▁misgivings	-12.1383
▁unsafe	-12.1383
▁Road	-12.1384
▁categorically	-12.1384
▁lawmaking	-12.1385
▁rear	-12.1387
▁systemic	-12.1395
▁contest	-12.1407
0%	-12.1409
▁databases	-12.1411
▁investor	-12.1412
ung	-12.1413
▁loyal	-12.1415
▁Nassauer	-12.1415
▁grain	-12.1415
▁68	-12.1416
▁grid	-12.1416
▁headway	-12.1417
▁Read	-12.1418
▁cons	-12.1421
▁machines	-12.1424
▁86	-12.1424
▁acknowledgement	-12.1424
▁staffing	-12.1425
▁march	-12.1427
ó	-12.1435
▁concession	-12.1435
▁61	-12.1436
▁minimis	-12.1438
▁intensively	-12.1439
paid	-12.1442
▁brilliant	-12.1448
▁describing	-12.1448
▁tempted	-12.1448
▁authentic	-12.1448
▁artistic	-12.1449
▁hotel	-12.1449
▁dictators	-12.145
▁layer	-12.1456
non	-12.1461
▁endangered	-12.1461
▁1999/	-12.147
▁67	-12.1471
gui	-12.1472
▁enjoying	-12.1478
▁Title	-12.1479
▁School	-12.1481
▁declining	-12.1481
▁motto	-12.1481
▁proximity	-12.1481
▁betray	-12.1482
▁Ε	-12.1482
▁coastline	-12.1482
▁shores	-12.1482
▁travelled	-12.1484
▁disciplinary	-12.1486
▁massacres	-12.1487
▁Ministerial	-12.1488
▁Hungarians	-12.1491
▁Forest	-12.1493
atch	-12.1495
▁fronts	-12.1498
▁hunt	-12.1502
ifies	-12.1507
▁Lange	-12.1511
speaking	-12.1511
▁couples	-12.1512
▁Tajani	-12.1514
▁indifference	-12.1514
6-02	-12.1514
▁fitting	-12.1517
▁Institutional	-12.1519
▁Us	-12.1521
▁livelihoods	-12.1522
▁surveys	-12.1524
west	-12.1525
cious	-12.1527
▁2002/	-12.1532
▁cosmetic	-12.1534
▁presently	-12.1535
▁Did	-12.1547
▁Crowley	-12.1547
▁SOLVIT	-12.1547
▁advancing	-12.1547
▁junta	-12.1547
▁Méndez	-12.1547
▁loose	-12.1547
▁timetables	-12.1549
▁Gradin	-12.1552
▁generates	-12.1552
▁platforms	-12.156
▁align	-12.1571
▁pigs	-12.1573
roots	-12.1573
▁Card	-12.1573
▁risky	-12.1574
▁dismantle	-12.1575
ibility	-12.1578
▁bankrupt	-12.158
▁gulf	-12.158
▁horrific	-12.158
▁therapeutic	-12.158
▁rebate	-12.158
▁adherence	-12.1581
▁cleansing	-12.1581
▁holidays	-12.1586
▁clients	-12.1588
▁transparently	-12.1589
▁mess	-12.1603
▁coupled	-12.1606
▁pronounce	-12.1609
▁evolve	-12.1609
▁comprises	-12.161
▁branch	-12.1612
▁deem	-12.1613
▁Ferber	-12.1614
▁backbone	-12.1614
▁miles	-12.1614
▁stir	-12.1615
▁Terrorism	-12.1615
MS	-12.1618
▁Bio	-12.1625
▁Refugees	-12.1629
▁gene	-12.1629
▁supplements	-12.1633
▁homosexuals	-12.1644
▁Basically	-12.1647
▁Lampedusa	-12.1647
▁Twenty	-12.1647
▁globe	-12.1647
▁mismanagement	-12.1647
▁2000-2006	-12.1648
iest	-12.1648
▁consultative	-12.1648
▁ensu	-12.1648
▁Level	-12.1649
▁registers	-12.1659
▁clinical	-12.1659
ón	-12.1661
▁favourably	-12.1662
▁reopen	-12.1662
▁plead	-12.1665
▁rationale	-12.167
▁ice	-12.1677
▁advantageous	-12.1685
▁compensated	-12.1694
funded	-12.1695
used	-12.1696
▁Za	-12.1706
▁Ambassador	-12.1714
▁believing	-12.1714
▁deterrent	-12.1714
▁Better	-12.1716
▁butter	-12.1721
▁der	-12.1731
▁wellbeing	-12.1732
tors	-12.1735
▁Leon	-12.1735
▁walls	-12.174
power	-12.1741
eu	-12.1742
▁maximise	-12.1743
▁Experts	-12.1748
▁Hughes	-12.1748
▁Reconstruction	-12.1748
▁concede	-12.1748
▁veal	-12.1748
▁mistrust	-12.1748
▁bail	-12.1748
▁moderation	-12.1748
▁lorry	-12.1748
▁customary	-12.1749
▁audits	-12.1751
▁shifting	-12.1765
▁polls	-12.1766
▁64	-12.1771
EE	-12.1774
▁perceive	-12.1777
▁unregulated	-12.1782
▁utilisation	-12.1782
▁trail	-12.1782
▁Mission	-12.1783
▁abundantly	-12.1784
▁88	-12.1793
▁gangs	-12.1793
▁diminish	-12.1795
▁classic	-12.1804
▁cigarette	-12.1805
Re	-12.1808
▁waterway	-12.1811
▁Helms	-12.1816
▁enemies	-12.1816
▁orphan	-12.1816
▁suppression	-12.1817
▁bridges	-12.1819
▁bordering	-12.182
▁recording	-12.1822
▁style	-12.1825
▁suspects	-12.1827
rapporteur	-12.1843
etting	-12.1844
▁ESDP	-12.185
▁Revolution	-12.185
▁achievable	-12.185
▁pregnancy	-12.185
▁situated	-12.185
▁unduly	-12.185
▁overlap	-12.185
▁crude	-12.1851
▁ranks	-12.186
▁forty	-12.1869
▁Abu	-12.1871
▁volumes	-12.1872
▁suppress	-12.1875
business	-12.1877
▁employing	-12.1884
▁fusion	-12.1885
▁militia	-12.1885
▁spark	-12.1885
▁preferably	-12.1886
▁branches	-12.1886
▁broke	-12.189
▁hardest	-12.1898
▁lag	-12.1905
▁wound	-12.191
▁levelled	-12.1914
▁answering	-12.1914
▁Flynn	-12.1919
▁civic	-12.1919
▁fingerprints	-12.1919
▁guest	-12.1919
▁subsidiary	-12.1919
▁segment	-12.1919
▁crystal	-12.1919
▁lever	-12.1919
▁Review	-12.1919
(2001)	-12.1921
type	-12.1923
▁exhausted	-12.1927
▁files	-12.1928
pass	-12.1932
defined	-12.1941
▁instrumental	-12.1942
▁Trichet	-12.1953
▁disclosure	-12.1953
▁plainly	-12.1965
▁bat	-12.1966
▁commissioned	-12.1971
▁halv	-12.1977
▁generalised	-12.1979
▁locations	-12.1981
▁breathe	-12.1981
RC	-12.1981
▁Drugs	-12.1987
▁Howitt	-12.1988
▁incorporates	-12.1989
▁winning	-12.1989
▁su	-12.1989
▁lax	-12.199
▁extensively	-12.1991
▁exhaust	-12.1991
▁homework	-12.2006
▁6%	-12.2008
atic	-12.2015
American	-12.2015
▁cows	-12.2018
▁Either	-12.2023
▁Salafranca	-12.2023
▁negligence	-12.2023
▁video	-12.2023
▁vulnerability	-12.2023
▁whoever	-12.2023
▁Order	-12.2024
▁clashes	-12.2024
mark	-12.2026
▁rolling	-12.2029
▁rank	-12.2031
▁EPAs	-12.2039
▁legitimately	-12.2042
▁flourish	-12.2045
▁earned	-12.2047
▁crews	-12.2048
▁sham	-12.2049
▁Pan	-12.2051
stay	-12.2053
š	-12.2058
▁Buitenweg	-12.2058
▁Clinton	-12.2058
▁Morillon	-12.2058
▁Strip	-12.2058
▁Turkmenistan	-12.2058
▁contemplate	-12.2058
▁plunder	-12.2058
▁hate	-12.2061
▁benchmarking	-12.2071
▁adversely	-12.2077
▁gladly	-12.2078
▁installation	-12.2084
ement	-12.2084
▁authorisations	-12.2085
efficiency	-12.2085
▁concentrations	-12.209
see	-12.209
▁Haarder	-12.2093
▁Izquierdo	-12.2093
▁Jews	-12.2093
▁crash	-12.2093
▁gravity	-12.2093
▁prescription	-12.2093
▁receipt	-12.2093
▁defects	-12.2095
▁seasonal	-12.2096
mat	-12.21
23	-12.2101
▁denounced	-12.2102
▁Pakistani	-12.2107
▁Being	-12.2108
▁8%	-12.211
▁institutes	-12.2114
ole	-12.212
China	-12.212
▁websites	-12.2125
visual	-12.2126
▁Front	-12.2127
▁Colleagues	-12.2128
▁Gibraltar	-12.2128
▁critics	-12.2128
▁spectacular	-12.2128
▁leverage	-12.2128
▁codification	-12.2128
▁preach	-12.2128
▁exaggerated	-12.2129
▁offend	-12.2131
uri	-12.2136
▁constructed	-12.214
▁catching	-12.2145
mentioned	-12.2155
9(	-12.216
▁Andersson	-12.2163
▁Klaus	-12.2163
▁PVC	-12.2163
▁Position	-12.2163
▁deportation	-12.2163
▁genital	-12.2163
▁magnitude	-12.2163
▁Don	-12.2164
top	-12.2172
▁tie	-12.2183
ani	-12.2189
▁certificate	-12.219
zz	-12.2195
▁purchases	-12.2197
▁drama	-12.2198
▁Ocean	-12.2198
▁distributing	-12.2198
▁Dayton	-12.2199
▁eminent	-12.22
fo	-12.2201
▁accuse	-12.2201
rian	-12.2208
▁administered	-12.2209
▁weigh	-12.2212
▁motorways	-12.2219
▁waves	-12.222
▁stipulate	-12.2222
▁dismiss	-12.2223
▁livelihood	-12.2225
▁cereal	-12.2225
miss	-12.2226
▁Communism	-12.2234
▁trivial	-12.2234
▁scrapping	-12.2234
▁carcinogenic	-12.2234
▁speedily	-12.2234
▁smallest	-12.2237
▁Wi	-12.2238
▁wing	-12.2242
▁Mont	-12.2245
▁mail	-12.2252
▁heated	-12.2254
▁attracted	-12.2256
▁Franco	-12.2269
▁History	-12.2269
▁arrogance	-12.2269
▁unpleasant	-12.2269
▁Je	-12.2271
-19	-12.2273
▁flawed	-12.2273
▁contentious	-12.2273
▁supreme	-12.2275
▁celebrated	-12.2279
▁tightened	-12.2283
▁fee	-12.2288
▁realising	-12.229
▁vaccine	-12.2297
▁Country	-12.2305
▁Frassoni	-12.2305
▁Welcome	-12.2305
▁luxury	-12.2305
▁1988	-12.2305
▁cinema	-12.2305
▁formulating	-12.2307
▁roughly	-12.231
▁pledges	-12.2311
▁constitutions	-12.2319
▁relax	-12.233
Member	-12.2333
ink	-12.2334
▁sentiments	-12.2334
founded	-12.2335
▁rough	-12.2335
▁characterise	-12.2337
▁si	-12.2339
▁habitats	-12.234
▁Contrary	-12.2341
▁detract	-12.2341
▁shield	-12.2341
▁timid	-12.2341
▁Kallas	-12.2341
▁peer	-12.2341
▁undergone	-12.2341
▁Farmers	-12.2341
▁wipe	-12.2345
▁tighter	-12.2346
link	-12.2348
gan	-12.2349
my	-12.235
IP	-12.2356
▁shorten	-12.236
▁77	-12.2362
▁pen	-12.2363
ux	-12.2367
93	-12.2369
▁calculating	-12.2377
▁decreasing	-12.2377
▁deletion	-12.2377
▁gratifying	-12.2377
▁tripartite	-12.2377
▁unthinkable	-12.2377
▁Martens	-12.2377
▁compelled	-12.2377
▁infant	-12.2379
pped	-12.2381
graph	-12.2383
▁setback	-12.2388
▁fleeing	-12.2388
▁decreased	-12.239
▁reign	-12.239
▁hang	-12.2401
field	-12.2405
bor	-12.2407
▁prescribe	-12.2408
▁reactor	-12.2413
▁abilities	-12.2413
▁cumbersome	-12.2413
▁disposed	-12.2416
▁valued	-12.2416
▁losers	-12.2418
▁dig	-12.2422
▁Libyan	-12.2431
▁row	-12.2432
AR	-12.2433
▁prohibiting	-12.2438
60	-12.2448
▁Alpine	-12.2449
▁Company	-12.2449
▁Cultural	-12.2449
▁Maghreb	-12.2449
▁Sánchez	-12.2449
▁abduction	-12.2449
▁maturity	-12.2449
▁vested	-12.2449
▁diplomats	-12.2449
▁superpower	-12.2449
▁evade	-12.2451
▁indiscriminate	-12.2458
gged	-12.2463
EA	-12.2473
tat	-12.2476
▁scarce	-12.248
▁interpreting	-12.2482
▁modu	-12.2484
▁CITES	-12.2485
▁Philippines	-12.2485
▁Recovery	-12.2485
▁Transnistria	-12.2485
▁cocoa	-12.2485
▁monies	-12.2485
▁dissatisfaction	-12.2485
▁Monnet	-12.2485
4-05	-12.2487
▁ESF	-12.2488
IM	-12.2488
▁lament	-12.2492
▁consequent	-12.2492
▁scare	-12.2493
97/	-12.2493
▁auditing	-12.2494
1(	-12.2495
aving	-12.2502
more	-12.2504
▁Roman	-12.2511
member	-12.2512
service	-12.2514
▁omission	-12.2516
▁insignificant	-12.252
cost	-12.2521
▁FAO	-12.2522
▁Grossetête	-12.2522
▁intrinsic	-12.2522
▁domination	-12.2522
▁disarm	-12.2522
▁traps	-12.2525
▁drinks	-12.2526
▁witnesses	-12.2526
▁nutritional	-12.2531
▁auditors	-12.2533
▁sticking	-12.2535
▁Real	-12.2537
▁exceeds	-12.2541
▁sail	-12.2546
Africa	-12.2549
informed	-12.2551
▁careers	-12.2551
▁advertise	-12.2558
▁Department	-12.2559
▁Lamassoure	-12.2559
▁defensive	-12.2559
▁embryonic	-12.2559
▁initiating	-12.2559
▁liaison	-12.2559
▁preamble	-12.2559
▁litre	-12.2559
▁hake	-12.2559
▁fin	-12.2561
▁pill	-12.2564
▁fixing	-12.2576
gro	-12.2585
▁obliges	-12.259
▁isolate	-12.259
MA	-12.2592
▁geographic	-12.2592
▁Veterinar	-12.2595
▁crush	-12.2595
▁declaring	-12.2595
▁flame	-12.2595
dvisory	-12.2596
▁Whitehead	-12.2596
▁reproduction	-12.2597
▁failings	-12.2603
46	-12.2603
▁Nigerian	-12.2608
▁manifestation	-12.2611
ula	-12.2616
room	-12.2624
▁tonne	-12.2627
ä	-12.2632
▁Situation	-12.2632
▁Stream	-12.2632
▁renounce	-12.2632
▁sophisticated	-12.2632
▁lecture	-12.2632
▁Minsk	-12.2632
▁terminal	-12.2632
▁TAC	-12.2633
▁indefinitely	-12.2634
▁mentality	-12.2636
▁semi	-12.2636
▁appointments	-12.264
▁thin	-12.2644
▁patenting	-12.265
▁dissidents	-12.2653
mission	-12.2661
▁commence	-12.2663
▁ironic	-12.2668
”	-12.2669
▁Airbus	-12.2669
▁Fatuzzo	-12.2669
▁abstract	-12.2669
▁admiration	-12.2669
▁bolster	-12.2669
▁expiry	-12.2669
▁happily	-12.2669
▁landmines	-12.2669
▁12.00	-12.267
▁incoming	-12.267
▁exerting	-12.2673
▁prosecuted	-12.2673
▁precautions	-12.2674
▁tailored	-12.2675
▁Bos	-12.2677
holders	-12.268
▁prerequisites	-12.2681
▁Coal	-12.2683
▁owner	-12.269
▁worded	-12.2703
▁VI	-12.2705
▁Schroedter	-12.2706
▁astonishing	-12.2706
▁cabotage	-12.2706
▁cheque	-12.2706
▁recipe	-12.2706
▁IMO	-12.2706
▁Five	-12.2714
2(	-12.2718
▁skin	-12.2722
▁Latvian	-12.2724
▁Generally	-12.2731
▁sorted	-12.2735
▁curtail	-12.2735
▁carrier	-12.2739
other	-12.2741
▁Napolitano	-12.2744
▁UNHCR	-12.2744
▁wife	-12.2744
▁artificially	-12.2757
▁compromised	-12.2763
▁stems	-12.2766
▁1.2	-12.277
/21	-12.2771
▁listing	-12.2778
▁Habsburg	-12.2781
▁leisure	-12.2781
▁rapprochement	-12.2781
▁specifies	-12.2781
▁magic	-12.2781
▁expelled	-12.2781
▁pot	-12.2786
▁George	-12.2789
▁strategically	-12.2789
dding	-12.279
▁corrective	-12.2792
▁finishing	-12.2799
▁officer	-12.28
▁powerless	-12.2801
▁hormones	-12.281
▁volunteers	-12.2814
▁pattern	-12.2815
▁permissible	-12.2819
▁Vote	-12.282
▁discards	-12.282
▁alcoholic	-12.2824
▁dictated	-12.2831
▁converted	-12.2831
▁reversed	-12.2837
▁recovered	-12.2842
ama	-12.2848
▁pictures	-12.2856
▁ceremony	-12.2857
▁prestige	-12.2857
▁reassess	-12.2857
▁wreck	-12.2857
▁abstaining	-12.2857
▁nominal	-12.2857
fledged	-12.2857
▁offenders	-12.2858
▁Colombian	-12.2865
Co	-12.2868
ley	-12.2874
ese	-12.2878
▁Govern	-12.2879
Euro	-12.288
▁borrow	-12.2882
▁doping	-12.2883
public	-12.2884
▁remembering	-12.2887
▁accusation	-12.2892
▁Future	-12.2894
▁Platform	-12.2894
▁bottle	-12.2894
▁jump	-12.2894
▁meanwhile	-12.2894
▁tired	-12.2894
▁spiritual	-12.2894
▁censorship	-12.2896
▁lying	-12.2896
▁shortfall	-12.2896
▁civilisations	-12.29
▁Tony	-12.29
▁Works	-12.29
saving	-12.2903
▁proclaimed	-12.2903
▁critically	-12.2906
▁82	-12.2915
read	-12.2918
▁monthly	-12.2921
▁inspect	-12.2923
▁restructure	-12.2928
▁Weber	-12.2932
▁Mechanism	-12.2932
▁Mozambique	-12.2932
▁dispel	-12.2932
▁libraries	-12.2932
▁superficial	-12.2932
▁Lucas	-12.2932
▁photograph	-12.2932
▁revolutionary	-12.2935
▁misused	-12.2942
bert	-12.2947
▁Mor	-12.2954
under	-12.2957
▁mountains	-12.2967
▁barr	-12.2968
▁emit	-12.2971
▁Implementation	-12.2971
▁Schröder	-12.2971
▁discrepancy	-12.2971
▁umbrella	-12.2971
▁unwanted	-12.2971
▁correlation	-12.2971
▁cleaning	-12.2976
▁turnout	-12.2991
7(	-12.2999
green	-12.3001
▁lawful	-12.3004
▁transmit	-12.3009
▁destabilise	-12.3009
▁mixture	-12.3009
▁unfavourable	-12.3009
▁Breyer	-12.3009
▁Cunha	-12.3009
▁Trakatellis	-12.3009
▁uprising	-12.3009
▁Burg	-12.3009
▁450	-12.302
▁Documents	-12.3029
▁comprehensively	-12.3029
5%	-12.3037
berg	-12.3038
spot	-12.304
fraud	-12.304
▁bills	-12.3043
▁irregular	-12.3046
gress	-12.3046
▁Deputy	-12.3047
▁McCarthy	-12.3047
▁Sjöstedt	-12.3047
▁mercy	-12.3047
▁Kosovar	-12.3047
▁rebel	-12.3047
▁reproach	-12.3047
▁unscrupulous	-12.3047
▁evolving	-12.3048
6(	-12.3055
▁fats	-12.3058
▁Arms	-12.3074
▁wasting	-12.3085
▁anticipation	-12.3086
▁invaluable	-12.3086
▁presumably	-12.3086
▁vertical	-12.3086
▁bluefin	-12.3086
▁flagship	-12.3087
▁eastward	-12.3087
▁communism	-12.3087
▁commissioners	-12.3087
▁downturn	-12.309
iev	-12.31
▁Ku	-12.3103
▁repeal	-12.3104
▁hostages	-12.3109
row	-12.3115
▁proclaim	-12.3116
▁throwing	-12.3118
▁provoke	-12.312
▁Baghdad	-12.3125
▁Dupuis	-12.3125
▁Edinburgh	-12.3125
▁Maltese	-12.3125
▁apologies	-12.3125
▁cloud	-12.3125
▁corps	-12.3125
▁daughter	-12.3125
▁standstill	-12.3125
▁sympathetic	-12.3125
▁Alps	-12.3125
▁notorious	-12.3125
▁signatory	-12.3126
▁flexicurity	-12.3126
▁formalities	-12.3128
▁conceived	-12.313
▁commented	-12.3131
▁groupings	-12.3132
range	-12.3132
4(	-12.3137
▁dock	-12.315
▁waged	-12.3154
EGF	-12.3156
paragraph	-12.3156
care	-12.3156
▁illusions	-12.3161
▁discard	-12.3163
aladministration	-12.3164
▁coffee	-12.3164
▁custody	-12.3164
▁empire	-12.3164
▁obey	-12.3164
▁roaming	-12.3164
▁1986	-12.3164
▁Eurogroup	-12.3164
▁acid	-12.3164
▁golden	-12.3165
▁Laos	-12.3165
▁inflicted	-12.3169
▁matches	-12.3169
▁pronounced	-12.317
▁sin	-12.3174
▁fled	-12.3179
▁invad	-12.3185
▁appointing	-12.3191
ego	-12.3194
▁slaughtered	-12.3194
military	-12.3195
ended	-12.3196
▁continual	-12.3197
▁contributor	-12.3202
▁Journal	-12.3202
▁eradicating	-12.3203
▁fibre	-12.3203
▁substitution	-12.3203
▁tanks	-12.3203
▁reactionary	-12.3206
▁outgoing	-12.3218
▁Decisions	-12.322
▁shocks	-12.3222
▁Karl	-12.3224
▁ears	-12.3224
▁collapsed	-12.3226
▁dreams	-12.323
connect	-12.3234
▁eager	-12.3236
▁supervise	-12.3237
▁aspiration	-12.3241
▁Kyrgyzstan	-12.3242
▁Turks	-12.3242
▁relies	-12.3242
▁residing	-12.3242
▁xenophobic	-12.3242
▁Sellafield	-12.3242
▁Had	-12.3242
▁totalitarianism	-12.3244
▁teacher	-12.3245
▁WEU	-12.3245
▁Vol	-12.3245
limit	-12.3246
BC	-12.3248
▁dismissed	-12.3251
▁sharply	-12.3254
8(	-12.3257
▁constructing	-12.3262
▁interrupt	-12.3265
region	-12.3268
▁reacting	-12.3273
▁insert	-12.3276
▁Cappato	-12.3281
▁Fraga	-12.3281
▁surge	-12.3281
▁transcend	-12.3281
▁pray	-12.3282
▁thereof	-12.3287
▁forceful	-12.3292
▁flee	-12.3302
▁instruct	-12.3302
▁criminality	-12.3305
▁widen	-12.3306
▁rumours	-12.331
▁attentive	-12.3315
EM	-12.3316
▁bread	-12.332
▁Lambert	-12.3321
▁Lancker	-12.3321
▁Piebalgs	-12.3321
▁laboratories	-12.3321
▁logistical	-12.3321
▁revisit	-12.3321
▁transposing	-12.3321
▁settling	-12.3321
▁mood	-12.3321
▁Fava	-12.3321
(2000)	-12.3322
▁broadcasters	-12.3324
▁Rapporteur	-12.3328
▁respectful	-12.3328
▁counted	-12.3336
▁directorate	-12.3337
▁exempted	-12.3344
▁realm	-12.3354
▁dealers	-12.3355
uous	-12.3356
▁Legislat	-12.336
▁Increasing	-12.336
▁Tannock	-12.336
▁appraisal	-12.336
▁influential	-12.336
▁unsuccessful	-12.336
▁yardstick	-12.336
▁invalid	-12.3361
▁Essen	-12.3361
▁hardship	-12.3364
▁provoked	-12.3366
▁81	-12.3369
ami	-12.337
▁definitively	-12.338
▁Nord	-12.338
▁eggs	-12.3388
▁organize	-12.3396
▁Hatzidakis	-12.34
▁restaurant	-12.34
▁revival	-12.34
▁franc	-12.34
▁TEN	-12.3402
▁expired	-12.3404
▁deteriorated	-12.3404
▁tip	-12.3404
Loud	-12.3416
sea	-12.3417
▁freed	-12.3421
▁annexed	-12.3421
▁emotion	-12.3424
▁specifying	-12.3427
▁deduct	-12.3431
polluter	-12.3433
handling	-12.3434
▁Buzek	-12.344
▁Eurobarometer	-12.344
▁inconceivable	-12.344
▁stagnation	-12.344
▁interdependence	-12.344
▁multifunctional	-12.344
▁divergent	-12.344
▁Liese	-12.3441
▁mill	-12.3442
▁permitting	-12.3443
pho	-12.3453
▁relieve	-12.3453
70	-12.3459
word	-12.3468
competitive	-12.3472
▁ecologically	-12.3474
▁embarrassing	-12.348
▁envelope	-12.348
▁unrestricted	-12.348
▁Making	-12.3482
▁Marco	-12.3483
▁predominantly	-12.3483
▁governmental	-12.3486
26	-12.3489
▁2003/	-12.3491
ij	-12.3502
▁Sacconi	-12.3521
▁acquiring	-12.3521
▁disparity	-12.3521
▁inalienable	-12.3521
▁hurt	-12.3521
▁waited	-12.3521
▁ERDF	-12.3523
▁Drug	-12.3523
▁campaigning	-12.3535
trans	-12.354
▁differential	-12.3542
longside	-12.3554
▁equate	-12.3555
▁haste	-12.3556
▁rival	-12.3561
▁72	-12.3561
▁Earth	-12.3561
▁Goebbels	-12.3561
▁munitions	-12.3561
▁Eurocontrol	-12.3562
▁index	-12.3562
▁appropriation	-12.3563
▁Independence	-12.3564
fly	-12.3566
▁surrounded	-12.3566
▁commissioner	-12.3569
▁interrupted	-12.357
▁Bill	-12.3571
uk	-12.3576
ada	-12.3576
▁portion	-12.3582
▁73	-12.3586
▁opting	-12.3595
▁suspending	-12.3596
▁earthquakes	-12.3598
ida	-12.3601
▁Guidelines	-12.3602
▁Munich	-12.3602
▁Nicaragua	-12.3602
▁Strategic	-12.3602
▁horrendous	-12.3602
▁infectious	-12.3602
▁plastic	-12.3602
▁reassuring	-12.3602
▁rebels	-12.3604
▁annexes	-12.3606
▁Whereas	-12.3607
position	-12.3611
▁+	-12.3615
▁refund	-12.3624
▁formerly	-12.3625
▁69	-12.3629
hearted	-12.3633
▁attribute	-12.3638
▁Proposal	-12.3643
▁Wurtz	-12.3643
▁lobbies	-12.3643
▁Negotiations	-12.3643
▁Unemployment	-12.3643
▁River	-12.3644
▁Duff	-12.3644
▁closures	-12.3649
89	-12.3663
▁documented	-12.3671
▁portray	-12.3684
▁Tomlinson	-12.3684
▁forbidden	-12.3684
▁speculators	-12.3684
▁upheaval	-12.3684
▁riot	-12.3684
▁offshore	-12.3685
▁underground	-12.3688
▁ran	-12.3695
▁Pope	-12.3695
▁tap	-12.3698
▁cornerstones	-12.3702
EP	-12.3702
▁posted	-12.3712
terrorist	-12.3717
▁invoke	-12.372
▁1985	-12.3725
▁Katiforis	-12.3725
▁Mexican	-12.3725
▁accuracy	-12.3725
▁random	-12.3725
▁salute	-12.3725
▁Visa	-12.3726
▁transplantation	-12.3727
▁89	-12.3727
013	-12.3727
▁excesses	-12.3729
▁polluted	-12.3729
▁FTA	-12.3731
▁clarifications	-12.3743
▁oceans	-12.3753
lateral	-12.3754
▁99	-12.3756
production	-12.3758
▁Gill	-12.3761
ura	-12.3761
▁Correction	-12.3766
▁Giscard	-12.3766
▁Holland	-12.3766
▁Kauppi	-12.3766
▁Marín	-12.3766
▁intermediaries	-12.3766
Weggen	-12.3766
▁municipalities	-12.3767
▁Scandinavian	-12.3768
▁clock	-12.3771
▁invoked	-12.3771
arian	-12.3775
▁Tibetans	-12.3775
▁bow	-12.3778
▁ample	-12.3786
▁prohibits	-12.3787
▁outbreaks	-12.3791
▁complaining	-12.3795
products	-12.3796
▁rotat	-12.3802
▁potato	-12.3806
▁desert	-12.3808
▁Warsaw	-12.3808
▁Diamantopoulou	-12.3808
▁MEDIA	-12.3808
▁teeth	-12.3808
▁vigour	-12.3808
▁devising	-12.3808
▁amazed	-12.3808
▁nominated	-12.381
▁mineral	-12.3812
mann	-12.3814
▁rightful	-12.3817
▁distributors	-12.3819
▁infringed	-12.3821
▁jeopardised	-12.3823
spir	-12.3825
3(	-12.3825
▁rendered	-12.3827
▁bath	-12.3832
▁71	-12.3833
Atlantic	-12.3842
▁conveyed	-12.3843
unit	-12.3845
lock	-12.3847
▁Congratulations	-12.3849
▁Quaestors	-12.3849
▁astonished	-12.3849
▁cloned	-12.3849
▁liberation	-12.3849
▁perverse	-12.3849
▁reorganisation	-12.3849
▁stereotypes	-12.3849
▁Lakes	-12.3849
▁Maij	-12.385
▁quoting	-12.385
▁childhood	-12.3851
▁residues	-12.3855
▁Heading	-12.3858
▁12%	-12.386
blo	-12.3862
▁deriv	-12.3869
▁bind	-12.3886
flow	-12.3889
▁Guantanamo	-12.3891
▁announcing	-12.3891
▁doubling	-12.3891
▁falsified	-12.3891
▁harness	-12.3891
▁undue	-12.3891
▁biogas	-12.3891
▁indulge	-12.3891
Fraud	-12.3891
▁employability	-12.3892
▁unpaid	-12.3893
▁homosexual	-12.3895
▁comprise	-12.3896
sufficient	-12.39
▁dire	-12.3903
▁geo	-12.3903
▁bas	-12.3911
▁headlines	-12.3912
▁exchanged	-12.3923
▁depriv	-12.3923
▁metals	-12.3924
employment	-12.3924
start	-12.3929
▁writer	-12.3931
▁intervened	-12.3931
nterim	-12.3933
ñ	-12.3933
▁Genoa	-12.3933
▁Thyssen	-12.3933
▁dirty	-12.3933
▁flesh	-12.3933
▁guarantor	-12.3933
▁legitimise	-12.3933
▁observatory	-12.3933
▁verbal	-12.3933
▁endorsing	-12.3933
▁avian	-12.3934
▁Staes	-12.3934
▁deregulat	-12.3935
▁unbalanced	-12.3935
▁revert	-12.3937
▁dozen	-12.3938
▁bond	-12.3939
▁reassured	-12.395
lly	-12.3951
LV	-12.3953
▁excludes	-12.3954
▁presupposes	-12.3955
▁variations	-12.3965
▁logically	-12.3966
continuation	-12.3968
▁diplomas	-12.3972
▁superior	-12.3974
lash	-12.3975
▁Belder	-12.3975
▁Eurobonds	-12.3975
▁Madagascar	-12.3975
▁Uruguay	-12.3975
▁insecure	-12.3975
▁sterling	-12.3975
▁aegis	-12.3975
EF	-12.3976
▁clever	-12.3976
▁Peru	-12.3978
▁wholesale	-12.3978
▁87	-12.3985
treatment	-12.3987
▁enacted	-12.3988
▁broadest	-12.3989
01)	-12.3995
▁129	-12.4005
nam	-12.4007
▁enshrine	-12.4013
▁fun	-12.4015
ordinate	-12.4016
▁Port	-12.4017
▁Immigration	-12.4018
▁Respect	-12.4018
▁Zealand	-12.4018
▁clarifies	-12.4018
▁conceivable	-12.4018
▁henceforth	-12.4018
▁unleash	-12.4018
▁rock	-12.4018
▁Maaten	-12.4018
▁underpinning	-12.4018
▁comfortable	-12.4019
▁alignment	-12.4021
▁EEAS	-12.4021
▁dust	-12.4021
▁constituted	-12.4023
rich	-12.4024
▁Ali	-12.4024
▁argues	-12.4029
▁finalise	-12.4031
▁fortune	-12.4032
rank	-12.4038
▁Look	-12.4048
▁experimental	-12.4051
▁Catalan	-12.406
▁apparatus	-12.406
▁atypical	-12.406
▁pedestrian	-12.406
▁verified	-12.406
▁joke	-12.406
▁persistence	-12.4061
91	-12.4062
▁Fair	-12.4062
▁mono	-12.4064
▁utilised	-12.4065
▁invention	-12.4068
euro	-12.4069
▁98	-12.4079
bel	-12.4084
94	-12.4086
low	-12.409
▁subsidise	-12.4098
▁MPs	-12.4102
▁compel	-12.4102
▁Administrative	-12.4103
▁Colom	-12.4103
▁Election	-12.4103
▁Istanbul	-12.4103
▁Observatory	-12.4103
▁Renault	-12.4103
▁concise	-12.4103
▁episode	-12.4103
▁thirteen	-12.4103
Estaing	-12.4103
▁cutbacks	-12.4103
▁Disease	-12.4103
▁intact	-12.4103
▁Railway	-12.4103
▁Point	-12.4104
▁boom	-12.4104
1/2001	-12.4105
▁lodged	-12.4106
▁Iron	-12.4106
▁disagreements	-12.4107
5(	-12.4107
▁Wise	-12.4113
▁enhancement	-12.4115
▁hanging	-12.4118
015	-12.4129
weight	-12.4133
▁unify	-12.4137
Commission	-12.4138
▁physically	-12.4141
▁filling	-12.4141
keeper	-12.4145
▁Simpson	-12.4146
▁Space	-12.4146
▁misguided	-12.4146
▁sensibly	-12.4146
▁actor	-12.4146
▁raft	-12.4146
▁Zana	-12.4147
▁geographically	-12.4148
Robles	-12.4149
▁printed	-12.4158
▁Interior	-12.4161
▁clearance	-12.4163
▁cooperated	-12.4166
Mr	-12.4167
treated	-12.4169
▁900	-12.417
bound	-12.4182
var	-12.4184
▁utilise	-12.4184
▁disappearing	-12.4188
­	-12.4189
▁Solbes	-12.4189
▁inconsistencies	-12.4189
▁inflexible	-12.4189
▁Caudron	-12.4189
▁Seppänen	-12.4189
▁necessitat	-12.4189
▁distrust	-12.4189
▁superstate	-12.419
▁pound	-12.419
▁95%	-12.4191
▁35%	-12.4191
▁caring	-12.4192
djournment	-12.4196
▁pesticide	-12.4196
91/	-12.4204
rag	-12.4207
29	-12.4209
▁Cast	-12.421
equi	-12.4213
▁predecessors	-12.4214
▁harmonize	-12.4227
▁calculate	-12.4227
▁differentiate	-12.4227
▁notify	-12.423
▁TENs	-12.4232
▁Nicholson	-12.4232
▁constituencies	-12.4232
▁disclose	-12.4232
▁dishonest	-12.4232
▁rejoice	-12.4232
▁truck	-12.4232
▁dictatorial	-12.4233
▁enrichment	-12.4233
▁retailers	-12.4236
▁Was	-12.4238
▁biased	-12.4238
(1999)	-12.4239
▁sentiment	-12.424
tax	-12.4244
▁oldest	-12.425
▁adjusting	-12.4265
▁confronting	-12.4266
avi	-12.4267
▁entrust	-12.4267
change	-12.4268
-2006	-12.4275
▁Alavanos	-12.4276
▁Gollnisch	-12.4276
▁Rasmussen	-12.4276
▁Reference	-12.4276
▁nightmare	-12.4276
▁rectified	-12.4276
▁induce	-12.4276
▁Bertens	-12.4276
▁properties	-12.4279
road	-12.4281
▁sweeping	-12.4284
▁Motor	-12.429
▁Islamist	-12.4291
▁matched	-12.4309
▁inaugura	-12.432
Proliferation	-12.432
▁Gaddafi	-12.432
▁disputed	-12.432
▁fourteen	-12.432
▁hurdle	-12.432
▁justifiably	-12.432
▁opportune	-12.432
▁squander	-12.432
▁sympathise	-12.432
▁0.7%	-12.432
▁Schuman	-12.432
Claude	-12.432
live	-12.4326
fair	-12.4328
▁Anna	-12.4334
elect	-12.4344
▁125	-12.4348
▁shipments	-12.4361
▁Especially	-12.4363
▁Gallagher	-12.4363
▁Jensen	-12.4363
▁bizarre	-12.4363
▁unpunished	-12.4363
▁convenient	-12.4363
▁wearing	-12.4365
▁Schmidt	-12.4365
▁politic	-12.4369
▁oppressed	-12.437
▁attained	-12.4386
▁Sc	-12.439
legislator	-12.4399
(96)	-12.4407
(97)0	-12.4407
▁EBRD	-12.4407
▁Ribeiro	-12.4407
▁laboratory	-12.4407
▁mirror	-12.4407
▁stubborn	-12.4407
▁endeavoured	-12.4408
▁Bavaria	-12.4408
▁Morgan	-12.4408
▁Undertaking	-12.4408
▁devot	-12.4418
ional	-12.443
▁revealing	-12.4432
▁pipelines	-12.4436
dra	-12.4441
seekers	-12.4444
▁husband	-12.4451
esumption	-12.4452
▁Brenner	-12.4452
▁Davies	-12.4452
▁Flanders	-12.4452
▁Galeote	-12.4452
▁cadmium	-12.4452
▁courtesy	-12.4452
▁dismay	-12.4452
▁greed	-12.4452
▁Promot	-12.4452
▁boast	-12.4452
▁haulage	-12.4452
you	-12.4456
▁pit	-12.4458
stop	-12.4478
government	-12.4486
▁fourthly	-12.4487
43	-12.449
▁prosecute	-12.4491
▁reinstate	-12.4491
administrat	-12.4496
▁Closure	-12.4496
▁Dührkop	-12.4496
▁INTERREG	-12.4496
▁Mundus	-12.4496
▁commensurate	-12.4496
▁dementia	-12.4496
▁levies	-12.4496
▁provocative	-12.4496
▁unquestionably	-12.4496
▁Ramos	-12.4496
▁Tobin	-12.4496
▁amazing	-12.4496
▁blacklist	-12.4496
▁correspondence	-12.4497
rou	-12.4501
▁marriages	-12.4505
▁hormone	-12.4506
▁mindful	-12.4508
▁widest	-12.4509
▁lifetime	-12.4512
▁rewarded	-12.4515
▁defeated	-12.4517
▁handful	-12.4518
ima	-12.453
Z	-12.4533
▁Chichester	-12.4541
▁Kroes	-12.4541
▁UNESCO	-12.4541
▁adequacy	-12.4541
▁combustion	-12.4541
▁unforeseen	-12.4541
▁Abbas	-12.4541
▁carpet	-12.4541
▁spokesman	-12.4541
ão	-12.4541
▁brink	-12.4541
▁accumulated	-12.4543
▁compiled	-12.4544
▁Reduc	-12.4544
▁boys	-12.4545
▁nationalities	-12.4547
▁liberalism	-12.4547
▁tyres	-12.4547
▁prejudices	-12.4547
▁Togo	-12.4552
place	-12.4555
▁expires	-12.4556
▁tenders	-12.4557
pit	-12.4559
▁rent	-12.4559
▁majorities	-12.4563
▁blamed	-12.4576
Rapporteur	-12.4578
commercial	-12.4578
▁waive	-12.4579
▁simultaneous	-12.458
▁educate	-12.4581
▁Budapest	-12.4586
▁Manuel	-12.4586
▁Precisely	-12.4586
▁enlarging	-12.4586
▁holistic	-12.4586
▁reassurance	-12.4586
▁asymmetric	-12.4586
▁optimal	-12.4586
▁stoning	-12.4586
▁kidnapping	-12.4586
▁Roure	-12.4587
▁Brazilian	-12.4588
6-03	-12.4588
▁exhibition	-12.4588
third	-12.4589
▁marketplace	-12.4593
98)	-12.4595
▁prolonged	-12.4598
▁metal	-12.4605
▁delegates	-12.4613
▁FP	-12.4613
▁prisoner	-12.4615
▁alliances	-12.4615
pla	-12.4615
▁108	-12.4617
▁ICAO	-12.4631
▁admissible	-12.4631
▁babies	-12.4631
▁degrading	-12.4631
▁jungle	-12.4631
▁peak	-12.4631
▁requisite	-12.4631
▁varieties	-12.4631
▁gay	-12.4632
kov	-12.4639
▁morally	-12.464
▁76	-12.4642
▁hectare	-12.4642
▁tar	-12.4652
▁endure	-12.4653
2002)	-12.4661
▁mount	-12.4664
▁protesting	-12.467
▁blank	-12.4675
▁Busquin	-12.4676
▁LEADER	-12.4676
▁Opel	-12.4676
▁guise	-12.4676
▁nurses	-12.4676
▁revitalise	-12.4676
▁communicating	-12.4676
▁trample	-12.4676
▁vein	-12.4676
▁versa	-12.4676
▁lump	-12.4676
▁earnings	-12.4676
▁Sam	-12.4676
▁advisers	-12.4677
Y	-12.4682
▁1987	-12.4683
▁founder	-12.4693
▁reconciled	-12.4694
▁79	-12.4699
án	-12.47
Q	-12.4707
shore	-12.4713
▁Mov	-12.4713
Article	-12.4714
▁drag	-12.4715
meat	-12.4716
2000	-12.4719
▁simplistic	-12.4721
▁ACTA	-12.4721
▁Channel	-12.4721
▁Hänsch	-12.4721
▁Liechtenstein	-12.4721
▁Linkohr	-12.4721
▁Naples	-12.4721
▁Voluntary	-12.4721
▁default	-12.4721
▁veritable	-12.4721
▁Verification	-12.4722
▁crack	-12.4722
▁Thors	-12.4722
▁arable	-12.4722
▁Perry	-12.4723
▁marginalisation	-12.4723
5-05	-12.4724
opt	-12.4724
gh	-12.4728
▁pack	-12.473
▁consign	-12.4733
▁healthier	-12.4735
distance	-12.4759
▁advent	-12.4767
▁audience	-12.4767
▁Congolese	-12.4767
▁Frankly	-12.4767
▁Peijs	-12.4767
▁Turmes	-12.4767
▁embassies	-12.4767
▁irrational	-12.4767
▁reversal	-12.4767
▁parity	-12.477
▁Camp	-12.4771
▁cage	-12.4773
▁Christianity	-12.4775
▁ambassador	-12.4779
▁homeless	-12.4792
▁ceased	-12.4792
▁applauded	-12.4799
driven	-12.4805
binding	-12.4805
grade	-12.4808
▁pressed	-12.481
valuation	-12.481
ordination	-12.4812
▁Tajikistan	-12.4813
▁efficacy	-12.4813
▁interlocutor	-12.4813
▁monument	-12.4813
▁perpetuate	-12.4813
▁recreational	-12.4813
▁squeez	-12.4813
▁stolen	-12.4813
▁Martínez	-12.4813
▁Louis	-12.4813
▁ferry	-12.4813
▁distract	-12.4813
▁complicity	-12.4814
fighting	-12.4814
▁Land	-12.4818
vil	-12.4826
▁sufferers	-12.4828
ken	-12.4832
oma	-12.4834
dio	-12.4835
▁burn	-12.4836
94/	-12.484
examine	-12.4846
–	-12.4848
ught	-12.485
▁ride	-12.4852
▁streamline	-12.4854
▁intermodal	-12.4858
▁sink	-12.4858
▁Auto	-12.4859
▁savage	-12.4859
▁Already	-12.4859
▁Facility	-12.4859
▁Lagendijk	-12.4859
▁contravention	-12.4859
▁hesitant	-12.4859
▁paedophile	-12.4859
▁shrink	-12.4859
▁streamlining	-12.4859
▁stifle	-12.4859
▁dissent	-12.4859
▁Markov	-12.4859
▁proposition	-12.486
▁satisfying	-12.4863
▁enforceable	-12.4864
▁importation	-12.4867
▁catering	-12.4868
▁multicultural	-12.4871
▁embryo	-12.4872
▁technique	-12.4872
ost	-12.4877
▁hazards	-12.4882
▁lur	-12.4883
▁recalling	-12.4885
sky	-12.4887
▁quant	-12.4888
33	-12.4889
▁distorting	-12.4895
SMEs	-12.4898
▁Particular	-12.49
▁delight	-12.49
▁attracting	-12.49
▁Ahern	-12.4905
▁TRIPS	-12.4905
▁Wijsenbeek	-12.4905
▁arrogant	-12.4905
▁diamond	-12.4905
▁enquiry	-12.4905
▁severity	-12.4905
65	-12.4906
▁Coordination	-12.4906
▁rotation	-12.4912
▁Dan	-12.4915
▁pioneering	-12.4917
card	-12.4922
sign	-12.4922
CE	-12.4926
▁7%	-12.4929
▁Sub	-12.4931
▁compliments	-12.4938
▁170	-12.494
▁stall	-12.4941
Israel	-12.4944
▁shaped	-12.4945
▁deserved	-12.4948
▁greet	-12.4952
▁Bolivia	-12.4952
▁Regulator	-12.4952
▁accelerating	-12.4952
▁authoritative	-12.4952
▁elephant	-12.4952
▁practicable	-12.4952
▁untenable	-12.4952
▁descend	-12.4952
▁tolerant	-12.4952
▁cement	-12.4952
▁Long	-12.4953
▁cruelty	-12.4953
▁cord	-12.4955
▁tree	-12.4966
▁Borders	-12.4969
▁bottlenecks	-12.497
▁proceeded	-12.4975
ultiannual	-12.499
▁hell	-12.4994
▁wholehearted	-12.4997
Semitism	-12.4999
▁Effective	-12.4999
▁Tindemans	-12.4999
▁accumulation	-12.4999
▁attributable	-12.4999
▁credentials	-12.4999
▁persuasion	-12.4999
▁Rossa	-12.4999
▁strip	-12.4999
▁uneven	-12.4999
▁scratch	-12.4999
▁tide	-12.5
▁Maes	-12.5015
▁broadening	-12.5022
fat	-12.5024
▁Bru	-12.5026
ita	-12.5027
▁Dam	-12.5028
▁counterpart	-12.5034
profit	-12.5039
▁guilt	-12.5043
▁peculiar	-12.5045
▁Gargani	-12.5045
▁Meeting	-12.5045
▁Nowadays	-12.5045
▁Varela	-12.5045
▁appliances	-12.5045
▁armaments	-12.5045
▁commemorate	-12.5045
▁juvenile	-12.5045
▁redouble	-12.5045
▁undeniably	-12.5045
▁bury	-12.5046
▁crux	-12.5046
▁beaten	-12.5046
▁boil	-12.5047
industrial	-12.505
▁selfish	-12.5051
▁tolls	-12.5052
▁unambiguously	-12.5059
▁ocean	-12.506
▁centred	-12.5064
▁troubled	-12.5068
▁posting	-12.5084
▁Paasilinna	-12.5093
▁consular	-12.5093
▁unbundling	-12.5093
▁wheat	-12.5093
▁meagre	-12.5093
▁skilful	-12.5093
▁ITER	-12.5093
▁Grand	-12.5093
▁1960	-12.5094
▁UKIP	-12.5094
▁cheat	-12.5094
2003)	-12.5098
▁breached	-12.5098
▁halfway	-12.5099
rom	-12.5102
▁calmly	-12.5111
▁optimis	-12.5124
▁victor	-12.5138
▁Montreal	-12.514
▁URBAN	-12.514
▁pivotal	-12.514
▁ECJ	-12.5141
4-06	-12.5141
▁realistically	-12.5144
▁externally	-12.5147
▁aeroplanes	-12.515
▁uniformity	-12.515
▁remainder	-12.515
▁custom	-12.5152
ception	-12.5153
▁EIT	-12.5153
▁unfairly	-12.5156
▁hampered	-12.5159
▁empower	-12.5178
cultural	-12.5179
▁kindly	-12.5182
▁complicate	-12.5183
▁merge	-12.5186
▁Senegal	-12.5188
▁Blue	-12.5188
▁Cresson	-12.5188
▁EFD	-12.5188
▁López	-12.5188
▁Monterrey	-12.5188
▁Norwegian	-12.5188
▁creator	-12.5188
▁outlining	-12.5188
▁Fiji	-12.5188
▁deferred	-12.5188
▁underpinned	-12.5188
▁resounding	-12.5188
▁Pensioners	-12.5188
▁dividend	-12.5189
▁slowdown	-12.5189
▁1950	-12.5189
▁authorization	-12.519
▁upgrade	-12.5194
▁weekly	-12.52
▁holder	-12.5212
▁praised	-12.5213
▁speeded	-12.5216
▁restate	-12.522
▁designations	-12.5229
ease	-12.5233
▁Hezbollah	-12.5236
▁Ottawa	-12.5236
▁Spencer	-12.5236
▁cyanide	-12.5236
▁diabetes	-12.5236
▁homophobia	-12.5236
▁pause	-12.5236
▁renovation	-12.5236
▁ruthless	-12.5236
▁ICC	-12.5236
▁Confederation	-12.5236
ock	-12.5237
▁Waste	-12.5239
5-06	-12.5241
▁resorting	-12.5241
▁Less	-12.5241
▁atomic	-12.5248
door	-12.5254
2001)	-12.5255
▁purchased	-12.5257
▁1.1	-12.526
▁qui	-12.5264
terior	-12.5267
▁additionality	-12.5268
▁Maria	-12.5269
reading	-12.5272
mmed	-12.5272
▁phones	-12.5276
disciplinary	-12.5276
tariff	-12.5276
energy	-12.5276
chair	-12.5278
▁Current	-12.5278
▁1979	-12.5284
▁analytical	-12.5284
▁deputy	-12.5284
▁hauliers	-12.5284
▁opium	-12.5284
▁primacy	-12.5284
▁prudence	-12.5284
▁vitamin	-12.5284
▁conclusive	-12.5284
▁instigate	-12.5284
▁Project	-12.5284
▁incitement	-12.5285
28	-12.5285
▁flaws	-12.5286
▁impartiality	-12.5286
▁encompasses	-12.5286
▁shoes	-12.5288
path	-12.5289
▁Often	-12.5291
stone	-12.5296
enthusiastically	-12.5297
▁Governor	-12.5302
▁provinces	-12.5306
▁complained	-12.5307
▁declined	-12.5314
▁pioneer	-12.532
▁accords	-12.532
▁Romano	-12.5322
rooted	-12.5324
prepared	-12.5324
▁Andalusia	-12.5332
▁Kabul	-12.5332
▁Lynne	-12.5332
▁measurable	-12.5332
▁polar	-12.5332
▁residential	-12.5332
▁bureaucrats	-12.5354
don	-12.536
▁symptoms	-12.536
▁Estonian	-12.5362
▁Compar	-12.5367
▁Open	-12.5369
▁militari	-12.5375
▁assign	-12.5376
▁Shi	-12.5379
▁Müller	-12.538
▁Schüssel	-12.538
▁counsel	-12.538
▁footwear	-12.538
▁gauge	-12.538
▁geography	-12.538
▁imperfect	-12.538
▁plague	-12.538
▁Provid	-12.538
▁pirate	-12.5381
MDG	-12.5381
▁cabinet	-12.5381
▁Orden	-12.5381
▁sister	-12.5381
▁frustrated	-12.5383
▁shifted	-12.5383
▁Marine	-12.5386
▁Ya	-12.5398
▁loading	-12.5399
kh	-12.5404
▁Mari	-12.5411
▁ambassadors	-12.5416
▁enlighten	-12.5421
fra	-12.5421
information	-12.5422
CAP	-12.5423
▁factions	-12.5426
▁imagined	-12.5427
▁Deprez	-12.5429
▁Purvis	-12.5429
▁bovine	-12.5429
▁glaring	-12.5429
▁inconsistency	-12.5429
▁influencing	-12.5429
▁questionnaire	-12.5429
▁reprehensible	-12.5429
▁suffrage	-12.5429
▁Campania	-12.5429
▁Large	-12.5429
▁axis	-12.5429
▁doomed	-12.5429
▁pump	-12.5431
47	-12.5431
▁dismissal	-12.5433
▁retraining	-12.5433
▁resigned	-12.5444
▁prerogative	-12.5448
▁entitlement	-12.5448
▁colours	-12.5449
▁poet	-12.5451
▁brutally	-12.5452
face	-12.5454
vit	-12.5455
well	-12.5455
2004)	-12.5459
▁entitlements	-12.546
nuclear	-12.5471
force	-12.5474
▁Diamandouros	-12.5478
▁admirable	-12.5478
▁compromising	-12.5478
▁eighteen	-12.5478
▁immoral	-12.5478
▁legislating	-12.5478
▁obsession	-12.5478
▁terminology	-12.5478
▁Though	-12.5478
▁Army	-12.5478
▁foolish	-12.5479
▁denies	-12.548
▁federalism	-12.5482
▁dismantled	-12.5486
▁exporter	-12.5491
▁twofold	-12.5493
▁disorders	-12.5493
Le	-12.5512
▁Ob	-12.5514
▁Membership	-12.5517
▁retreat	-12.5521
ermanent	-12.5527
▁lunch	-12.5527
▁Thomas	-12.5528
▁triangle	-12.5528
▁preceding	-12.5528
▁starvation	-12.5528
▁vicinity	-12.5528
▁equation	-12.5529
▁fascist	-12.553
▁Christ	-12.5531
▁restart	-12.5532
▁repayment	-12.5532
▁harmonized	-12.5533
ump	-12.5536
▁inserted	-12.5538
crib	-12.5539
▁avoidance	-12.554
▁spared	-12.5542
institutional	-12.5542
▁delegate	-12.5543
▁borrowing	-12.5543
▁regulator	-12.5545
etic	-12.5546
▁tendering	-12.556
▁160	-12.5566
source	-12.5568
existence	-12.5568
▁divert	-12.5569
▁recovering	-12.5572
▁motivate	-12.5572
▁program	-12.5576
▁Borrell	-12.5577
Bissau	-12.5577
▁Fukushima	-12.5577
▁Sarajevo	-12.5577
▁emigration	-12.5577
▁scapegoat	-12.5577
▁vodka	-12.5577
▁objectivity	-12.5578
▁unitary	-12.5579
▁punishable	-12.558
▁regretted	-12.5583
aire	-12.5589
▁professionalism	-12.5589
burg	-12.5591
▁obstruction	-12.5593
▁motive	-12.5598
▁embarking	-12.5606
▁watched	-12.5609
▁fortress	-12.5613
▁Hitler	-12.5627
▁Passenger	-12.5627
▁complications	-12.5627
▁intensification	-12.5627
▁lucrative	-12.5627
▁ministries	-12.5627
▁sweet	-12.5627
▁terribly	-12.5627
▁unanswered	-12.5627
▁unhealthy	-12.5627
▁behaving	-12.5627
▁stark	-12.5627
▁Schmid	-12.5627
▁Still	-12.5628
▁theatre	-12.5632
▁fastest	-12.5632
▁testify	-12.5638
▁invented	-12.5645
▁conversations	-12.5646
▁bird	-12.5648
page	-12.5648
▁steering	-12.5655
▁carers	-12.5664
culture	-12.5669
39	-12.5675
▁Papayannakis	-12.5677
▁fertiliser	-12.5677
▁inadequacy	-12.5677
▁inherited	-12.5677
▁precision	-12.5677
▁relentless	-12.5677
▁shark	-12.5677
▁stigma	-12.5677
▁extradite	-12.5677
▁scant	-12.5677
▁herald	-12.5677
▁erect	-12.5677
▁COP	-12.5678
▁bright	-12.5678
▁boxes	-12.568
▁115	-12.5683
▁convened	-12.5687
▁compounds	-12.5694
▁motorway	-12.57
Do	-12.5707
▁withstand	-12.5713
▁anchor	-12.5719
German	-12.5719
legislative	-12.5719
▁deteriorate	-12.5722
▁emotions	-12.5726
▁1967	-12.5727
▁Macao	-12.5727
▁literature	-12.5727
▁reiterating	-12.5727
▁Subcommittee	-12.5727
▁dilute	-12.5727
▁Explanations	-12.5727
▁drown	-12.5727
▁tractors	-12.5727
▁omitted	-12.5727
▁democratization	-12.5727
▁Steel	-12.5728
▁feedback	-12.5728
▁madness	-12.5729
▁redefine	-12.5734
▁diminished	-12.574
▁supermarkets	-12.5743
▁defender	-12.5748
▁selecting	-12.5749
▁culturally	-12.5751
▁sine	-12.5759
▁supervisors	-12.5759
▁deadly	-12.5761
X	-12.5764
hull	-12.5771
▁Echelon	-12.5778
▁Ferreira	-12.5778
▁Garriga	-12.5778
▁Zapatero	-12.5778
▁accustomed	-12.5778
▁devastation	-12.5778
▁insolvency	-12.5778
▁paralysis	-12.5778
▁paternity	-12.5778
▁segregation	-12.5778
▁spoil	-12.5778
▁swept	-12.5778
▁1976	-12.5778
▁Emissions	-12.5778
▁thwart	-12.5778
▁knee	-12.5778
▁casualties	-12.5778
▁distinctive	-12.5779
6-04	-12.5782
▁Mark	-12.5793
▁180	-12.5795
▁tense	-12.5802
▁punishing	-12.581
▁disseminate	-12.5823
▁Quality	-12.5828
▁Tamil	-12.5828
▁apportion	-12.5828
▁judging	-12.5828
▁outweigh	-12.5828
▁populism	-12.5828
▁prevalent	-12.5828
▁unbridled	-12.5828
▁Blak	-12.5828
▁Seven	-12.5828
▁Weiler	-12.5828
▁loyalty	-12.5829
▁convene	-12.5829
Scott	-12.5831
usz	-12.5834
hard	-12.5851
▁Mc	-12.5852
cle	-12.5855
▁conserve	-12.5862
▁175	-12.5867
▁insufficiently	-12.5873
▁lessen	-12.5878
▁149(8))	-12.5879
▁Bonde	-12.5879
▁Crime	-12.5879
▁Major	-12.5879
▁Pursu	-12.5879
▁Pérez	-12.5879
▁midnight	-12.5879
▁sanitation	-12.5879
▁underlining	-12.5879
▁Casaca	-12.5879
▁hint	-12.588
▁cultivated	-12.5883
▁Duma	-12.5883
▁tissues	-12.5886
▁elementary	-12.5888
▁74	-12.5893
▁telecoms	-12.5894
▁tanker	-12.5903
▁complainant	-12.5914
▁intensifying	-12.5914
▁ear	-12.5917
eastern	-12.5923
citizens	-12.5923
▁Equator	-12.5931
▁Account	-12.5931
▁Rhine	-12.5931
▁cessation	-12.5931
▁compatriot	-12.5931
▁destabilising	-12.5931
▁fauna	-12.5931
▁spatial	-12.5931
▁weighting	-12.5935
34	-12.5943
9/2001	-12.5945
ground	-12.5948
019	-12.5957
(98)0	-12.5959
health	-12.5975
sensitive	-12.5975
special	-12.5975
▁hostilities	-12.5982
▁humiliation	-12.5982
▁magazine	-12.5982
▁nitrogen	-12.5982
▁recycled	-12.5982
▁void	-12.5982
▁spontaneous	-12.5982
▁Brown	-12.5983
stein	-12.5985
▁feat	-12.6001
▁hindered	-12.6009
▁1.3	-12.6019
▁planes	-12.6021
II	-12.6022
▁distinguishing	-12.6028
▁hat	-12.603
key	-12.6032
▁Cederschiöld	-12.6034
▁Curtain	-12.6034
▁Discussion	-12.6034
▁NUTS	-12.6034
▁encroach	-12.6034
▁hungry	-12.6034
▁jeopardy	-12.6034
▁pragmatism	-12.6034
▁remedied	-12.6034
▁sacred	-12.6034
▁tandem	-12.6034
▁Keyser	-12.6034
▁beauty	-12.6034
▁purse	-12.6034
▁density	-12.6034
▁Important	-12.6034
▁extinction	-12.6034
▁Local	-12.6034
▁1975	-12.6035
▁theft	-12.6039
010	-12.6039
▁discovery	-12.6041
▁omissions	-12.6043
▁underdeveloped	-12.6049
14/	-12.605
▁loved	-12.6053
▁genes	-12.6061
▁periodic	-12.6062
▁3.5	-12.6064
▁92/	-12.6068
FP	-12.6071
▁picked	-12.6073
▁Accord	-12.6074
▁succession	-12.6078
version	-12.6078
Palestinian	-12.6078
▁Fre	-12.608
eye	-12.6081
▁indebted	-12.6085
ú	-12.6086
▁Frankfurt	-12.6086
▁arsenal	-12.6086
▁conscientious	-12.6086
▁depressing	-12.6086
▁protagonist	-12.6086
▁relinquish	-12.6086
▁Bjerregaard	-12.6086
▁Gröner	-12.6086
▁Miguélez	-12.6086
▁anticipating	-12.6086
▁crossroads	-12.6086
▁elapsed	-12.6086
▁interconnected	-12.6086
▁leeway	-12.6086
▁exponential	-12.6086
uda	-12.6086
▁Coast	-12.6087
▁smokers	-12.6087
▁mountainous	-12.6087
▁unwillingness	-12.6088
▁Developing	-12.6089
▁streamlined	-12.6092
▁Zimbabwean	-12.6093
eviating	-12.6095
▁businessmen	-12.6097
legal	-12.61
▁inject	-12.6103
hl	-12.6111
▁portal	-12.6114
▁preparedness	-12.612
elle	-12.6123
origin	-12.6131
-04	-12.6133
▁minerals	-12.6134
▁discusses	-12.6136
ncreased	-12.6138
Explanation	-12.6138
▁Honduras	-12.6138
▁misunderstood	-12.6138
▁verge	-12.6138
▁Figueiredo	-12.6138
▁separatist	-12.6138
▁Miert	-12.6139
état	-12.6139
▁uncover	-12.6139
▁Kiev	-12.6139
▁frightening	-12.6143
▁trademark	-12.6144
▁Kof	-12.615
▁explored	-12.6151
▁mainland	-12.6156
▁92	-12.6158
ette	-12.6161
▁Bor	-12.6162
▁overwhelmingly	-12.6163
▁hazard	-12.6164
▁loophole	-12.6164
▁shipyard	-12.6164
▁152	-12.6165
▁headline	-12.6167
▁egg	-12.617
▁plug	-12.6171
▁Euromed	-12.6186
just	-12.6188
▁Beyond	-12.6191
▁Bologna	-12.6191
▁GNI	-12.6191
▁Pinochet	-12.6191
▁fodder	-12.6191
▁parcel	-12.6191
▁sensitivities	-12.6191
▁subsidising	-12.6191
▁Illegal	-12.6191
▁partisan	-12.6191
▁Instance	-12.6191
▁sample	-12.6191
▁Fabre	-12.6191
▁roof	-12.6192
▁Parish	-12.6195
▁reimbursed	-12.6196
▁handicaps	-12.6202
▁Serb	-12.6218
▁bogg	-12.622
ologists	-12.6226
▁hindering	-12.623
▁nitrates	-12.6234
strict	-12.6235
fits	-12.6239
▁casual	-12.6244
Aubrespy	-12.6244
embracing	-12.6244
▁Eurlings	-12.6244
▁NAFO	-12.6244
▁Science	-12.6244
▁Taoiseach	-12.6244
▁illiteracy	-12.6244
▁polite	-12.6244
▁preclude	-12.6244
▁scanners	-12.6244
▁tachograph	-12.6244
▁inferior	-12.6244
▁multiply	-12.6244
▁planting	-12.6244
▁colonis	-12.6245
▁Rack	-12.6247
▁appealed	-12.6249
EX	-12.625
▁summon	-12.6251
▁Bosnian	-12.626
auc	-12.6262
▁Panel	-12.6263
IN	-12.6267
▁concealed	-12.6275
▁ideally	-12.6285
▁slots	-12.6287
system	-12.6289
▁shake	-12.6295
▁pluralist	-12.6296
born	-12.6297
▁architect	-12.6297
▁Chief	-12.6297
▁Enterprise	-12.6297
▁Immunities	-12.6297
▁SAVE	-12.6297
▁Srebrenica	-12.6297
▁turmoil	-12.6297
▁unjustifiable	-12.6297
0,000	-12.6297
▁Vietnamese	-12.6297
▁Guard	-12.6298
▁repress	-12.63
▁chairing	-12.6301
▁spin	-12.6302
▁Cambodian	-12.631
It	-12.6315
▁advancement	-12.6316
▁modernised	-12.632
▁distressing	-12.6321
▁endangering	-12.6326
▁Bra	-12.6329
roll	-12.6332
▁Mayor	-12.6337
▁oppress	-12.6341
▁accompli	-12.635
▁Companies	-12.6351
▁Söderman	-12.6351
▁Troika	-12.6351
▁abducted	-12.6351
▁circulating	-12.6351
▁despicable	-12.6351
▁oxide	-12.6351
▁phthalates	-12.6351
▁probability	-12.6351
▁scarcity	-12.6351
▁Wolf	-12.6351
▁misinterpret	-12.6351
▁unqualified	-12.6351
▁creditors	-12.6358
▁eagerly	-12.6358
assi	-12.636
▁Galician	-12.6362
▁bankers	-12.6364
▁diminishing	-12.637
▁reopening	-12.637
▁maxim	-12.6379
mplementing	-12.6385
tier	-12.6388
De	-12.6392
constitution	-12.6397
creation	-12.6397
▁DNA	-12.6404
▁Establish	-12.6404
▁Eurovignette	-12.6404
▁buried	-12.6404
▁comparing	-12.6404
▁crazy	-12.6404
▁frequencies	-12.6404
▁guess	-12.6404
▁hindrance	-12.6404
▁immune	-12.6404
▁philosophical	-12.6404
▁James	-12.6404
▁practitioners	-12.6404
▁Judg	-12.6404
▁Think	-12.6405
▁converge	-12.6405
▁inventory	-12.6405
▁Export	-12.6405
▁redirect	-12.6406
▁potatoes	-12.6406
▁volunteering	-12.6412
02)	-12.6417
▁harmless	-12.6421
▁justifying	-12.6425
▁103	-12.643
▁scr	-12.643
▁reconstruct	-12.6434
▁pollute	-12.6436
▁resisted	-12.6437
financed	-12.6448
▁bag	-12.6451
attached	-12.6451
State	-12.6451
▁Somali	-12.6457
▁prosper	-12.6457
▁expel	-12.6458
#	-12.6458
▁Cameroon	-12.6458
▁Improving	-12.6458
▁accru	-12.6458
▁flexibly	-12.6458
▁satisfies	-12.6458
▁suspicious	-12.6458
▁swallow	-12.6458
▁dogmatic	-12.6459
▁penalising	-12.6459
aid	-12.646
▁Broad	-12.646
▁banner	-12.6465
PE	-12.6469
▁blatantly	-12.647
));	-12.6477
▁correctness	-12.6479
▁escaped	-12.6481
▁Refugee	-12.6488
▁EPA	-12.65
▁rationalise	-12.6504
African	-12.6508
▁Specific	-12.6512
biotechnological	-12.6513
▁EPLP	-12.6513
▁acceleration	-12.6513
▁anonymous	-12.6513
▁arbitrarily	-12.6513
▁atmospheric	-12.6513
▁probable	-12.6513
▁EAGGF	-12.6513
▁Muscardini	-12.6513
▁pseudo	-12.6513
▁thrive	-12.6513
versus	-12.6513
▁Leyla	-12.6513
▁fever	-12.6514
▁stride	-12.6516
5/2001	-12.6518
▁cooling	-12.6525
▁containers	-12.653
▁109	-12.6531
represented	-12.6537
▁biofuel	-12.6543
▁accus	-12.6545
Lisbon	-12.656
standard	-12.656
▁Macedonian	-12.6562
▁Catania	-12.6567
▁Scheme	-12.6567
▁Schnellhardt	-12.6567
▁VOTE	-12.6567
▁arbitration	-12.6567
▁cynicism	-12.6567
▁testimony	-12.6567
▁collateral	-12.6567
▁demon	-12.6568
▁Arias	-12.6568
▁Pronk	-12.6568
▁Campos	-12.6568
▁barrel	-12.6568
ampton	-12.6568
▁chip	-12.6569
▁pessimistic	-12.657
▁sadness	-12.6573
that	-12.6578
▁classify	-12.6579
▁forged	-12.658
66	-12.658
▁optimise	-12.6584
▁reuse	-12.6604
oil	-12.6607
colonial	-12.6615
▁tailor	-12.6615
▁worsen	-12.6619
ccupied	-12.6622
▁Thousands	-12.6622
▁colonies	-12.6622
▁mitigation	-12.6622
▁starving	-12.6622
▁heaven	-12.6622
▁easing	-12.6622
▁spotlight	-12.6623
▁interregional	-12.6624
▁fence	-12.6624
▁materialise	-12.663
▁combatting	-12.6634
grad	-12.6639
0/2001	-12.6643
▁defenceless	-12.665
▁Moldovan	-12.6651
▁device	-12.6654
para	-12.6673
▁cartels	-12.6677
▁Cabrol	-12.6678
▁Michael	-12.6678
▁Schwaiger	-12.6678
▁Spaniard	-12.6678
▁Vojvodina	-12.6678
▁culminate	-12.6678
▁revoke	-12.6678
▁Anything	-12.6678
▁carrot	-12.6678
▁liberate	-12.6678
▁Plus	-12.6678
▁psycho	-12.6678
▁plate	-12.6678
▁pleasing	-12.6678
▁Moura	-12.6678
▁Schmitt	-12.6678
▁manipulated	-12.6681
▁sinking	-12.6692
▁137	-12.6694
▁138	-12.6701
▁debtor	-12.6707
▁corridor	-12.6709
rated	-12.671
▁83	-12.671
▁cheaply	-12.6711
0/98	-12.672
ax	-12.6723
management	-12.6725
critical	-12.6726
compulsory	-12.6726
▁Additional	-12.6728
taining	-12.6732
▁Building	-12.6733
▁Papua	-12.6733
▁Tehran	-12.6733
▁crowd	-12.6733
▁erroneous	-12.6733
▁guerrilla	-12.6733
▁indisputable	-12.6733
▁memories	-12.6733
▁panacea	-12.6733
▁stalemate	-12.6733
▁Liberia	-12.6733
▁refute	-12.6733
▁angry	-12.6733
▁predictability	-12.6734
▁pipe	-12.6735
▁Polo	-12.6735
▁criticized	-12.6738
▁commended	-12.674
▁Press	-12.6741
▁locked	-12.6741
▁noticeable	-12.6741
▁interruption	-12.6744
play	-12.675
▁centralisation	-12.6755
design	-12.6776
present	-12.678
charge	-12.6781
enterprises	-12.6781
good	-12.6782
▁flout	-12.6785
▁Everybody	-12.6789
▁Migration	-12.6789
▁Plooij	-12.6789
▁Tobacco	-12.6789
▁ombudsman	-12.6789
▁Banotti	-12.6789
▁Miranda	-12.6789
▁Stevenson	-12.6789
▁infinite	-12.6789
▁proverb	-12.6789
▁gentleman	-12.6789
▁imperialism	-12.6789
▁engineers	-12.6791
▁farce	-12.6792
▁possesses	-12.6793
▁resemble	-12.6795
▁terminate	-12.6796
▁17%	-12.6799
▁affirmation	-12.6803
▁designate	-12.6815
▁alarmed	-12.6816
▁girl	-12.6822
▁Coming	-12.6823
▁install	-12.6832
functioning	-12.6838
group	-12.6838
RT	-12.6845
▁cool	-12.6845
▁Catalonia	-12.6845
▁Earlier	-12.6845
▁Improvement	-12.6845
▁Seychelles	-12.6845
▁Sharia	-12.6845
▁apartheid	-12.6845
▁disseminating	-12.6845
▁humiliating	-12.6845
▁naïve	-12.6845
▁receptive	-12.6845
▁Veld	-12.6845
▁stemming	-12.6845
▁negat	-12.6846
▁Return	-12.6846
▁Farage	-12.6847
▁patentability	-12.6848
▁Near	-12.6848
▁cook	-12.6848
▁Sta	-12.6849
▁Learning	-12.6849
labelling	-12.6875
vig	-12.6881
▁dispense	-12.6883
▁112	-12.6884
codified	-12.6885
00):	-12.6885
▁eighth	-12.6889
▁Clear	-12.6896
Qaeda	-12.6902
▁1984	-12.6902
▁Morgantini	-12.6902
▁Oreja	-12.6902
▁ambiguities	-12.6902
▁comparability	-12.6902
▁depopulation	-12.6902
▁marvellous	-12.6902
▁paradigm	-12.6902
▁prioritising	-12.6902
▁synonymous	-12.6902
▁Conclusion	-12.6902
▁exacerbating	-12.6902
▁shout	-12.6902
▁therapy	-12.6902
▁Kohl	-12.6902
▁prudential	-12.6902
▁lady	-12.6903
▁hair	-12.6903
neath	-12.6903
▁93	-12.6905
▁operative	-12.6908
▁lucky	-12.6909
▁Finn	-12.6911
SEC	-12.6923
mmer	-12.6932
▁negotiator	-12.6936
▁(1)	-12.6938
▁avenues	-12.694
3/98	-12.6945
2/2001	-12.6946
contract	-12.6951
ACP	-12.6952
structuring	-12.6957
▁disregarding	-12.6957
▁Holocaust	-12.6959
▁addicts	-12.6959
▁engender	-12.6959
▁helicopter	-12.6959
▁inaccurate	-12.6959
▁literacy	-12.6959
▁punitive	-12.6959
▁separating	-12.6959
▁tenacity	-12.6959
▁relegat	-12.6959
▁abusive	-12.6959
▁Horn	-12.6959
▁Radio	-12.6959
▁Never	-12.696
▁eroded	-12.6962
mine	-12.6962
▁rationalisation	-12.6963
▁Reformist	-12.6968
▁wounded	-12.6973
[...]
